16
mlp.0.weight 200704 390907e0 3c9d37a1 bce8f9c6 bcd00932 bc56b91b 3c205060 b99df06c 3ce6de95 bb32084b 3c1e5642 bc271ee3 bbd4d9f4 bd2a959b bcfbf0e8 bca923cd bb88c663 3c6961fd 3caf62bf bcbf5a88 bc73a245 3c570a24 3cf1a394 bbdf6ff1 3cd9fcdb bbac2d7b 3b865a1b 3d038480 bd037e35 bcb17a80 bc0afacd bc594c1b 3cfb2f5b bc89459f bc07eb20 bc8c9ca4 bce1e06a bc970906 3d0b5855 3c544856 bb62591c bc7d05cd bcc0463c 3c0afb84 bd1228ee bc5e5a5d bc9074be 3c1a1b71 3c934f03 bba82e47 bb91b655 3ce78e9c 3d45b8c7 3c6a3cbe 3ba80371 3cc3b710 bca5d8c1 3be2db62 bcdb4465 bd0019dd bcc635b1 3ca12fdd 3c543996 bccfc1f5 3c0b9783 3c3076ea bc656ad4 bbf8d7d8 bce788e1 3b251e3d 3d598230 3bbb25cc 3cd73ffc 3d1dcd32 3ccb6585 3cf00554 3c691b45 3c0d87da bccde730 3c5f5621 ba63f919 bce6fdf8 3c8787f7 3cdd6fde bd0d8e4d 3be3cfb6 bbb4972f bcb42469 bc7d0307 3cb7961c bbae4d42 3d1b24c8 3d0760fd 3d780710 3d1a92bd bd09f91e bd1c8389 3ce1370e 3d8163ba 3a588d5e bc684349 3d865d85 3ce566c2 bcc5562e bc9bb56e bbc5a850 3d15c34a 3c7950e5 3c49372c bc6a7a93 bbf1c657 bba0b54d 3cad740d bcab7227 3ca0f55d 3bfa30d6 bcc13c2b 3b32f8ef 3ca64caf 3d29aac5 3d0972fb 3cf923f2 3b80855e bcc8282d 3be1bfd8 bce851dd bc447fdb bc69e0ca bcf77498 bc3e3e9b bc7edfa4 3c38853c 3b3cb33a bc8f5910 bb467e49 3d47536f bcdbc366 bcf6e66f bcc42e27 3c0960ee 3c8c3b90 3d09a0c0 3cb99aa2 3d0c6aaf bc1f87cf bd385d40 bc7a51bc 3ce9ff46 bc911a26 bd5ea831 bd6ff0cb bd345184 bd0d816e bc574199 3bdef5ee 39664ef9 bd05eba7 3c1b04d7 bd2459b1 3985ef79 3b2234c1 bb20199a bc84c0fa bd1a2459 bd00ff27 bcc6b2a7 3a44d6ef 3c0a916c 3d019c18 bcfef2ac bc67fa22 3d19c4eb bd28732c 3c519f48 bc2317e7 bd48d81e bc2176e4 bce7dc1b bcb913de 3cf0edbc bca978cb bb25bf67 bc55e568 3cc1af8e 3c85dbf7 3c76ea4d 3b9b23ba 3c30361d 3c9089e5 bc5872cf 3a68a552 bbc13786 bb1405b9 bd515cc5 3a53c747 bcebe5db 39c41f81 bc89d7f9 b9521378 3be4d08f bc35c5bd 3baa3f1b 3cdafada bd21128c bd399985 bcb9949e 3c05c53e bbc254bd 3ca90490 bc1a2c92 bc816905 bbfece17 baaef16b baa6841b bcc9ebf0 39922c25 3c4a6d40 bc665de9 bc0f779a 3cc5c3b5 bd463671 bcd33f2c 3c304497 3c29d70d 3bad3797 bd70839b 3c876381 b95ec258 3b20a403 bb14c48c 3c5c1abd 3c836738 3cd3a800 3b2d25e1 3ce682a3 3bc590c9 bd5d00f4 bc7217c2 bd13519b bc6065de 3b54335d 3cd32d91 3c8953c5 bcf030d9 ba9ea694 3cb348a2 bc926957 3cbd21ac bd48c723 bc0151b4 3a27471b bbb9f8ce 3c8a449a 3d0fc10d bd0a95fb bc766168 bb90c33e bd87e90d bbda522a bc69377b bcd6a17d bc806b9f 3cb00c05 3b2cc2e5 3bbec691 3ba137c1 bc8a218b bbd5362b 3ca0d974 3cc41391 3aa68d32 bccecb50 bc8b56c2 bbb991fc 3cb259e4 bd09bd57 bd1e0f8c 3d12c7e9 ba9d3756 bb82b615 bc112633 3b530b2e bc2d0b9d bd45578c 3cb96bef bcbe4950 bc431a56 bc9e23a1 3c68cb28 3c921e61 3c43f538 bd044033 3b2143cd b9e550fc bc5edc37 bc29067c bcd5732e 3c2e8040 bcd59dbc 3c917134 bc0ad171 bc028178 3906916a bd0c547c 3c519dc3 3bd1c2eb bd0db6d5 3c3ced60 3a55cbd7 3cc4f127 3c0b77e8 bd3884c4 bc69dabd bb2c6422 bca22aee 3ce19503 3d1f47b1 3cc41506 3ca42393 3c83b37f bbca19db bc6d1161 bcbaff41 bd82670d bd0e33d6 bba46ad2 3bad122c 3c66b046 3c9648ad 3ce5bb3a bbd36a89 bc3b4eb7 bc86968e 3d5d6249 3d328ee0 3a62c444 3c751b3c 3c89acf6 3d426e58 3cc3f280 3d09cdd6 3b847dee 3c5052fb 3d79ecd7 3d2248da bc1fe3f9 3d26090f 3cb12edf 3c765ef3 bd281ef3 bc895b9d bd05a05c bb9e3d7d bcade604 3ca1a55e 3c142af4 3d33573d 3c1d2a34 3d268c3d bb725eda 3d0b0102 3c175771 bcccc092 bb9eac6b 3d04ee44 3cb0dbd9 3d4bd4f2 3cd33926 bc8a825b bc3e23e3 3c7ee846 bc5b698c 3cfa7698 bcd04c2b b9d87a8e bc91c448 3c3ccb1d 3d2ad465 3d603eb6 3d126141 3cc4afb9 3d221e1e 3c757e65 3cfe80f5 3d827150 3d2ec01e 3d4d6663 3c42f649 3c2e2a6c bc688acf 3c7ed920 3ce89d01 3b4a96f7 bc8fa1bf bc5d4356 bd286bc3 3d0867c3 3d1df553 3c2899e1 bb714728 3ced8448 3cdf28f4 3c485178 bc29e8cb 3d353316 3ca428cb 3b83ea9d 3d602c1a 3d57fc1c 3c464e70 3d066ddf bc5d1803 bb9a1a63 3d09fbe8 3b93ada4 bd19b419 bd03c5fb bc896be7 3ca51772 3cd66057 3d3d39a4 3c4ae6e5 bca53d00 bb0f54e5 3cd73d31 3d0f2320 bc2283e3 3bef9005 bd03f9c7 bc87eb0c 3c675ee2 bc8adeef 3c8d1b96 3d06c206 3cccbe49 bbfbef80 3bb77bd5 3ce2211e bc8820bb 3c7ca54d bceefef8 bd2b699e bd43980a bcba32de 3c318fc9 bd19194d 3d079fd1 bd21bb7b 3bec6099 3cf02fe9 bcdeb9f2 3c9ca718 3ca5fdfa 3d44e43f 3d237e57 bc10cd75 3cf2693f 3c2e9f08 3c84ddf7 bca0e693 3c36b6ca bc897739 3b725419 3c282c2c bc6858c1 3caa735a 3d1b04a8 3b06b8c2 bcdc4273 bd24b931 bd0adb6f bbf9f716 3b8a6c6e b9ec10be bca75dee 3c2e5963 bcee608a bcf204be 3c637105 bce57b8c 3cf26907 bbad7023 3c3446ce bc8df221 3d097a76 3c519ac3 3ce39599 3ce92ab7 3cced7db 3c4f9a59 3bd78cd1 bc57697b 3a98b917 3b88d94c bcb3a5b3 3c48a67d bc819c87 bd67e279 bd6d39cd bc1a1fe2 bb79bb08 bd907cf3 bc0fc8cf 3c27d97e 3c84e2d3 3d51fe95 bc75a741 3b0c5810 3cfff3d7 baaa9c1d 3d10589b 3c8b4133 3d14843a 3c3c7c01 bc2c28f3 3cd87972 3a7b4259 bcbae5bf 3b69dfcf 3c583b03 bc13bb8a bcac0d0c bc8328ac 3ba07ca0 bd14aa00 bd0bdaa9 bd07b2cb 3ce13b33 390b0b12 bc1eb088 bc974a9f 3d35e29b 3d217510 bcfc491e bd601d6a bd67de21 3af549eb bbbdd4ce bcc5fb7a bc6b2b3b 3c63e555 bb8c20e1 3c08b371 bc34ea8e bcde6fba 3bb08b6b 3d17ffa0 bcd44d56 bc2bfe62 bce667e0 3d21293e bce6f0f1 bd017ca7 3d0c6c04 bca2612d 3c0b5696 3c2752fa bcea2ef5 bcc85dcb 3c98eef4 3bf27914 bd0a36c7 bd0b6818 bd259409 3accd4ae bce4085a 3c9b0d9d bd288dda bcb133dd 3c8d6383 3c281c19 3b2b1b3a 3accde00 bc7eed95 bcb580f5 bc5ebcc7 3ca33728 bc42deb4 bc9fd806 3c529de8 3d18629d 3b98d7f6 bc88f4dc bd0bd477 bb9b09ba bb7536b3 bb894d54 3bdea06d 3ba6f53f 3cb2b0a0 3d13bba1 bcde9eb2 bd635e76 bcc1f6f1 3c3dc642 bbdf712e 3ba81617 bd40c860 3c8675c3 3bc165ad 3ba55ccf bd03ef58 bc94ef85 bcba5eb9 3d2917c0 3a5238e0 bc54b8ba 3c3b865d bc37fc86 bc2ba975 3a68c27b bbca7cd5 bd651a94 3cf05622 bae0fd03 bc8c92fe 3cab1142 3c3e0d03 3c922efa 3d22c41e 3c9296f6 bcb53d1f 3a03a8ee bcc35854 bd653622 bd1612d5 bd79f40b 3babe607 bcbd5108 bd0b5cac bb554526 3cd16710 3c4512a3 3c3e87da bbde20b2 3bf4c539 bc16b56e bb7b37b0 bcedb854 bcbc4d1a 3bc05aad bc5227a0 3c86591e bcbca01e bbfb96d1 bcb6f744 3d0af4df bc89ddc4 3d6de97f bd20ef41 bbb3dd88 3b6b2cd9 bcfc433f 3c4a46d5 bd067b22 bce4dd8e bcbcb8f2 bbc46d6f 3cb7e7cb bc5d491b 3c17f3e7 bb9afb04 bb9335d6 3d01d707 bc58c93e 3c315c07 3cdfdc1d 3baaa778 3cf97f39 3b962a13 3d2c0213 bd3cd9f2 bb98a312 bbbcc45a 3c407551 3c0a8001 3d0382d6 3c395e36 3c3f9d33 3cfc9853 bc39e2db 3d0bca31 bbde29fa 3d0cdf2e 3d06ff84 3cbcf207 3c252b35 bbd08388 bcc2e12f 3d04e9a4 3ccf7409 3cc49002 3acc41a6 3d2f0408 3cd5e36b 3b949cd8 bc6a9828 3d218639 bcbcc9ea 3c2c3d0e 3bb3b9cc bc83162a 3c4e47b7 bd1bef82 bc258ed2 bc57f637 3c546df3 3c4266dc 3d0a0ac8 bc74d594 3d04c1f3 3ce4d926 3bc393cf bc6c60b7 bd05ee8b 3d095897 3a8f4838 3ca78db6 3cec545b 3ceeaaf1 3d54b99d 3d836c1e bc4f353a ba3f6ff0 bc1aeb4f bd0c1b3d 3c382294 3d135459 bce2cde4 3cb0e6d8 bc918e04 bbd2cf82 3c8eb586 3c367e56 3cdee766 3bdc007b 3d80f7e1 3cdf07b0 3b2404a3 3d15502c 3c1f94c7 3bc287f1 3b9379ac 3cf46d94 bc94b553 3ca3d8aa 3cfcf755 3d021f75 bc64339e 3b8b4ac0 398cdb6d bd0d1897 3ce8082a 3d423016 3d0c1cbf 3b7004b0 3c08ddde bc72298e 3cdbd2a1 bc68666d bcc43e35 3c7fc1b7 3ca58c64 bc6a78a1 3d5f6519 3ccfe8d4 3a37e89c bb6172dd 3d65b34d bb2ba4b4 bb0f3a8a 3cb9ed62 bca5e311 3cc238ff 3c89427e 3cd188fc 3ab96112 3d12192b bccb0e4c 3ce99f97 bd2eea4a bcfc781d 3cb38852 3b84d696 3b1e3e30 bc9f5893 bc71d223 bc28d7cc bd0c2909 3ae74539 3bc941a1 b8b4da8e 3c3889a6 3d07fc99 3c17c12c bc532747 bc6d3253 bd243e04 bd211d94 bc46b3fc bc3c6e6c 3c7e5e7a bc76503a 3ce475dd bcc9dc1d 38346d00 3d00aeb9 3d0e757c bca6cec5 3bcab0a8 3b85bede bc8713c5 bc474e71 3c1aa424 bcc818ca 3bbb9c6a 3c778730 bc375270 3d233abc 3c0aed7a 3ca5df9e 3cfaced3 bca0d304 ba0a9cff bd1dab21 bd0f7605 bca6b4ce bc6ad52d bd1f1360 3c2860ce bbc2f950 3c588d8d bcd16cbc bbeec3d7 baaa8c41 bc64c487 3c941f60 3b910d1b bc66d728 bc4314d8 3c1533a7 bbd17fbb 3cbb2378 3b4ee9e9 bc2ce0a2 3cc42b70 bc0d1c4a 3b66223c 3c7446b3 3c03ac9c 3cd41e19 3cd02031 3d1d0360 baa90dd8 bc20f1e9 3d3b0ecc bcf06da6 ba81e318 bc26ac21 3c5f6e2f bd464289 3c0f0b18 3b8e08b0 bc9d32ab 3864e2c8 3d385949 b9ec4a81 bb3bbbb8 bc7c318b bba05608 3bf7b5e9 bc4b34f7 bcbc4f40 bd36fa14 3c355a3a bc10c756 3b483063 3d3f5891 3d777033 3b792bb9 3ce93c38 3c0bccfa bd285b61 bcdda6ef 3c8d10be bb1cdc95 3c3bcc08 3ab06c4b bd852f4a bc96721b 3cb9f8e3 3ad2cb51 3cad0bdb bc1d090a 3cc36544 bcd54acc 3c83d2cb bcfec2a8 bc1b051c bc4aa75b bcab9e0a 3c274208 3bf99800 3cadffb2 3d27fe20 3cbac982 bc8d92e6 bd2d6750 bc55e0a9 b96c789b bc996b85 3c303362 bbc7d7bd 3a0ca5af 3c8228a7 3cc76704 3b369a0d bcaee847 bcc30a77 3c8956ed bbafd56d 3c7b6f76 bd525794 bd103ee8 3c67ea29 3cb739e1 bd0202a6 39230821 bd33322f 3cb3dc35 bc18c8c2 3cbe466a bce0e551 bcfe8842 bbac0e20 3cdf9be4 3ca47d1b 3cbd5c8e bc8c063e 3d023b17 bc36c18d 3ca6e9f8 bc7131ed ba7e1b99 bc13e574 bc41ab25 3bf3a52c bc8c0af7 bd1bf95d bc32e5f5 bd4230d5 bd43a7e6 bca956c9 bceb1919 bd092187 3c414830 bbc2bb19 3ba7dc9c bcbda03c 3c7f9671 bb081315 bd19d1de bb1b35fe 3cec7722 bce1c245 bd03bb6c 3bd7f349 3d040f39 bcad01b9 3c97ee7b 3c8d3d5b 3c8cffad 3c1aed8c 3d13eb9c 3c8979f7 bc96f914 bc51563f 3cc7b767 3d04d7d4 bca50db6 3bf84792 bc273ed5 bd96943d 3be3fff5 bcc17d8c 3ba20523 bc93eda9 bcd25a48 bba69d2b bb940f74 3c1db3c7 badf4a1c 3d2d2e58 3c0ab7d2 bc804fd9 3c62cece bcab2f76 bafff018 bcd2e890 bc11f4ff bc95341a bc96a3c8 bd28b2f9 bb297b9d bceaf093 bc25a2f1 3c8812fd bcd023b3 bd351af8 bd353c07 bcb168a5 3afe98b1 bc69933a 3c53d4dc bce0f397 bba23596 3c766e04 3cb89c53 bc176639 bcc0684d 3b77b5f9 3c43a2ae bd217b90 bc64be40 3c9a5370 ba2146e7 bd360c12 bcc79661 3c32d81c bceff8f1 3a8f5c8a 3cd5694c 3cb0b2cb bb60730e 3bf121e2 3c0517d7 bcbe5ffc bcc5bf35 bcda0441 bd03b0c3 bb8f7f65 bd2f58c8 3cec5f8f bbad5108 bc37575a 3c12b346 bc0779ee 3c519cf5 3c6dfeab bd1263ad bbb4e0d1 3ba1dbe4 3c245007 3d0c48ee 3d12e88f bc2d0653 3b19f7d6 3cb9b34b bba933b3 3ceb57b2 bc735f3a bcde7c49 3d22eea3 3d3d6823 3d44873e bbcc8892 bcee2f5a bcd8c2f0 bd4c4e56 bca787e8 3cd4c693 3c9d535e 3b56d621 3a3269bf bd1ac316 3c09c18f bd37561b bd50c586 bc790988 3d080eb7 3c81fc52 3cadcd0a bbfdbe8e 3ce7ec3c 3c6317bc 3bed2248 3b7093ae 3afeff45 bc28ba11 bbdae612 bcb5cbeb bc8a1680 3ceac1c0 bbc56d19 3c0f46d8 bd15108c bcd57b53 393696fa bcd101e8 3c004039 bc954629 bcccc16a bc5ffb5a 3cae1b3d 3b0ad24f bd07853c 3b67977e bd168fc0 bd27cd83 bbdde7be 3ba8055d bc02fc7e bc8eb91e bcd42333 bc7f1390 bd2c028b bd7c0c79 bc5417b7 bd0eacb4 bd86e957 bc85ab1f bbe901a1 bd46a719 bd5cd2f0 bb8a7c57 bcccc42e bc73a1d6 bd2222b5 bd465b1e 3b34da36 bcaf915a bcd76850 3addb7e3 3b9853aa 3c958a65 bbda0a99 bd0e47df bd166b94 bd0f9d6f 3c9f6fd2 bc1a07b0 bb5f9d14 3c802856 bd019c54 bd555593 3c073e98 bc479e2b 3cd8194e bce02fe0 3cd088d3 bd2724a4 bc05ffb0 bbce5966 bd00624d bb1ee1f8 ba4b9aef bd76be8c bcd4e08b 3cb01e28 ba8ad1a6 b8f38a6c bd0e9909 bb955236 bc9e6d00 3c83d386 bbaf1250 bd2fa4a8 bb64a9c1 3c725d31 3ba2f6e3 bc341432 bc7b50f3 3bc0d70c bc6e25ea bc274583 3c1a430e 3bd6642a 3b5334c5 3c569a73 bcdcdd78 3cdee368 bc941a5d bce8e524 3cc2e99d bd150edc bcf6450b bd0f8eb8 3b389bd2 3c5ee6f9 3c80f0fd bd14eff0 bc8489f9 3bdaa370 3af5f29a 3cfb3360 3c01d405 bc033580 3d788e3a bb9b0608 3bd2ff6a bcad9be9 3c7f5e8d 3d1e3e23 3d0dc4d2 bcfecd04 bd00597c bc103568 bcbb552a 3d8ed8e3 bc850fb7 bcafb439 bbbd38ab bc8f17e1 3cc303f3 bcd062ed bd099950 bd6c6cd4 bcda5d0f 38c6c8a0 bcc4e3d9 3c407341 3c1bed78 3b5170c8 bc7a46ae 3cb3b7df 3cf61670 3ca4903c bd3d6417 bbd35f0e 3cff41cf bc487faa 3d398155 3d284084 bcdf9f5d bc0ac85e 3c38190b bb2d9a32 3c6a7a7e 3c36a336 3cd3441e bc3e4cc2 bc480a69 3c7f12e3 bc51c18c bda27f8e bd82373b bd1de047 bcc34c2f bc6b6409 3ca92973 bc8c0d18 3bc73562 3d2881be 3d1555f0 bcb9b5d7 3c91576a 3b8ae41d 3ce09cae bd0fa220 3ce83db2 3ca16e32 bd05c35c bc18695a 3ccbfc0a bbf4663c 3c2fbf23 3c952dd6 3cf05992 3d22810a 3d58166a 3d3723b0 bc6cd23c 3bb5e21d bd5551e7 bcbae680 3a098ca1 bb7ae91e 3d15fcd4 3a50bd2d 3c35016e 3d12cbef bc7317b0 bc0fa876 bc66e1f4 bc29dbec 3c0a3e95 3b24e99a b993029e 3cb6f9c1 bc6d2cf0 bd1ca4e5 3cb64b71 3c9b48e4 bc77eaf8 ba820557 bc9eb294 bcb763e9 3d25a9c8 3b3d7749 3d687455 3c26ad30 3d1210ac 3ccb8688 3d3a609f 3cef0a42 3c9eee07 3a6b071e bca9b1cb bc375b6c bd12c638 bc34f4f7 3c2181c5 bca3da09 3ba92172 bc40a4d3 3c5bec64 3d50fed0 bc851e1d bd0e030f 3cabc2df bd1d55ef bc4ee8c5 b8ca087d bb2ecb56 bc6dde74 bc9f1484 3cfbbed1 3d1e2cc4 3da928ac 3d9e975d 3d12784d 3c05ddd0 bc37c2eb 3ccd6c54 bc660307 bca978df bc5e0881 3b374a9e bcba8320 bc18d58d bc0f1dda bd0eea5a 3c51e787 babc7b77 3d339ba9 bc50abfe bc8e5e0e 3c6f2942 bd87b151 bc485f62 3d09bb1c bbc66fc9 3caa4439 3d05f8e0 3d5171e1 3d18dbb2 3db6e2d8 3c5bf794 bb92031a 3c39a9d1 3bd39971 3c94fb08 3c02a114 bccb3719 3c270af1 3bb96c5e 3c849836 3c99d27e bb33f4c2 bd1cdb06 3cce2fda bd1370db 3c9b71c0 bcba6ff9 bc140b78 b9895d51 bbf17706 bca2d261 3c94098c bb96104b 3b97db9e 3ce7b229 bc89a3a4 3c7eec45 bb76158a 3cde7342 3c4d0480 bbe31940 bbed8a46 ba93c67f 3cbee359 3c14d2f1 3d21820b 3c98acf5 3d027596 3cffed18 bb5193e6 3c94f9c3 b9982435 bb6e9063 3aa02a90 3c5f845e 3c019803 bc9ca27d 3c8bab5e 3c608c00 3c7bf931 3d2ea6bd bb8490b1 3cea7aa7 3b216e68 3c725d99 bc5b5683 3bf36fb6 3c6bf4aa 3d1b323e 3c04bee3 3d390ce4 bc42122d 3c9c9181 3cb17055 ba2c6984 bca3c021 bc1d94d8 3b83aea1 bc72b532 3ce92639 3cdbafc8 3c99715c bc88ea3a bd03fe3e bd136f10 3cc0ec54 3d2678c6 3c5a7c6c baf1fea9 3b3aa1ef 3c6608d2 bc99f226 bcbe9ca7 3cf421f6 bd1f9f5a bc5baace bbc6e15f bc97e886 3c9a1c55 3cfe7133 3c134509 3bd92edb 3bb77a34 3ab02b67 3d7f6f67 3d7da108 3d8be2df 3c5f9ec9 3d3143dd bd06b8f1 bc0ee531 bbeb5f6a bd3c2e1e 3b5b3c2b 3c1b9bf8 398881fb bc912b93 bcf77f4a bbce4d7b bd4b808c 3ad5d5db bb42dbf2 3a8aef42 bcf52a95 bc21c35a 3b34e795 3d03c470 3d30ccce 3c4880fe 3a3db188 bc230d6d 3b877338 3d6b6ee3 3d11d854 3d450417 3cd3c5b2 bbfe0a84 bcb25fdb 3d0c07f7 3ce5e11d 3cc82dd8 bd4cdea2 3cb17ec7 bc087944 bbf2c480 bc5ecd29 bc123441 bd82a4e9 bce09469 3c96f4a4 bcc0cdbf bd37510c 3c12a35f bcccbf09 3ce045df b9b7b43d 3cbba63c 3b7291a8 3b808f87 bc61b101 bac3e09e 3cdb34bd 3c2d1a06 3c9f6bf8 3ab5b153 bbb34c5f bca6523a bd039d2b bc2878a8 bc96a71d 3c05d7b1 3c080166 bb4c3ab7 bca58cf9 3d10e6da 3cc9e644 bb7eb4a6 bc4f70aa 3cd43196 3d496e9e bd0171a0 bd065927 bcb23a1e bce7ed93 3ca24437 3c94369f 3d4be08d 3c5f3a91 3b0f09de bc9d7699 3c4389a1 3c542047 3c7cef31 baaad62a 3d089217 bcc73be0 3c5b21ad 3d00f079 bb3026ee 3d01d92f 3c5f83a5 bc5ee1b3 bbe38542 3cf7e0b9 bb8dfcf1 3ccd8429 3d114234 3c896c04 bcbbcbcc bc19a7fe bcf4dd1d bd279ecd bcfa24b3 bc74ba03 3cca627a 3c9c50f0 bbf995ad bd049cfb 3c9b20d5 bca35701 bbc191e1 bcf13779 bc9d53af 3c78b8e1 bd035fde bc9f021b 3cdbc11c bc8e98af bc65af9c bc17f12e 3c7e86ab bcb7b0cd 3b85a0b1 3c73c7e9 bc69ac96 bc03e908 bd11847e 3c294e18 3c5fcada bb7b0d1c bce8beaf 3c6edcd0 3cbfe31e bbb655bd 3c8c0463 3c5e0617 bc5c5b38 baf4d5f7 3d111a7c 3a3f5b89 bcdfeeca bb027a4e 3c936212 bc3225a7 bc85e4a8 3cf046e2 3c304f1d bc4ca97e 3b81eace 3c99344e 3d19ec08 3d0896bf babfb36f 3c34f2cb 3c647647 3cbd8b25 bbb0b4ef 3cf44453 bbf22ed4 3cb22ef8 3ceeefab bbe58b6f bd4f1a0d bcc14dda 3a2107f1 bcf376f4 bcc66c6e 3d07139c 3cdb3425 3ca3b04c 3ca3b4c1 3cb4f304 3d094858 3d223289 bc0d298c 3b8b06f0 3c5ca3a4 3b8e7fb8 bcbe425f bce89e80 3b45a032 3bcc3667 3bbd8704 3caf7a97 3d2f10c9 bc089284 bb74ec9f bd2f7752 3d4c5bc0 bc1d38c5 bced3be4 bbbb21ef bc37488d bc79d0d7 3c66b510 3be4bd55 bcc8f289 bcb878e7 3d109db0 3d35eb17 3cc556d5 bcbb19f1 3cf4ba8b 3d10d45a bcf7af6f bd0c3926 bcab33e6 bce74c28 bd3a6824 3ae9f19e bd800d94 3c83876d 3b8a68df bc9d367e ba881906 bbfd9d17 bd12a569 bc603f22 bbe0a63a 3c567abe 3d221c3c 3bd0386b bd52905c bc84043a bd02d77a 3d274b6a 3b9b9f95 bc7281b4 3ca8c5b5 3c434687 3c4644a8 3caf0c2e bc467d3e 3d0461c7 3cade741 bcb0b941 3a9c72bd bd08944a 3c913f90 3ce7f996 3c8ee15c 3d1bb976 bb15b525 badd05e1 bbbc9fbb bd18268c 3cac9a85 bcbfe397 bce2754c bc9859c4 3b94723a bd3c324b bbe126d8 3c84162c 3d35fa4a 3cb9b785 3c856f34 3c253e2b 3cbc9c1d 3c9c08a0 3d0e8615 3c557d6c 3c043e83 bd379a01 3cabd875 bce713d0 bc72ae59 3ba597b6 3b40a298 3c9071d5 3d312136 bb30aee1 3ca34f84 bccec9f8 3c81de59 3bcee21c bc89584a 3d06fea3 3ca3deb1 bcb8907d 3c1f2257 bd139399 3cc5f728 3c7d85f0 bc857057 3d208baf bbd7fd1e 3bc466fe 365e244c bcc51798 bca9e700 bcd669c4 bce5d12b bcf97ca2 bb1882bb 3d096337 3d02c223 bc0fd721 3ba17107 bb8fee9f 3b2e771b 3b6ba781 bb9eac84 3c9fb824 bce2b540 3c2ac0ee bc096b8d bc4863ba 3d0c5dbc bd395aab 3b86411e 3d38fbc6 3c21a0fd bc83a317 bca15e39 bca2a885 bd052aac bc15dbf1 bb98b742 3cd27eca bc81681d bc319826 3c884f4f 3ccd8522 3c8f64fb bc59f901 bcb6f6f5 bccbd0a2 3c99d8ff bc5f71e7 bba1b6d0 bc1696f0 bc08f0cc 3c18af5b bc84e187 3b9a582b 3b6119ae 3ba9744a 3d076437 bc86453a 3b5251c7 3c260497 3cd5e06f bc3c086a 3b880374 3c24fb92 bc9d2651 3c70c3a1 bc93a682 3ce7baed bca828e2 bc7e5abe bcc7641d bac5d951 bd5bfdda bbcc1b46 bb26b1ef 3cc1f815 3c1e8cef 3cfadf69 3d473f31 3b553e73 bac0cdf3 bcd04ab4 bc5156bd bbf102ef bb6f19f6 bcc9948b bcac76cd bd2a022c bbfe4d09 3bdac6c0 bcb113db 3d008a03 bce8a616 bce08583 bce594dd bc6e5c2b bb07a8f8 bd23879c 3c4511ee bc0619c7 bd07b953 3c64ace2 bc983441 bc1aebc2 bb4843f7 3c5b7b04 bc8fee55 bd192af3 bb276509 bc28bfeb 3cf5e708 bcc1499b baa6d0a5 bc5b2158 3d155444 bd3860fe bd05909c bca2003a 3d2bf70a 3d0fd7ad 3c430adc 3cd5ad9d bd2ea6a9 3c8c7d78 3cc7a604 3c86436d bd2ef91a bd3b3a37 bc35ef85 3c16d490 3cc94a08 3cec61c6 3d2af41b 3b8a0174 bc85b4b8 3b84158d bbb58287 bc909c3d bc1854ce bd0316bd 3a93ef77 bcbc2372 bc0c4265 bda08c19 bd8b724b bd8e5f0e 3d044142 3c3b570c 3d29ec3d bcd57711 bce5b958 bc3ce083 bb9b0486 3abd5cce 3b720dad bca504b0 bccc95a9 3afe9837 bbe8467b bbbda3ad 3cba1d35 3d36285c 3cfc738c 3c37a467 3c5c48b8 bb99746c ba948ffd bc4e9b57 3a742a99 bd2d8983 bd4fb3d8 bbe5abac bca80476 bd3243f2 3d2b8061 3cf1346b 3d516cea 3d424845 3c3eff4f 3d28baca 3c3527da 3aabb775 bcd039ba bc37143e bc0d8556 3d25914f 3cb2666e 3d05ef3e 3c878ef8 3d2d2be9 3c5f5b95 bc32073d bca9fc83 bd48e161 bafba1dc 3cc16209 bc7b01a4 bd47171d bcf0dc3c bd20ef3a bd5f24fd bd353807 bcaef9b0 3d286d6c bad55cbf 3c50760f 3ca1ed51 3d40d5b1 3cd55e22 3d26edab 3c97fb17 bc7441fc bbcd873a 3c3e899c 3d536b98 bb4a73ed bc034407 bc761e39 3c318d2d bc8dbadd bbdee993 3d04f45b 3cfa4c59 3b09454b bd5e8108 bc6daba1 bd8d0b60 bd39bad7 bd29fdd1 bd205774 bd0f5cdf bc345fc3 bd36fc3a bbe2ca1f 3d17910a 3ac0bf78 3ccd3c3f bbd63371 3bd22e9e 3c8c340b bd0de069 bd176a94 bce9e0c6 bcac1d90 bc360813 bc344257 3bd5159f bcd4d6eb 3baff489 bcb6c475 3c277f7f 3cddb80a bd28fddc bcf85dc1 3b0bd87a bc55c3a7 bcdf82ce bc90370c bd02015e bc54cea7 bc8935d1 3c9c25c5 3c4fd444 3cbc2fb0 3cc7caf6 3c4e3be6 3cc722ec bcd15681 bd1dfeb6 bcb3bfd1 bd56f31e 3cbe4239 bd0a4547 3b9b8856 bd0904cb bc33cdf9 3c8b762b 3b15add1 3bafd1a3 3c858a23 bd6a2761 bd526857 bd71af53 bc2e7916 3c84f64b bcbebf38 bc4ff3d5 bced7255 3c6955d8 bcb9f42f bbae2bcd 3cd00576 bc0d2b17 3c9f19a3 bcaca10e bc3bc019 bd0922eb bce1e44c bce9abb2 bcba415e 3cd816a3 3bf2425f 3b984be0 3c5ef701 3bde5e1c 3cd1e370 3c903c11 38fa4c07 bc066c62 bce296a9 bce7d4a3 39b91cbc bc119583 3ce3abeb 3c00a08a bcc29f04 bc61bdb4 3c37a9b2 3d3cc0c1 3d3c4a01 bd104869 3a71cc8b 3b4917ac 3b18879c bcc350d2 bd2512d6 bcb61c7f 3c98df92 bc86ea79 3c3cde7a bbe7d224 baa02288 3a423d92 bb930391 bd660dda 3d022982 3c4b1eab bc76e847 3bd5916a bc0afac0 3ccf2b38 bbe43eb2 bb08e9a4 bd01be5b bd0f534b 3d00ed20 bc4f5026 bc77e607 bcf1775e 3c7dc2d9 3b078f4d bc139c0a bd5c04e2 bd922ce5 3bf42a84 bcf9c1c0 3bfe979e bbfb8607 3c2ce811 3cdb975b bcde64f5 3c36b288 bd1dfc93 bcd717e2 bd0c5f23 bbf8ca43 3b6303c9 3cbf7550 ba8d4d6a bc80ddee 3cf8da22 3b502cdf bc3bbdbb bce5c3b2 bc968133 bb31c4bc bb8e60a4 3c0f58c9 3c175992 bb8e1bcf 3ba5d780 bc8b12c1 bc8ad153 3ce248c7 bc2db366 bc42d660 bcef916a 3d157182 3d0ca31b 3c693ca3 3cda9129 bd339edd bca2f8ae bc57eb7f bd8c9b08 baaabec1 bcfab7eb 3ba558d5 3cbebc21 bd23d2e0 3cb9ff6d 3bca85f0 bcdff849 3ccb77bb bc51bd3d ba1f1e5b bab0ef16 3bc52f65 bc3a05ea ba04884e bd0b9a2c bc69d7ba 3ccd44f0 3c323034 3bc67679 3c32f01e 38f429be bd16a74a 3caf9fd1 bd509f88 bc25406b bd16130b bb4b518b bb4125f0 bb5fbe44 3ac15b8d bcef063d baea7b52 3c1f63bf bb0d8f34 bb546271 3cedf752 bc0cd504 bc043cf1 3ce3211e bb883050 bcb079a7 3c8cec7c bc554445 bbc83ebb bcd4ad57 bc731c21 3cc59eb5 3c44fea2 3c39b395 bd12de97 bc230b85 3ce47e3e bbd71fde bcac0888 bc97760d bc4bcfa8 3ae6a333 3c5549ce 3a43c7dd bc283c96 ba819c43 3c62cac4 3b53c1f8 bbb65187 3c75d914 bd00ef9a bbfdae19 bcf9541c 3cb2f60a 3b5826e2 bd596622 3cb92926 bd26e455 ba3412be 3c1ae28b bc1d1c6e bcb54252 bccd3694 3cd42ac2 bcdd0188 3d17042d bc6f8934 ba04cd65 bccf77a7 bcb712c1 bc8c0d52 3d5a40bd bc479d97 bb944ebc bc999f72 3914734d bcac3d1d 3d036db9 bd33b616 3ce6e8e6 bb9d3f92 bc84432f bbd28e46 bc4350b8 bcec1622 bd42aa52 3bc95e5a 3ce64b42 3cdb64d1 3c92ad27 3c25ba1f bb0ef4ef bce00b2d bcbc8938 bd02d6dd bc9fe6e3 3c194d20 bc99dbbe bb000c59 3c445eb3 bc021941 bc2c2cb4 3c07124d 3bb3ff31 3b8f9387 bcbd6441 bb9da844 3d0ef1eb bcb5aa90 bc263403 3d12b7d6 3c05ce3d bb62df60 3d20710b 3b9e8b1d 3c0643b3 bcfd7ace bbf28efb 3cb435bb bb932458 bc9e8286 3d28230b 39b1985c bc4d2245 391807bc bc09e607 3c43aec4 bb93b7be bc9dd62b 3bcdcc2b bb265c61 baf62261 bb0d8163 3b3ce583 bb8594bd 3ca5d1cf 3b719af0 bc981cc3 3cd2f0a4 bc7139e7 bc71f893 3c985506 3c025aaf 3ca730b2 bb3d635b bb8b3a63 bb288ca8 3bbbf847 3c5bbbf0 3cc88fed bd0d35b4 3b9fc341 bcdca300 bcc62ad0 3cd32308 bc9d359f bc926b29 3c8d82ac bcd4f580 3c71cb08 bbe099bd 3b922410 3be394b2 bd188a2e 3d425812 3ca32789 bb05cee9 3b9382f0 bcb2510a bc90a5d8 3c8123b8 bb84c7a1 3d32b1e6 3cfba4de bb4fff48 bcf9cca5 bacef84a 3b3cbc91 3cc48877 bb1fce0f 3c007b80 3c8430db bc82ff8d bcbc47d2 bcd68321 bc82a651 3cbdcc99 bb3fbed5 3c5eefa4 bbff2cef bca28376 3cb9bf00 3c282001 3b200712 3d1f12e6 3c1e2e0f 3cb3b295 bad46a66 bc4b334a 3cd72ff9 bc9ed820 3ae1f8ad 3c0a56fa 3c7b06da bd060db7 3aad115b bc1b4337 3cb6ec5a 3c3a9f6f 3c5f9582 3ca963ba bc070eed bb2d3df8 3ce316ac bcea8bd8 bcd3a511 3b2c3ae5 bc602518 3b34b27f 3cfa3c22 bb922715 bcf7f12c bc85bcb0 3d021c15 bc049b08 bc8107bc 3c7bc2db 3b810cc0 bd000f8d 3cebc0a9 3c9e5020 3cf6385f 3c74b4c4 bc482d49 bc41eddf 3ccc9511 baefa339 3c11b63c bca17257 bb69d3ac 3c21d46b bce4dffc bcd095e1 bcefe4b0 3d194758 3c0c8f54 bccd8c1e 3d0ace54 3cd166c0 bc3ab5cf bc58ad95 3d24f2f0 3b321266 bccaf6d9 3c5a6771 bbfc2dd4 3b032ae6 bc98dd5d bcf67189 bcc1e622 bb8b2bfc bd17ebf8 3cde76d1 bca119f2 bd028350 3bfd0c56 bd3668a0 bcab1b84 3c7ef812 bcbb9048 3c9692af 3c2b4270 bcb3207b bc633f33 bc854e75 bc38e1d1 bc9929aa bd12bc72 bc55052c 3cb648f1 3bb1027a 3bf0b3c3 3c96d977 3ca88a14 3d118c7b 3d09aa36 3cebc2b0 3d00b12b bc485fe4 bcc460b4 bc7533b0 bb8e22bf 3c6a3e89 bbde1150 bced78bc bca6c714 3d0a6303 ba299aaa 3cf7cb1c 3c18bbae 3c2c2a50 3cbf5461 bc4bb4fd bcd61369 bc01c57f 3cad9b0f bc4cc97d bd155e2e bd19ea9b 3d1d88d2 3ccb615b 3b7af64a bc921c03 3c154f4f bc9177ba 3cbf5411 bb2eb298 3b30140a bc28f5fd bd027c4a 3ccb8d5e 3d0adaed bbedeb00 babe9d0b 3c1f3b0b 3d5021d7 3bbc939e 3d65b9c2 3c297f44 bc7f640e 3c39e2f4 bd111e14 bbceefb2 bc88ad27 bb811cad bd2ac4b3 bd52f26a 3c8a8654 bb879f94 bd76632c bccc3464 bcd4a65e 3c851b91 3c850cc1 3d09a2d5 bd31ee3a bbba43f6 3cc4e15f 3cb9fd0a bcbc6270 3ca2f227 3cb1b01a 3ce5869c bc08c9ee 3d2f0dfa 3c7b00ab 3c9f25f0 3d327a9f 3d79051a bcb529bf 3c271ad0 3c0e25d6 3cad349a 3cc93e74 bad0a5db bd5919f2 bcb79d5b bc84bebd bd3946ad 3c02d9f0 bc94b0b5 bbf15258 3bf9a172 bcf68e7c bcd2ee6c 3c8354d3 bd48f088 3c878787 bd3a00b5 bcbc7498 3b8cb740 3caebe4a 3be30b25 3d0dbab0 3d6f4dff 3d3eaa3d bc930e62 bb0f291e 3c7d6d56 3cdaa25b bc2bdfb8 bcb5b046 bcb819a4 bd629e1f bd64c106 bd4ff162 bd3cf85f bb2a3259 3c53cd3e bce181f1 bbb5c415 3b699fad 3ce1f2fe bc626d45 bae7f3a4 3cf897b8 3cd27ccc bd03f81d bc41095a 3c24d02b 3cb5fc77 3be6b1a1 bb88fe67 3c52bd49 b8631e0a 3bb17122 3cd620cb 3b59237b 3b9cca21 3ca817d4 bd02f471 bd1c2bf8 bd40df37 bcc4b338 3c52482a bbc12a11 39af2734 bd0ee1eb bc82d3ae 3ceb7681 ba1695e1 bc20b01f 3cfa73d9 bb04bbb0 3c8f16ae bc82288e 3c0a98b9 3d0f4ef8 3c81cb6e bbe094cc 3c0221e3 3c1bcea5 3c95d7ea 3bdf8482 3c05a4b4 bbf4f370 3d1f3d12 3d0dadcd 3befb8ed bce9ebb8 bd6a4c44 bc4069ad bcfb870c bcadba85 bd3880a3 3be1b5f8 bcadc7a6 3d1427bb bc75fc3b bb85c904 b851d686 bc7fedf5 bb80bc14 bd32d316 bc4054ab bd1d2232 bcdb1f37 bc8b20bd bd1f29c1 3ccc7fce 3d100ea4 bbb9ba21 3cc0c74e 3d3b1aa8 3cf7a0e2 3c233620 bd152c63 bc3b165f bda72485 bd34e80f bcb063be bd2b5cdb bbf1ea1c bc9d7c32 3a967b25 3cac17fb 3d4212d3 bd0811d4 3cf11736 bbdb12e1 bcf8a444 bca23eb8 bc80b853 bbbd2fe4 bb9bb994 bba5d6ee 3d086dd8 3bebdcc6 bcbe8bf9 ba024f3d 3cbd5413 3c8356d4 3bc51064 3c9de312 bcf8deee 3cc22d85 bce1a4d3 bc9985c0 bba4dd39 3bff6732 3c623b9a bc9da18b 3cf576bc 39875f34 bca50d13 bd1c6b9f 3c823183 bc7fa139 bc84f362 ba660568 bb81db08 3a919d97 bb37442f 3b988fa8 3c44421b bd1d5a45 bc862e41 bb34db1f 3cae04b0 baae3666 3c23e682 bcf945dc bb82e28a 3b447284 3cd80ff8 bd2fb60f 3cba07ae bd7e5d9d bcd6e800 3cf6ec8f bc843d2d 3ca4d580 bd056049 bd2360ef bbd02ca3 3c0e3631 bbc517c7 3cd2b7fa bd01a8db 3ae1c952 3b6496c7 3b1c284a 3c34d6b3 3c2cbfef bd429f03 bd0eea23 3c968d08 bc1bf70b 3ce7cd89 3cb760a5 3cf263ae bc25fbc0 bd2da6cc bd1c750d 3bc72772 bd82fc68 bd5d0385 bd0857af bcbe332c bcfd8ed1 bd3ad279 bcc82f3f 3c4eb9f4 bc47aa33 3cc567cd bc9b25af bc844db3 bcfd7910 bd76070f bd7ff18c 3cc5372c bb8d1036 bd27d635 3cb1fe73 3b4bd98f bc3b6963 bcd20dd9 bd024ebc bccc9a70 3d093726 3bac224b bc65d2c1 bd37ff9f bcec23b3 bd6782b8 bba00d02 bc288124 bc92931f bd0fb994 3c3d8080 3c80c29d 3bc5b52c 3b73ee52 bcc57171 bca94738 bd5aece5 3aae67bd bd366642 3cab90a4 bc72bdb5 3b0558f5 ba5bef8f bcdad660 3bee637f bcd9688a 3bd23ce1 3caec22c 3c98aa2e 3cf7ed9f 3c7d8881 bc6d9e19 bd12ccf7 3b999a76 bcef07b3 3d014b20 b9ed3b71 3c42babe 3cd6710e 3cae5247 3c3abf8a 3cf310a6 bce2bf2e 3d05dbb1 bbe05eb6 bc88b151 bcfe42c2 bc675608 bba1ee4b 3c9ed8cf bccd2cd2 bbd2528b bc16c315 bb39708b bc9a4652 bc5619df bc2720e5 3cf98abc bc457e2c 3bfc0940 3c44799c bbb513aa bb15407b bc7a46b0 3c72f89b bc5a855c b99c8e83 3b92f0c9 3c63cd25 bc846ab6 3c09c845 3d08c144 3c9b807e 3b7339e8 bc3979cb 3cacaa17 bc6e45c1 bd124382 bd17cdc9 bcce0757 bc5e597f bc6fcf76 bbb1e12b 3d2cc388 3c19bc18 3c89c447 3d3cb8b8 bcab9bac bd042aae 3b85175c bb5c984c 3c074dcc 3c7f1d99 ba87b8f0 3c5b0f48 3c6d0f23 3c91b1ad bc65ef8a bbac4232 3c9af121 3c5e5ba8 3b91b2b2 3c685a43 bcfda08d bd7cecf3 bd34cb6a bc779189 bbf36a61 bcdc53d3 3cec1519 3bfb2bda bc244c04 bca29279 3c9cf480 3ad35adb 3c816b9e bc9b03b1 3d41d56b ba84be72 bc8a150e 3d0c6d35 3d1139e4 bb76561a 3cb0e3f8 bbf6d1a3 bc6fc4ae 3b93ec17 bcaa3a6c 3cf8b53a bc84be3c bc16d220 bcf55419 bd3445c2 bcde05d8 bc623667 3c80a021 3b41d771 bc8bd545 bb096616 bcaaa453 3c5130c5 bbc1626f 3cacc4cb 3b6d3a85 3c5da40b 3cd969d1 3c56a3cd 3d3744c7 bbc0829a 3cf36016 3d137e61 bc98a2e9 bbf028d4 3b9a8eac bca088d6 3c2324bc 3c8b2fd9 3d28acba 3c89e6ac bc14552a 3ca37771 3c87b7f2 3cf754bd ba24d43f 3c5e7e3b 3cb2cb8b 3ba3bbd1 bcd0bcfb bbdcaa7c bd0462d8 bbfbbff5 bcd044f6 bbbcc3a1 bc948718 3cac1ccd bc888ac8 3c9acee4 3c988a27 bcddafb3 3d2b75a1 bcf04bb1 bc6014a2 3b953155 b8926709 3d45928b bbab3502 3b4bd102 bc49ca77 bc462df1 3d478313 3d0c569b bc86483c bbd3aa5c bd0ba49f 3d1a8a52 3bff0302 bc4f0ee3 bcd76076 3cc6168f 3c55487b 3a846524 3bedb770 bcc4db00 3c7accc0 3c90746a 3d1e0c37 3a659382 bcf312de 3c8df8c4 bb0e2920 bcdf8a02 3bafda5e bb42d63f 3c1c62b0 3c6ce5ef bc3ab382 3d10c7d5 3d0f6f74 3c119001 bc73b681 3c1019fb bca857fe 3c890443 bcafa374 3ca90411 bd1ecd89 3b8b8775 3d1f8591 3cb9cd3b bbbd90fa 3ca75e02 bad53088 3d3efca9 3d35b461 bc3d0d67 3b6cf24e bbd65693 bd18280f 3c019593 bc9471c0 3ad192b5 3c851ca3 3cc7a141 3d160321 3c39b95e bc0f6126 bcd0e7e5 3c0a109f 3b17a045 bcd52c8c 3c80ee97 3d1b1a3a 3d11f14c bc91214d 3c21e177 bc304b85 3bfcf68c bd13262c 3cc2f36a bc865f57 3b7470c2 bce10964 bc414dfb 3b86d755 bd1097ce 3c680699 3c90f232 bcc8840e 3b9ab8f5 3cd09f69 3cff8874 ba0e4b0f 3d08c844 3cc86080 3b882fe8 3cf3b509 bc78e299 3ce71b7f 3d0bb735 3c9e88d9 3d0a41fd 3d2426a5 3d60f109 3d39d3f7 3b4ea41e bc7172f1 3c059f96 bc9c595a 3ca1119f bb7e99ab 3d03f6a3 3cdf1737 3c85649a 3aa72215 3d0d0b49 3c4128f9 bad118dd 3cae2dfd 3b4077be 3bbac050 3d2f1f56 ba6bd09d bb8c33e5 bbe0e91c 3c8eadac bbced71b bc26ac06 bbc74d32 3d6bd1a4 3d2ce67f 3b5a1bc7 bbdcf123 3a341711 3c316463 ba945b04 3ca4cd81 3d023c21 3c679f80 3cfadd9d 3d703fcb 3c44ddd3 3cee6c06 3d19eb7b bd39c84c ba951f9f bcef3c87 bd3f43a4 bc265cdf bbedb38f bcc99df6 bb8669ff 3a7dd421 3c3b2e03 3cc44076 3cdbbd7f 3bf16059 bd3dfb23 bc122c09 3cd738d0 bc6454da 3c3a1aa1 bc7c979e 3bd7011d 3c88dd3f 3c2ddffc 3d09b0e4 3b8692f9 3d092d4c 3c97d47b bc13c21c bc996fd9 3c384daa 38e5073a 3d1de38c 3d26924a bc28aa5e bd0729e4 3caef911 bcd3bcec bcc5ee01 bd32a440 3c08888e bd128878 bb865525 3cba0b7f 3bc038d3 3cb7464a bc8252f2 bce85f22 3cbac4c4 3c19ec31 3cb9d4bf bcad13a8 bcabe789 b965c8ba 3c9204fa 3d0f9877 bc729f82 3a1f6b33 bc6d7d72 3cc81bc9 bc06dd13 3d13f33d bcb3a847 bca25c4f bba2922d 3d318112 bbb54260 3cb18ce7 bd0340c6 3c6f21e4 bc1b068e bd03edd5 b85bf0bd 3b7d05bd bd0c9207 3bd965b2 3d07561b 3c254a68 b93e8811 bbedde6f 3c18aec2 bc7f8fe5 3d0d737d 3cf81981 3c8620cc bc55c6dc bd06c417 bca5407c 3d0bab82 bca08daa bc958e43 3bce4a9b 3c9c4311 bd0ec8b0 bd0539a1 394ca0c0 bc40819e 3cc81d03 3c24e6bf bcf9114a bd01424c 3cc53a35 bbcb792a bc7af02a 3c34ec49 bbe18427 3c895eb8 3c119a1f bc787473 bca9536d 3cb26b81 bc448045 bb59dc1f bb34ec5e bcceb0f6 3d247a13 bc26bb95 3ca0a7f9 3ca47591 3cf50871 bc8771b8 3b7761b0 3c9700cb bbc50c37 3c2c0fd6 3c3a58c3 3d422f5f 3c52ae91 3c3b7dab bc7981f9 bc0d69c5 3c2469d6 bd0a7eac 3cd9b9aa 3cce67d7 3b72eba7 3c31d029 bcadcea5 bb1b0c48 bc7f0746 bd1896b3 bcda5ddb bc7aa80e 3ba0982d bc86671f bc54b747 bc34535a bc6e647c bd457a36 bc67102e ba151f59 3cc6452b 3d4d53f0 baed8653 baea0f16 3b885e62 3bc2f4e7 bc178140 3bb05536 3ca7d895 3c978430 bc9a192a 3cc52601 3c7f6e1e bb560c25 bd0768c7 bc838583 3c877c8c 3c5c9d1d 3d303897 3d0d3891 3cd2b5c7 3be03541 3c685490 bbfbcbcd 3c3289c2 bcdbf804 bcfdc8e5 bba7eed0 3c3286b8 bc557163 bc343982 bd0bab56 3bce69e2 3c14a01b 3d1fe7d7 bd018c8e bccb4495 3cc02ac8 bba440d5 3c6ad8d1 3d12fe27 3c2b2731 3a964d5e bd2837ca bc86a059 3b6ae3a0 bba56b29 bc8595c4 bc7e4795 3b30f7b4 3c2c9faa bcf08ef2 bd253032 bc828255 3d27df70 3c88dc5e bc460450 bbd1eb35 bcc9d010 3bdb0f77 3aa41787 bacca6f8 3c401144 bd28b3cf bcece67c bcb28836 bc706acf 3bb2b921 bc10eb59 bca891b2 bcaa55e9 3c4a0d74 bd0437ab 3ca51961 bc93e53d bcd63b98 3babdc91 bcd79407 3b2dfc2c bd4aa64a 3c0e6cee 3c1ef76c bb47e742 3ae2662a 3c8d1d46 3c90b80d bcbd54b7 3b165050 bd14c10d 3bb92246 bc5f4fb3 bbbba8ff bc2a5528 bbce15a1 3b952774 3cfd30b1 bd46e176 bd126336 3cf4f33b 3d1cb0b5 bc94b733 3cdc9dfb 3c950a45 3c9d0724 3ace362f bcdb2a15 bc8d1230 bca532ed 3af8ebe4 bd06ec4b 3cd638fd bd326c3d bcdc68b7 3b6c0e4d badb564e bbb5020b ba8d674d bd258873 bd0ed2dc bc421d9c 3cc80e9b 3cce0a14 bb617435 bcddd918 bd736238 bd06601f ba1ab8df bc2a0596 3bdf6c3b bcb8bca5 3cc0ed4b 3c18af94 3cd3ac39 bb900e21 bcbae53c bbd626f8 3b678703 3ce25b97 bc4c69e9 bb9911c2 bcee607d 3b8286ea bca381e7 b9ce0664 3c3a3dbf 3cccaa49 3cc17096 3d41db05 ba41068f bc32165a bc366dc8 bc1e5e64 bcf9847f bc84284b bcd729c5 3ccf1940 bba02b76 bcf5ba99 3c9b769a 3c8f0799 3d8213bb 3c0a1187 3ac50f3e bca8d57c bbb465a5 b98952b4 bb4c2c61 3cbdd75a bc934f4b bc777425 3cab9f0d 3d1255f8 3cfe9f5d 3d2d8ad2 3d279570 3d2f82ba 3b957f67 bc02872a 3ccc2487 3d58d89e bb553245 bbd36b3d bcc4bc4d 3b0aa323 3ca9c37b bbffe84a 3c973424 3d2ded70 3d334bac 3d47825b bbccec86 bd8c482a bd708bb7 bd2e3cd9 bb6c7527 bae61f6e bc213466 3c93d61b bbad61b7 3c344921 3d03bc7b 3ccc9245 3cd2907e 3d054c5f bd0fb946 3cdba7de 3ced31f7 bc3b6c6b bcab110e 3c29ae1f 3b5ebf72 bc70e71f 3bc10b1d bc3be30d 3d0638f3 3cd04b4e 3d26fe96 3d2bf3b3 bc80238c bd15858c bd6f7921 3cd9b1a7 bc12c5ae bbc07437 bcd6f638 bb0df53f 3ce94519 bc74f825 bcd00db4 bd588f05 3c654823 3ce23bfa bc7139f9 bca3160d 3b860231 3cadb402 3ceb473f bc8e6d43 bc6b53eb 3d1efeca bbcf1b0f bd000be0 bc56d31d 3d226ef5 3d742907 3d145602 bd506fb3 bd58cb89 bcba80b7 3bc11bed bb758ba0 bc39bb80 bceab160 bd326d64 bc7db9ee bc9eff39 bcb9ca3b bc94f5ae bc88f714 bc5569de bd176faa 3c276651 bb02fd3b bc1f46de 3beb37ad bcee31dd bc2bb39f bc8c37c9 3cb94ce3 3cfff48d 3d16675b 3c8a08e4 3d527711 bc964a48 bc034e5c bd86e92b bcc98871 3baa599d bc297ec4 bbe12f1c bba556e5 3be1660d 3b2fd7eb bb691697 bb389834 bb120139 bc8f605a 3ba789f9 bcf34e3b bb2d6d4e 3cb58ecf b8fc69bb 3c4576b7 bd19cfdf bd267753 3cb6a92f 3befd83b 3cde2c55 3c527cb4 3c973ba1 bb2a5957 3a339746 bcf2890a bcf72a75 bbc240b9 ba941417 bd037237 bbd58b27 3d0354a6 3c6e500d 3bb31f4f 3c0255d8 bc2b67b7 3c42ce63 3ccc4bba 3ccc192b bc4540a5 3c98dd09 3c3df426 bc1115b6 3c83b176 bd4b10a0 bbc2b563 3cc7fb40 3c76aa78 bcd86476 bcad5798 3d040c06 bc9aa827 bca4c6b7 bcbdbc6e 3c957a5e bc9c56b0 bcd8e45b bc769d0c 3ce4ca1f 3bb1298e b4ef6910 bc7d310b bc8a9fa5 3ceab600 3ca57f7b 3d0c0a71 3a3762a4 bcd65d78 bc7d7d7b 3d0bdb6e bc13d0e3 3bedf960 bd1f246d 3b40967e bcda238b bbbacb59 3d29028d 3cd74590 3d015ee2 3c4d9ac5 bc882230 bc6944a7 bd0bfe5e bd01677b bb2a241c bcb7b66c 3ca9e409 bca0c2fd bd3cab47 b9ae0a95 bd4b7f85 3c3fb29f 3cb415f6 bd0acaef 3cf4a925 bceeac85 bd15ce40 bd50374a bc56b007 3cf1c547 bc325e47 3b89c2de 3c8b6d63 3ca1e39f 3b76474c 3d3d52c7 3c981552 3c712c46 bc3e3a66 bd0fae99 bc4b93c4 bcfdc2cb bcc1a8b9 bd166095 bd494882 bd27881e 3bf169e4 3c47724e b93905a2 3cfac31e 3cd5273c badef15e 3b234abd bd0d68a1 bd6bddc5 3c238e36 3babfe83 3b5ce58f 3b44649a bce477ad 3d546898 3d0a0530 3d47e64b 3c855ba7 3d04764f 3b7ef690 bcc0d52e 3b732f0e bd748736 bcdbd51b bc30e7e3 bd043835 bc923253 bc0fd331 bc05ce3d 3ccc7666 3bde9ee5 3cdaa9b3 3caad1e6 3bb7e750 bd04367a bd49a627 bda130eb bc06fd70 3bfca634 baed5ed9 3ca43cac 3caecf0c bc93f8a2 3c5a021a bc10e29d baffee46 3d25b1a5 3c63eb64 bc6847fb 3cea98ad bc3f69f8 bc6e95d4 bcd2dadb 3cc8a755 bc62d3c8 3ca849c7 3d015ffe bbd821a0 3c703cd0 bad297c4 3d63b948 bc91feea bbb289b1 bc7bba92 bbdca3f4 bcc45242 3ceee980 3d088590 3be4b35f bc399ef0 3bdadf14 bce0fcde bc8152bc 3c265702 3cc9d8ac 3d2c52b6 3c6d9247 3c6913c4 bcc6e871 bc07f933 bcf67e4b 3b96f441 bc344332 3c6e1f2b 3c94dd60 3ae31f9a 3ba84177 3bac9f7e bcc2916a bb142005 bd2f9995 bd8b35f8 3d3061d8 bb7475f0 bca8b180 bceef512 bd0faa23 3c08a1af bce86147 bce1f49c bd18935c 3ca2908b 3c077d49 3d07d3c3 3c3dec62 bcda295d 3ce86b23 bc3e0692 3c9a2e4a 3c1381cd bd412dd6 3bfb281c 3bfb5f9a bcb44bf5 3c87cffe bcf03be8 bcb3f7a7 3c358ca6 3cabc84f bc6f1802 bc56b21b bc89dc3a bcf2ec4d 3c618ef5 3c01a474 ba91284e bc275524 3c44ba41 3ca3301a bc13508a bc2ea585 3b004ae9 ba9af0c9 badb5932 3c725242 3c0005d3 bb75dc85 3bba00bd bb9e5c79 3cb50b1b 3cef7638 3c687870 bbe18926 3bdac409 bcc7c152 3c6ed360 bcc1fb52 3d01bbe6 3b375731 3b9a503e 3cb14ee0 3c2ba391 3affd257 bc8ef0ae 3b5dbea8 3a5b2676 b80f2f4b bc3aecb2 3ba24197 38180c17 bc27d8c1 b8f45d01 bcd646d9 bc8156ef 3c0b7f5b 3cedb785 bc316a48 3c9cbefd 3d2a42c4 3b2ea4be bc2ba427 3c0588ab 3bc3d6b7 bd1f062c bbebe11d 3ce53b5b bcc2b960 bcf01dbb 3c9c5c3d 3b12b071 3d488d1d bd3872c7 bca885bb 3aebb2f0 bce0f7f1 3d06d880 3cedf68c 3cd9292a bd32ab6c 3c7312fc 3c541420 bcbb8453 bbf64db3 3c736293 3d60ecd5 3a4809aa 3d8820b0 3cf08027 3d02f0d7 bd463b4e bd220137 bd06e8be 3cd9bdee 3be7f8cd 3ca6f368 3c2d9d0a 3c6482ab 3b1251da 3b8d12ec bcc95e2d bca4d64f 3d23878c bc34acbf bc868625 bd0539c6 bb1eee3f bd0bccef 3ba3e647 3cbe58e6 bca2d7bf 3c6dd995 bc3603b9 3c430b46 bb611165 3cd1347a bcb3d566 3c874028 bcb05385 bbdfe494 bd165d65 3c23018c bd4d46ad bcd9d38b 3cac33ed 3a9cb31f bc372222 bb96b87f bd2ca705 bd3dafb8 bb9a1ede 3c87cefd 3ca225f0 3c96fb4b bcd4ec29 3d0bf610 3c967cf6 3d161b1c 3c161813 3c673333 3d06174a 3d36cc76 3d00cf75 ba907f0d bc4585e2 bc85ce10 3d3bae9b 3cfe6961 3d367f74 bcfdd741 bd3f551c 3be300ed 3c6989a1 3ce7ff40 3c5e8d3b 3ca98b99 3d4ae4d5 bd09b26a 3c40877f 3c0d4c0e 3c2a5365 3d132916 bbc39fa5 3d2cf1c9 3d1b8f23 bc3ac6f7 3c2c9bd2 bc95bca7 bc0e9ae2 3c4a3a92 3b7790b3 bc654b5f bd1b17b7 bbe6ccfb 3c4ff164 bcc6f090 3c6c295f 3d13c228 bbfccd2b 3ab1f745 3bca668e bbe0d97c bc0d5c8e bc817732 bcc89c0e 3c317111 bbbb1462 bbc44d1c 3d226a42 3a270b8b 3d40dace 3d6f159d 3c3b4261 3c3b6654 3d321f72 bc8d1a2f bc505103 ba8b68a6 bc689a84 bb3ea5ce 3c844a99 bd120fe2 bc1aaab6 3d00ee89 bca26100 bcc2a790 bcdc0e13 3cabb791 bd0465f8 bc8d43d5 3cc04931 bcad8e33 3ce7db2d bc87c8c3 3baf54bf 3b8ffa1d ba89c48b 3cb13292 3cf25032 bcb4d454 3c2fba1f bb88a0b4 bc542c97 bd0e5b16 3c273c6a 3ccec204 bcf7e5b6 bd0552ba bd0de7ce 3c0170ab bc282ba3 bc35838e 3d04d79b bc159319 bcb7f49f 3b41fda3 bc9f06b7 bc2b6f83 3c96169d 3c01489d bcf98260 3cdf1aa3 b9dacc65 bd2e7f45 3a93cc6d 3a915f50 bcd9e6e6 bcaba7b9 bcdcf006 3cab7c72 3c4efcc7 3cd82ecb bcd356f9 3aad0278 bc274b6b bd3504d8 bcba97da 3baab3ad bc91427e bcb6cc3b bcca1925 bcb42884 3cf60340 bca60a5c 3cc9d5aa bc435298 3cc2e494 bd5bcbe4 3b878d53 3d27662b bd178c73 3baefd4d bce85eff 3cb3d144 bc206768 bb715bca 3b83f387 3b00b482 3c90e6be bbcaad05 3cbdf6e7 3d0ae6a0 3d041f5d 3cd7c1a1 3d101ba0 bc1bb5ed bb5ca66b 3d1166e8 3cd99c00 3b5a5056 3cd73069 bcfc6078 3cf42be0 3c9ef3ea 3beb9656 bcebbedc 3c993883 3cdcf668 3a521eb7 bc872fd4 3c618bad 3cd7eed3 3c34bd85 3c326eb8 3cc09081 3a908b33 bb829975 bd09d2a6 bca5eb6f 3bd9215d 3caf113d 3aa21f28 b9b40320 bcacdc0a bd3f8fb2 bcd20452 bcaf9762 bbd38650 bb947ff5 bc103ca9 bc9a1934 bcbad6da 3d498530 bce6fdad 3c04226c 3cf63383 3c9b0db1 bbdf0492 bcf5e98e 3c55a1bf 3b95931f 3c5841ad 3cb897da 3bdf7b5e 3ce09dd0 bc260e94 bcbf41e2 bcb5f057 3aefdf09 bd0ca394 bc6651eb bd2fa9c9 bcd0c240 bd67d505 bcc36f42 3bfce528 bc50352c bb34dcd0 bc558315 3c686068 3cf4503c 3cc86729 3caa8d4d 3d4b8759 3be8aa27 bc405cbf 3cad099e bbdd0fc8 bc17428c 3c15d1e3 3c278218 bc8226da 3c32edb1 bcdf6ca8 bbb15dd7 bbdd136b ba8108d2 3cb18949 bca4fd6c bc53ffeb bd009615 3c7e4d14 3ca288fb 3d20b54b 3ce0ad04 3c46a981 bcdd5385 bd1af003 bc23af42 bd3003c6 3cc68121 3b6d2c8d 3c4bb5cc bcac49b0 3c4540cd bb5b2240 bc1400b1 3bb6152c bc1666df bc410de8 3cf6db70 bc5044a7 3d08e5eb 3caeb3da 3cabea79 3cdb32c5 bbf970bb bc6d6905 bcebd928 bc49b677 bbe6452b 3d30607d 3d04dc99 3c31fb72 bb8e150e 3ce9f114 bc3f4f30 bd269364 bbb05f28 3ca8ad21 bca429ac 3c5a1e8b bc8bcba4 3c5f1276 bd189f4d bcb13628 bcfa3139 bb3d18f0 3ab1b4b6 bbe16eb3 bc0fcf54 bcdd7e88 3c3fb6f2 38c5a4c0 bc40b9b2 3cc9e8c7 3d14948c 3d00ce70 3c8b493f 3bae8447 3cb3b5b2 bcb42104 bd137fd2 3d11838c bca96dc7 ba3e5877 3c738b3b bd0073f8 bcd8fde8 3b3cccda bbb66146 3cc65854 3b9540a5 3c8b18d0 bbdd6a17 3cf88d52 3ce36365 bc6b921a bd02872a 39db5a0f bce17664 bc1acffa 3d29fae1 3c44df1e bbab7354 3cf0281d 3c0d3dad 3b4c1155 bc87eb91 bc2f8e64 3c98525b 3cdd1c94 3c8fefb5 3c646b74 bd0c492b 3b95afd2 bca0c365 bcd1cf02 bc924a8e 3c6144d4 bcccf71d 3c77257e 3c007e32 3cd50afb 3d11b4a3 bceb68c5 3ced5d32 bce36c62 3cb5a247 3bf34f3a bc16e8f0 3ceedf2f bbfd74da bb0a5306 bc8e05a3 3b2fa4cf bb31dafc bc0d9d9e 3ccd5797 3b7bc97c bc43cdbb bccd4bc0 bd949a75 bc7065f1 bc185459 bcc13edc 3bac2999 3cbc4c72 bc5e806a 3a4d6f9c 3cb9366b ba65376b 3c25aa4a 3bed62b9 bcfbf98f bc6b0f6a bbec0389 3c9057f4 bc1ee6c3 3d21dc91 bce129b0 bca904e7 3c6d18af 3cd4ee53 3d015c61 3d0802e9 bbfc6c43 3c217805 bcaf0b58 bcec9bcb bccc475e bcdac3eb bd6e2207 bd50eb11 bd33d966 baed010f bc7ac4e7 bd17b055 bc7d7a66 3c428567 bb2a5749 3bd42c08 bd030f15 bcfcbe0c bd1fc139 bbb19df4 bbca4257 3cd3d8c5 3b3c4cc0 bd55674c bd1f0670 bcedcc83 bcfdffbe bc589956 3d3ad41a bb0dbe35 bbea0db9 bb851b5c bdb1a048 bdb09b04 bcbf215f bc430b0c bd00b33f bca32118 bd6c79a3 bd3e88fb bcbe4985 bc4a5a6c bcfaf03f bc3d78fc bd6783d1 bc4991f4 bd38e1ef bd1ec147 bce03b68 bd05fd6d bca73061 bd80d2ae bd54a38a 3d3e2f05 bc4ce570 bc03c157 3c80b681 bcc391fb 3b2ac72c bc5633c2 bd806a69 bd0faebc bc427048 bc9e3397 bb863567 bb64cc5d bbdb8441 bbfa5811 bd34394a 3c837c83 3b212b5d bcb63849 bc90af44 bd284234 bcc45178 bc8e930f 3c275e29 bcd3d7b7 bcd46e61 bd30b325 3cbf4c6f 39d668bd 3cf18947 3cd8f339 bd058b8e bc2b8298 3c5284a3 3c8ade01 3af11d24 bc86ad9a bd2f4711 3cef642c bb9488e4 3b7d78e2 bac00e04 bbea693e 3c92faa3 3d24158c 3d183f7a bce8d37d 3c237a5f bd1737d2 3c760df0 3ceaaa51 bcc16531 bc40841c 3c6a60de 3c3b9c20 bd36ca1c 3cfb422b 3d10fa40 bc94114d 3ab3b0eb 3a615560 3d2eae8f ba325389 bc064fd7 bc5cdf66 3cf1d38b bccbac78 39bdf91c bd09c51b 3b564f06 3bf00023 3bdf869e 3d27ebc2 3d4ad955 3cebcfa4 bc18e9db 3b3baaba bd00dd6b bcfddb9f 3975fd18 bcbc8c0f 3c95107b bb6e20ad 3d1abf36 3bfbdc8b 3cbd050c 3d0c904d bc5702cd bccc586b bd0683c8 3cf83e5f 3d0f473f bca9a2ff bb0770a0 bce32d43 bc2e20a0 3d06d496 3d19b2dd 3c1c321a 3d5cc280 3d848b5d 3d5a3780 bcaf446b 3c3a4780 bc269fb0 bbc577d8 bca3a51e 3b4a5573 bcf9444f 3baf15c4 3bfe1a55 bbafe68d 3d0c86ea 3d96b549 3ca721f4 bc9a8c72 bd1d5930 bcec2b79 bc231a4b bca6f098 3af6a78c 3cb43e45 baad5dc0 3d2aa8a6 3d8562b4 3cf25f9f 3cd5d34a 3d39873a bbbf44dd 3d30724f bc1cc29b bd538821 bd08f834 bc4f1d5d 3c24ab1f 3d050712 3cc27cb0 3bd89062 3b245297 3bb69fc8 3c0d1161 3cb93936 bbaa7b5c 3ceef761 bceea373 bcfd1446 3cd7a7bb bc933fa7 3c5a7d76 3c615bb7 3cfe05d2 3d12473e 3cd46f4d 3d74509f 3cd8e759 3c236659 3bed7a21 3c4577d3 bbe3afa9 bbc2d604 3c4703c2 bbc31da8 3bf082cc 3b984927 3bd4065f bca44e3c 3ce3de46 3bec127d 3ba84e1f 3d3928fd 3d256aef baf39f55 bd16a2cd 3cd3fec3 3ceff528 3ba1604f 3bc7b047 bcdedb1e 3ccff8ff 3cb28b25 3cb943c6 3cbee4a2 bb5203be bc1a87f9 3caf931e 3c02bc19 bcba9200 3d108ece 3cf7ed78 bac46be4 bc948c28 3c20d9ab bc010365 3cc7ec3a bc9dc1c1 3ce2ec02 bb6e0372 bb9c6463 3cf79929 39e751bc bd4740d6 bbdc40f3 bbb12266 3c7de0cc 3c6aeee0 3c4e1a3a bbb800a6 3ce7c55f bd0001bb 3c6f1e58 bc391d66 3c026182 3b15708a bc27a68d 3c99b0d4 bb116739 3cc23db1 3bcab34c bbb0d557 3c309567 bc543900 3cc2fd0f 3cf13f32 3d3f810f bcdb29cf 3cbf258d 3c2a7369 3cd25b03 3c6ecefc 3d27e250 3d04df04 3c8df356 bca3375c 3cda3b1d bc05bb80 bc919bc4 3c6e2aa1 3a3f37a5 bc7e486f bc92c0c4 bcc35691 3d1c2b3a 3c5a8f4d 3cf2599c 3ce8e0ef bc64ead8 3c24adf0 bc877c46 3ca99430 bd2ff50e bcc8fefe bb7c16ac 3cd0501e 3bc3c83a bc1a611e 3c68c447 bca57833 bbfb1ad4 bceddc48 3af97455 bbbaac87 3a5596cb 3cf41a1b bce443fb 3cbbb92f bcd8cc8c bcac844d bb9837c9 bc8c912c 3b9c4e3c bd02e73b bcd2ea77 bb956fe6 3c8ebedd bc68f89f 3ae9df24 3be8d043 39572c66 bc489b59 3bd9d50f 3cb72ff7 3d18d1fe bca87df5 bcf7c839 bc5eeae8 3c908543 ba8ca2c2 bbca1a2a bc8eb471 3b91d034 bc9214c7 bb9108b2 bcd9048e 3cc15c20 3aca929a 3b8a5621 bd2864ae 3c945561 bc806ba1 3cb69722 bc58af32 bcf043e8 bcb52e0f bb1db814 3cc95824 3cae8ac7 3d1173c5 bc4d675d 3ce814a9 3d42dc96 380d9d9a bcb49e62 3a7380a7 3be731e4 bc8aa007 bc2d5d1f bc63cc30 bcef323c bcf333c6 3acd0d28 bd1a4963 bc88e93a bc8c38c5 bbad4577 3c129ecc bd0717e0 3b3485b6 bc1569c4 3cd9ab87 3c4e9820 3c8fa82f 3a986b85 bc168cbb ba5eceb9 bad27154 bbeef57f bb64c43f 3ceeae61 3c840b8c 3cf855d5 38a13224 bc996ffa 3d313827 3d33e4e4 3ce607e2 bcd4b362 3bfff9aa bd2d191f 3cf7be9a 3ce52885 bc859c30 bcbd1ff3 bb6a1312 bd287bc6 bd7f56eb bbfd0c03 3d1c1022 3b383f9d bceb1df1 3c9e258f 3d02aa1c 3d0a2704 bc401ceb 3c894b83 bbf40acc bc5572b0 bc9a3916 3cbe4a91 3d020bfa 3c51f5d6 39707c31 bcce9451 bd054661 3b8e49e9 bc6c2646 bd15dd1d 3c4d4628 bbe6f1e2 bb43fb9f bc86ca5f 3c6de519 bd2672f8 bca9ccd0 bd0b2288 bc68c719 bc85067d bc28f4cc 3c5ddbf0 ba75477b bbccf960 bcc7ffb1 3c46d398 bd162037 bcc96eaf 3cdeaf21 3c802050 ba93f055 3a6fcf53 3b98411f 3c801a46 bc876314 3c1607d7 bc6c5a01 bc89d521 bb0c7bbe 3c292ee8 3d21fcd9 3b55796e bbbbf17a 3c724ddd 3d280bb3 3b83dec3 3bafaf60 3c0c9bae bc05a98c 3c7de0f3 bc172e7d bb419ea0 3a04b37a 3cd457b4 bd04f9fa 3d0993f7 3c543109 bcc37dae 3cec5160 bc015f53 bcf4b71b bba55974 3c8c6a0b bd0c6754 bb37f414 3c66aaef bc62bd2d 3b455b87 bc64065b bc5debfd 3d039f67 bd0463ab bbf8a777 3c3c2f79 bca1d93e 3c8931e8 bcefe206 3d0862d6 3c7c9e4e bba882c4 bcf0496b 3a6bea0b 3c48b72b bc9d6456 bb967f3c bd0fab98 bd1020ae bb828a85 3ceebbbe bc2689c7 bad2895b bc699c73 bcc3f22d bcc667db bd523eee 3b37aa14 3c8b0f4c bcab82ed bc82b048 bbd9ba76 bb58a590 bcc0a7ba bca7bc00 bab36d28 3afca01b 3c30a9af bba66fea 3c51274b 3ca3e3d5 bc799aa9 3c9688a0 3d03a685 bb5db085 3b103d60 3ce5d6b4 3cc62f92 bd21d32d bcc9b44b bd629372 bc906fe9 bbae7cb1 bd5b0b6c bca5c4b2 bbf3ebb0 bce39073 3c84684d 3ce4d7b2 bb196e39 3bbe7536 38b49cbd 3c3a9a07 3c445eb7 bc3b4a8f bbb7444e bbe5a4cc bc46585d bd2717bb bd5a798a bbabc883 3c5206ba 3bf6bbea 3c715e0c 3b82b4c2 3ce255f9 3c5cd18b bcc9bb54 ba3d50b2 3c556a42 bc1bf865 bd1d1f6d 3b94f5a5 3ca6a75d bcf900ba 3cb4bb2e 3c42c56e 3c82b011 3a598db0 bd2268eb bc5a6d80 3c3c1f5c 3c35788f 3d6c2e6f bc27c4a2 3b74a7fd bac3db17 3d080bc4 bd00bb1d 3d092e2c 3c8887aa bbb45c0d 3ca74016 3d2212ca bc75bad1 bc7462e9 3ca296ba 3948c05b bd2b92d4 bcc9084b 3b567768 3c473f47 bc183b52 bcd485c4 bc9ecf27 bc3ecb3c 3ba7974c bcaeb7d2 bd0c27d2 bc9bd3dc 3d145cbe bbd18b6f bc393622 3cd82135 3cde2b77 bd654d84 bd591244 bce577d7 3d35df11 bca4657e 3b3886b3 3d5fdccd bccdb439 3c29312e bc844dfa bc1e2861 3cb16ee1 bc250c2a bb6934ce bc8627c0 bccb09a1 bb1d3e0c 3cc71cdd bb94c831 bd2d2695 bcfe3322 3bd1f7ce 3c90ba63 bc8b43eb bd002422 bc815f25 bcdf405f 3c6c5726 3cd0f7a8 3a59141a 3c20dedb 3cbff478 3cc2d241 3c4f7b87 3bfe3e16 3b9b2b80 3b4b4fda bd0871a0 bd123191 bbce1054 bcb44c7c bd511906 bcf777da bd2ed430 3b7334c5 bc0c5ed7 bd0cc584 bb58eda8 bce52694 3ccf446c bd37e474 bd5b87c5 bd7e00d5 ba283d76 bd203376 3b4e2ce7 bc82dac3 bd2cd063 bc301308 bb1a05e2 3ca0eb3c 3c4fe003 3bcbbb28 bc664d3f bd049b9a bd3d9f07 bd5beb68 3becf5fc bcb214d9 bc89d57a bd1a3538 bd5b16ae bcc2a1ca bd1a3650 bc9ce434 bcb3d890 bd178b14 bd4646b2 bbfe369b bb09c858 bc8073da bd8d8815 bb17884e bbaa8e1a bc1bc69d bc80c7c1 3c2173ae bd0c0b1a 3c0bc4af 3d4a6e46 3cde1be8 bd0004ca 3c69dcae bbb81359 3bc1202c bcb8fcfb bc50b66a bc932555 bd01b8fc bc89c64f bcb4369e bca38c50 3d10104a 3c3ecc1c bd3ae6bb 3ca33a6b 3c1a06c0 bd2d22c8 bd4382d7 bd551b3f bc5c8bcd bb26bb94 bcd4ebc3 3c04a60d bcd41ce5 bd4b9031 bcd2b62b bc6509de 3dab0588 baea98e5 3c518f6e 3cb21573 bce51d55 bd0bc409 3c493275 bc83fd6e bd07989a bc5625ff bb9ec9fb 3c31261e 3c80d7c9 bd09d530 3c4218c9 bced4197 3c97a2d5 bce74ad3 bd4e3421 3c83cd71 bd437901 bc860bfd b9b48735 3bed307e bd65afab bbb32d8e 3d12d302 bccb46c9 3d18d86c bcd92e4c 3c123b2d bcd7a799 3cbc5a02 bbfbe1b0 3cc38bfb 3b60dcc6 3b2ca808 bb649192 bc7be24e bb8fb441 3cc5ddc0 bc71a3f4 3cc7dbb3 bc1e2445 3b5f1f89 bc69e2dc bd3b8a81 3c5a14a0 bb088edb bcbde9d5 baf37769 3d0f26b8 3ca6d3e9 3d2ade76 3c3776fa bc8ba3cc 3d1a8647 bc986aae bc9821a2 3c8cf0ad 3c4d5d5b bc8a6a96 3caeb228 bc1590c0 3beb9f2c 3b2a76ab 3c9e339d 3c2f6717 3d1e178f bb83088f 3cc6d7e3 3bff6b7c bcb4a823 bcdeeed3 bc6dcbc0 3d3862b7 3cc5a9e8 3ca8c3d1 3c88a4ae bbd326e5 bc050af4 3d4b5ee4 bb9c1c8f bc2e7f2f 3c8f6ada 3d093bd1 3d26f2a6 bcfe9750 3bbfa3a8 bbced933 bc13f0e2 bc9cb816 bd1f0552 3d1c77cf 3ceebb36 3ba77051 3d5902b8 3d1a4e1c 3ca4f358 3ce749fd 3cfe8b2a 3ccb3b8f 3d395a50 3d6088cd 3d483f23 3ca8f8bf 3c8c99d8 bc8975d2 bb36e2a1 3c80d56c 3c26d07e bc860d71 3c1fa56b 3d895b99 3d121575 3ce74bec bce5cefe bc8063e8 3c9d363d 39a8c341 3c94f505 bc385073 3d23b16b 3b993d82 3cd7d780 bc912729 3cf1ab69 bc70eec8 bc630f8f bc36cb21 3c44f88d 3c1972af 3c6b13c4 3cbd3bc6 3d3a9615 3cd96294 3ca69755 3d2c130a bc12173a bc6b9daf 3d18027d 3d626aaa 3c088889 bc3acb3a 3c8d2975 3b1e52fe b9bbb3b5 3cd8fd4e 3a79d271 bcb3beb0 bcafcdda 3d24f57f 3ced4bfc bd1b60db 3c464da3 3c837ac8 3c9c5117 bcfb3c81 bc9759a7 3c40317a 3ce2b664 3caff269 bcc5ad85 bd2928f8 3cbc5d41 3cb2c125 bc977373 bcfb6264 3d2f2da6 39f2cebc bd36f878 ba473bb6 badd4c01 3bb6f1f6 3d000dee bc2cbe57 3ca67d04 3b61fc83 3d28d269 3d2e63a9 3d1eec80 bc020d9a bc931e65 3c79a3d9 3cbb5d0e 3c03eabf 3a958a48 bcaaa878 3cc53440 bd08f10c 3b6df56c 3c0ab30d 3a9cf371 bd3cfc3c 3cc6367d 3cc1490e 3d347046 3d131abf badd7513 bc2ff8f2 bc257146 3c1ed04d 3bb74117 3c15a8eb 3c610862 3d2e339d bc500254 bc22a8a3 3c05a8ea 3cb1098b 3cc44e3f bd414cc6 bc81086a 3b98a609 3c534d9f 3c85c4a2 3bf24dbc bca2407f bbe5f4d0 bc4d1cc9 bcbc7e5c bbfdcdb5 bba02389 3c80cac5 3cc71cbc 3c3dc869 3c424cc6 bcdb3b8a 3ccacb71 bc2c499e 3c18b984 3d014220 bc4954a5 3d44846c 3d270d45 bce1090e 3c5a8e6e bd160931 3be5993a bc93117e bd188deb 3c259fb9 badb2a66 3d158499 3cf58ca4 3bb3911b 3c12f3b1 3b2af6b2 3cd75e60 bd1d7c0c 3c8e11f9 3aaedba3 3b903e8d 399daf16 bcafd62f bc07121e bb186461 bc97bbfa bd2529a7 3c811479 bcd9214b bb0d5d7d bcc7901f 3ce1591d 3cdc1a92 bc68a856 bce8f143 bc871026 3d02fe64 bc105dec 3acd98d8 bc45be75 bcd0ea59 bd07bc91 3a9f14e7 bbfc81d9 3baf21b7 3d39e5dd bc87e282 3c96a243 3d0a9621 bc9d9b6e 3b456333 bd4c5039 bc1fc584 3cfb9d06 3d230144 bbf0bf24 bc8fa2c0 bbf6b6a3 bc8ae697 3c7900ee bcd6aa21 baebd267 bbc43e76 3ba109a2 3cba7945 bcb761ba bc14c87b bccd59b7 bd5678e0 3c0daf84 3c9f8474 bc2ae156 3ca4d289 3c7ce213 bc2f5849 bc4d9589 39749c44 bd20b547 bc8cf8f1 3c36dbc5 3c20ec7f bc331ed6 bcc1adb9 3ce18d7b 3bafd263 bbf292e6 3d0a0e12 3bd64276 3c8988fc 3cc0895c baac3159 3cca286d bcc1b62b bd073769 bb52a1e1 bd22e736 bd02319b bcb8364e 3bda6d5c bc05a919 3cc1cf1c baf48a5e 3ba7d567 3d4ff1da 3d0c509e 3c099501 bd3ea62b bcdb6c1c bca17b7e bcaddada 3ce26a37 3b15f12d bc49c472 bcd4c692 bb7f3cff 3cab2c82 3bf78ced bcc40494 bcb6f34a bbf3b2dc bc760848 bd06dd94 bd114da8 bc957643 bd49f5f4 bd347664 3c3ab559 3c531e89 3ca0df84 3c31fd62 bcb2ebff 3cdc0658 3ca9b23e 3cc24a59 bc34ba47 3c909371 bc9029a3 bcbe59b4 bc288baa bc3fcd16 bd528b5c bc83c46f bd236d02 bce3817a 3a0e0867 bcd7ca64 3cfdf5d8 3cdfa97d 3c06fd97 3cb63680 bbac5d7f bc4a5497 bca106e8 bd495f1c bc8cb549 3987cf0c 3be19b14 bc23f47b bd0bf854 bccb9568 3cc10cfd 3d741c70 bcd0bad0 3cf946f5 3c70e315 bcb94713 bbae69bb 3a9c14ca bcf747bd 3c1e7dea bc5356b2 bd1c25eb bb05cae3 bcab9ab1 3c9680aa 3d1d1315 3d2984e3 3be14b90 bbf4477d 3be7072f bc911e9f ba3494de bd4f2167 bbe8d8b6 3d46dfa3 3c955ab9 3ced0ff5 3cdfea7a b91a1216 bc34e4f6 bd219dcd baafefc2 bcb992a3 bc48ee74 bad87be3 3bbff27f bb029942 3d082b88 bc77fa4d 3b7c53d8 bcf0de8c bc91efb4 bc5460fe bc95a5b1 3d599e11 3c92f469 3bba203b 3c13d81b 3c94b32d bceb25f4 bc6b3061 bc2710ff 3bdcd264 3cdb5cff bd076168 3bb71111 3bb0617b bcb41af4 bbb3b11c bc6e1cb3 3c198860 bcd93d86 3b1b11f1 bcab6261 bc88ffa8 3acfebcc bce50a46 bca31994 bd00038d 3b9fbe6b bcbc8b26 bcaa02c1 3bff335d 3a59ff93 bcec1fce 3c6ecca0 3ccb75e6 bb5a7a93 bcdb4e2a 3d0e2ae6 3cef4717 bd003809 3ca789f8 bce3f5b5 3c9fb3b8 3ca126eb 3bde67a3 bcac4b44 bc89b0fe bc5e88df bcacacae bca8be17 3d2e6d14 bb27ea05 3c42cb55 bd78f182 3c744281 3d46f981 bd29df07 bccb7e92 bc6e46d3 bd11a7e6 bc607dbc 3b3098b3 3c98d544 bcfb97e4 39b62be7 bcecf278 bd0a9568 3cf81a0e 3cf2342b bc31e2dc bc6611c7 bb2079ca 3ce2ef24 bc9ca3ae bb25c1cb 3b9be525 ba005c10 3c7a3338 3d0b2288 3982ca4a bca11e14 3d4d18f5 3d3db580 3cbb029f 3d5523cd 3d2884ab 3cfdf43f bd07df65 bc3660aa 3c466cbf b95a5ccb bce2f5ec bd0a7599 bcdca507 bbb84de0 3cf24825 3cbb245f 3c1f341a bcb36b08 bc6d2a98 3b4433a9 bd0698e2 bb01d831 3bdcfc33 3d001a18 bc1d06cc 3d0b5fc2 3b143b96 bc1d37f2 3d3cc642 3d081e74 bcd1b523 bca9bb1e 3c8627f8 bcb3bf26 3cc00d7c bc8c2dec bc387ca0 bc2b2125 3d076790 bc48757a bbebc4ea 3caa91fb bcc79d6e ba105706 bce0db1e bd0605d2 bc0956a2 3c645032 3d1a4136 bd118fd2 bc6b9a3c 3c5d2df2 3cfeacdb 3d30dcf7 3ad8c390 3c4f3454 3ce64f27 bd34ec18 bca5be1c bd87a5db 3b8da226 3d0ef52e bb8b2538 3c08c3d8 3cfdf2e2 3ccb16bf 3c86257e bcaa5297 3c1eb03c 3cd4535f 3bbdfd89 3cbae20a bcb52c56 3d0ce4df bc58eab6 bd673029 baf6789e 3cac395a bcdb75fc 3c21a72b 3bc23790 bb847a11 3d16e975 3d34f1a7 bcac9d04 bc7c22aa bcd7eff4 bd3b5728 bc2c5522 3c9ceec0 bd1749c9 bc82243d bc2def07 bca9da45 bcebdc4f 3ba2dd74 3c60abbf 3c8914be 3c8b80b5 bc8e626f 3c64787f bd2ef14d badc49bd bcf02424 3c659531 3d0f7d36 3ca14a75 3c9e50f4 3c687576 3c7331e2 3c2fb27e 3b23a04f bc58c9a7 3bbbd253 bbf205ff bbd223a5 ba5e8ee6 3ca01d32 bbf345ba 3c390552 3d1823c1 3cbac6c4 bcfdf656 39f5971f 3c68f109 bc92066a 3cb463f1 bcb60624 bcbbd95b bd15d486 bd082f8e bc50b7b2 3cad4ca6 3c21403e 3c97447f 3cc202a9 bc134654 bc5524f7 bcf28940 bd1ef093 bd264186 ba2b47b1 bcb89080 bca33590 3c85cb80 bcc653ed 3c4b5ecc bcb35bbf 3ce32a7c 3cd3bf06 bbf77018 3d115e01 3ae60509 3cc2755e 3d82aa15 bcf56444 3c507c17 3c019a7f 3c0800dd 3ca0a1d4 3c00c29b 3b741f93 3c9831ac bc97f522 bc252072 3c286cd1 bc111a55 3b737e55 bbbeb98d 3c193db1 bacd6172 bd046085 3cf40ac3 3c03ca66 3ce31b60 bc81477b bcde9b4a 3ccbf518 3b914e2d 3c150ba7 3d0069c6 3c6f9110 3cd22577 3ca779ba 3d245514 3b8fbe18 bd1a0f16 bbcb5829 3d390155 3bf38935 3c8d7b1b bce58849 bd69efa0 3a3bae10 bcf85c70 bce8c6a5 3d0b86db 3d08ab34 3cffb3e7 3d0a7ffd 3c86b3d2 bd1abb45 bca679c3 bb50138c bca4bbaf bc06ecb7 3cda5aeb bbc13e38 3d15b29c 3ac9c02d 3c8d3da3 3c852a2e 3cb58769 3d2bf56c bc069233 3c8c1909 3d41834f 3ce27879 bc79090b bd692b30 bbc84990 bd4cdee5 3baca5aa bc7258e5 3cf867f6 3d13e8ba 3d333a1e bc42a688 bd2225ac bc9866c6 3cc3dd87 bc660a9d bcc5b84f 3bc6e4e9 bd141c19 3be6e5e2 bbafeb7e 3cbb1317 3c6668c7 3c5972c3 3cfa179b 3cfb7a39 3cfa3d9d bb9e1b9c 3d0de745 bce445a8 bba99888 bbefd6b6 bd1c72f5 bd7668b3 bd4eacb7 bd2227b5 3cf1f252 3d58273c 3c961fb2 bc6018cb bb2e9d35 3c2c04e3 bb6e4349 3b13919d bca62e3e bc525e30 bbc9ad79 ba1184c2 3d0dff5a bad9f067 bc777724 3d16797a 3ccf8b77 3cc5e3c7 3ac6a488 3beef440 3c9fa730 3caafd09 bbdf3df4 3ceca412 3cca4613 bd79afce bca97bc1 bd0bf356 3cd99090 3d43571d bd14383c bd628f68 bcd44bb8 3c3d3a46 bb85c9e0 bc919fc9 3cf9837d bd0b147c bb65108b 3c8afb88 bcef44d8 3d218c56 bbe23ad8 3b8d2e08 3c1bb471 3d297c45 3c648c67 bbd6624c 3cf23d44 3b1051ae 3a9f4c28 bba08eb9 bc6e5097 bbcd6246 bcf44d91 bcbab98b bbb1beda 3d3cc756 bc9f5232 bd51e547 bc4ab5b0 3c6426b4 bc881133 3be01ff6 3b8dd2d8 3d20b9e6 baecad6c bd0e105b 3a8a1d86 bb8ed0dd bcd907f3 3c951f8f 3c6e736b 3d41e533 3c672651 3c182d1f bb0ed33f 3d151aef b9f4241d 3b07cf0f 3cf643f4 bd2ec60c bce37852 bc74be66 3d0e14da bca1b011 bcabf696 bd10512b 3cddc52a bc153f3e bc5cab7b bb248198 3d0d0ad2 3c36c150 3c08a4f5 3c12201c bd0bf48b bcbe2cd6 bd27fa89 bc55e70d 3d4f8124 3d505eee bcd09b54 bcb4b6d4 3c82e96d bb53e555 3d0cdc55 3cce3997 3c191096 bc668b36 bba5c4f9 bbfd471e 3c733b63 3cc65531 3bde966d ba52a542 3a5dc705 bc7e8a40 3d22f474 3d259258 bbd4c38c 3d06a1e8 3d069bc4 3c2ea07f bc8d14de 3c314e6a bcc67ed3 ba589a87 3d4dd702 3c2beec1 badce042 bce05eee 3c136c7e 3b6ab3a7 3c3d7dfe 3cda1e9c 3d2b1a11 3cae7725 3d07ec7e 3caf858c 3d19ee0e bd060d0d bbe3ba5e bccc8e6f 3aa9d2c0 3c851255 bd137dfb bc77cede bcb8c1c3 bd371a98 39e1d9eb bc8ff4f3 bcf8d1fb bd1229ce 3bab5ae6 3bc209f5 3b3a414d 3bf3e7c5 bc797aa0 bc2a6b3e bce58e76 bc2e8883 bc78f4ae bcc9d553 bc3d8fcf 3bafa06d bcbe9c10 3adb7851 3c90239e bca5736a bb0edd40 3be75cb8 bd2d2c53 bd62d25c bce252ed bd1e4994 bc8fe16b 3c481fd8 bd23729d bd190116 3d19f903 bd429948 bc48da8b 3cd2bed2 bc588076 bbc38489 bbce4476 bc89dedb bd1efb4f bca321bf bd2fb1a3 bca546cb 3bc069cb 3c3c9bbc bb9c3bb4 3bb62231 bd18a808 3c96b900 3b30aa82 bcc0fa40 3c4ee01e bc8d9623 bc8e172c 3b72d737 bc21ef72 3cc5433a 3cf4413c baf9601c 3d29a84a bc894b9b bc0459b5 3c010d40 3d1e1a0b bb07fde7 3d08478f 3ce02d68 bb956334 3cffe57a 3b4b127b 3bd86077 3bb45902 ba9f4192 bc9e5bed 3cf7f8a1 bd1bb227 3cd2b1d7 3b947fc3 3c579c32 3bb4a351 bcc26bfb 3a1a06a1 3ca1e441 bc0fe1af 3c74ac99 bbc604be 3c80e5ec bc92994a bd24a7e0 bc3339ba bc44d535 bc7336fe bc45f8f1 3c92251e 3d2bd08c 3d05e58f 3d098bc3 38b208ac 3d1a9907 3c6f206e 3c8f82e9 3bddef65 bb0dd5fa 3bc2a242 3bf27099 3b6e6c5f bbf6abb3 3d833421 3c836925 3c1a0082 3c6c131d 3cdd2695 bc8f47e5 3c39c4f7 3cd197e3 bd353340 bd3daf33 bd8f72e1 3a79611e 3c844674 3c65aeed bca4b617 bcb36ceb bd1631bb 3ab6e3b5 3a929c97 3cd1304e bca4fce4 bcc8c2dc 3d051b04 bb7941d0 bc8fc1d5 3c6e4988 3d22b7ef bc28e213 3caf5f2e 3b022a37 3d0bf578 bcfb1861 3c97a8ec bd51b8f9 bcb7a810 bd2281dc bd975d5b bc37aec6 3c527ab5 baeb62aa bd207cfe 3b3fc76b bcc50e89 3c776a20 bbcd7f2b 3c0a141f bb75d9f1 3b8aea50 3c47b559 3d2244bf baaea447 bd2518b6 bc78c8f4 bbc28128 3d12b0ad 3d01ef68 3ce6e0d5 3ce2e043 3ca42a7f 3cea1ed0 bcb44e67 3c5c6200 bc3c8f5b bbad3cba 3c8ca0d6 bc8e0323 3cbe171a 3cfc564b 3c138085 bb994896 3b8c1906 bac7283f bc032bb3 3c9be303 ba193126 3a23c0ba 3cf1dc87 3cdf5d1e 3d25d161 bd2a56dc bd3711aa 3b5023ef 3c27fbf2 3cc17afd bc27256c bc449993 3b802376 3b5b9f70 3d36dbf9 3d218d23 3d227d31 bb0573ae bc86d7b0 bca3be90 3c8fbcab bb2a1415 3cbbb697 bb509b1b 3d0f048f 3cc0eaf0 3c7c0d20 bc2c0567 bcb226e4 3bca3737 bbb46a6e 3c8cec84 3c02b98a bb94f7c5 ba84dd98 bcedba30 b987f52f bc7a503c 3cb14c82 bcbbd258 3b75cb49 3d4b6b43 3d03f51e bc32728c 3ce8b1b9 bd014fc6 3c97af10 3ba8a83f 3cff6600 3ce0f0b7 bc177769 3d25a651 3d1cb5c0 bcb16aee bc056420 bb880c4e bc592dac 3cd74218 3d48f10a bb73c824 3d08d140 bca6c265 3cba7f4c bcf5efd5 bc846bb1 3c0852bf bcfc5d7d bbb8ec50 3b9af67a 3cc57685 3c45536b bd06cf2b bc95e479 3b73347f bb8c1493 bc426ed7 bcc62210 3c7c3fbc bcaf590a 3c69f5bf 3b103635 3d25eeed bbefcb1a 3c8351ca 3ca889a6 3c8fdaf1 3b91433e 3d834003 3bc4a7c4 3c1443e2 3c0b1629 3ba07de6 bb989594 bceacb98 bd3e8f35 bcf3e586 3cc52ff2 bc272877 bcc8f03a 3cac3c62 3ba5e6ed 3be1868b bd31bff9 bc0bc45a 3cff5bac 3bc44550 3bbe0212 bc865ee0 3c74a145 3c2b3164 bcbbbb62 3c568052 bcbeb3ae ba44f6ff bc1ea708 3cee4bbc 3c7d4c45 39f9e8c8 bc228113 bd0a5a54 bd49c85f bcd2e2f8 bbdf06f9 bc8b68dc 3cc1ce2a bc72ed28 3d142270 bc7c8429 3cb96e10 bc85b01d bc886800 bb16d59f bca6ae32 bc26e272 bc7fdb85 bc8b6476 badaba5d 3c8dae70 bb68ebff 3b9b3ca3 3d43d089 bbbc3237 3b238cec 3d0f0cfb 3c0b9783 3ca91947 bd38e0fc bd4edf9d 3b2499b1 bd046ee6 bbc9f474 bb7b4764 bd284ed0 3be24a26 3c792750 bbc681dd 3d2b7dbd bd1216b8 bc588cc9 38bfa37d bd081ec2 bd02b2c0 bc32b2e8 bbe4fb82 3cb8e905 3b9dcb81 3c6c389f 3bbbf081 3bffb05c 3b99d135 bccc219f bd0d9c3b bc17e09c bb0b53c5 bc2a42f0 bcba7834 bcf2c0fa bd000f74 3ccdefa0 3b8a1715 3c9a442f bca0c078 3cf193e2 bcd44277 bc74c0d3 3cca4be4 bd005f4d 3d084514 3c78a92c 3c574fdc bb9aba3f 3bcb7144 3c0cf39d bc42e52e 3d07f421 3cfafac8 3bb82096 3ca87d23 3c6fe443 b954f027 bcf449df bc054020 bcdae1db bc534d6f 3cc23bec 3ce3c135 bcfad9e1 bbd8cc84 3d3895bd 3c168c89 3a42a20b 3c09e709 3cf12925 3c53340e 3c07faca baa0c85f 3a036273 3c6897a2 bd06c6ce bd0ac896 3cc20f2c bd0c5d7d 3c9763dd 3cd044fb 3cbecc8c 3c300dea 3b817a3b 3c850b3e 3cab82e0 3c1d99b2 bcac6639 3c6d68cf bb4aec1c 3cad5361 bcbfd6c7 bc0e882b bcb8022b 3b07740d 3cf47d93 3bdc2c7c 3cf48f50 3cd375ab bcc502f0 3d0a1984 3b03772f 3cf0e3ae 3be05627 bbc211cb 3cf43e66 bd0e79c5 bbb0a289 bc1aa55b bb7526d5 bcd6a8c2 3bc9a619 bcc3e654 bbc0a204 bba9058e bb1eccb4 bc82c7f4 bd79e1cd bcfe482c bcf3f240 bd52d6d7 bd2dc992 bc3554c6 3cc96272 bc91c552 3cfe2c4d bc82697c 3cdedc66 3cbb245e 3c85de45 3cfd3953 bcd80d5b bca5343b bb3a0be1 bc8b2af1 3d10ea57 3cb170f0 bc1d26f7 bcde2002 bc36e0b6 3d133713 bd3a5d36 bcc88501 3cd01b2a 3cb0e128 bc581f4f bc137cd0 3c4fc2c4 3c8157b2 bc9e3faf 3d019de4 3d2bf22d bc8fcec7 3cbeb08e bca06d49 bd0e21ad 3bc71adf bbd97fba 3cef3954 3b231176 bce54864 bd022e0e 3d45d6d6 3d5fb63a 3d0b2f50 bbc05d09 bc35e0e6 3ad463f2 3ccd7373 3c97c33d 3caae7d3 bc91b370 3cf2d9c6 bb9852af 3c6116f2 3b8c6788 3d1ebae6 3c81dc1b bcd143b5 3a4cfea4 3c337303 bc1ec8b3 bd32f0ac 3bba93c1 3caf948b 3ca57aca bc9abc3f bd020a04 bbb0e2db bceb34bb bd0402bc 3d2982e8 3ca025c0 bb9bca69 3c7e6588 bae2e3da 3bad4e21 bb5e53ff 3d3e96ca 3d112133 bceada1a 3cc5cc87 3ccaa227 3c1811c3 3bc07c97 3c16c786 3bd3ef5c 3c80bd74 3b67e945 bd10ee22 3c1029b5 bca12a91 3b6fcf4b bcc68a1c 3c8a1465 3be6f4a9 bd0d6e08 bd2632b3 3c0d6eed 3b571de3 bc146a99 bc8aa61b bc2e0bd2 3cd509d9 bb514184 3cdcb0a5 3cb7e984 bcd58d7c 3c2f9a76 3d0161c7 3cb7f4e9 3c86def5 3ce0eb2b bb68c469 3b701bfe 3cdc687c bd6e9367 bb79c06e bd3e8858 3c8bc747 bc8c66da 3d02fb26 bce673ec bb5e4541 bb150602 bcafe427 3cb4c4af 3d1e7442 bc8f443e bc5c6bc8 bcacee4c 3c9ec546 bc5693a3 bd52f36b bd75c9d7 bb7009ab 3c8e70d9 bc9a9001 3c0900e6 bcbe93aa 3be48a07 bcadf7a3 3ca9a1d4 3c1a2bbe bc3d9c9f bd368189 bca9134e 3ca42a9f bcd2d72a bccb79fa bd017fdb 3d41b627 bd0ad0e1 3b6443ae 3bb06ed0 bcdb63a4 3c468b06 3c29231e bc5fc7de bca96b55 bd3228d3 bd23c600 bd2f5d4b 3c3c91cc 3c0d99ff bb3a2c02 3c6adc71 bcb3a56a bcf187e7 3c392259 bc987283 bce2bb54 3bc025bd bc9b0400 bd51d8ef 3d02000e 3ce999bc bc81312f bce22ba6 bc525732 bd0ab436 bcd8f6b1 bc464841 bc7ee068 bb83ebff bd1a580a 3c4e86c2 3b9a79ba bbfbd218 bcfcaba6 bd869ea1 bc2f8bb3 bc9334bf 3d0d43b5 bd12f2f4 3c9ce079 3c9ef24f bcf4b3bf bceb7749 3b60e45c bce23e18 bd21cfd6 bcf59844 3d52e13f bd017694 bb5e5a31 bc0b2a60 3ce3ab19 3b2f86b6 3cd5aa4f bcdf53bc bd2a420b bc97d1ca bc461a0f 3c6504bf bd46bd31 bd6ac3b2 bca12a8e bd0bd3d5 bc9abc4c bc0d8d59 3d077b97 3bd780ab bd089111 bd2746ce bc240554 3bc90426 bb9f9bc3 bc259f65 3ba769eb bc2cb5fd 3d25a57a bd000914 bcd7bdfd bca07b16 bc84c2b0 3cea5211 bcb07b60 bcfa9e35 3cbfb065 3b5f79fe bce9cf94 3bca238a bc121417 bce32c82 bd3c85a1 bd753891 bd954e97 bb467c1a bc82fe78 bd420699 3c23d322 3c023ad9 bcbdcb99 3befe0f3 bbec3b99 bcbcf8d4 bd1d7921 3c981325 bd5acd22 bcef53fc 3c9ad099 bcb758d9 bbf00d09 bc3bc601 bd1aab52 bd429ecb bd3134d2 bd101b9e bcba5289 3cc897d2 3c27b21c 3c9c24df bd3c2df1 bd4ed0d0 bcad3d21 3c4aad2b bcc8fea8 3c479de8 bd0f622a 3cec15b5 bd0f852d 3c977c8e 3ca3f129 bc73351d 3bf77d94 bc3f8088 3cd2da23 bd084185 bc7a4c12 3c06931d 3c80595e 3bc1ad06 3cc90c7f bc611645 bcb71fad bbddf23b bc607688 bc9df18d bd0288ec bb7fc545 bcda18dd bc6d87ed bc855bb4 bcd20802 3c11b5ab 3c8febb0 3cfd72e5 3bbb7686 bc042295 3d029e0e 3b100e05 3c474047 bb92ad78 3d06d28c 3d12fa1a bc54c9ef 3c77abc6 3a8deed1 bbff77f9 3d1daa5b 3ccb0433 bd0c634b 3cc363df bc355919 3bc1d5f1 3d458e1a bb7344a3 3cd51eed 3c91d78b 3c070c79 3cc18436 3cb30ce6 3c87e590 bcf11dc7 3ce8557b 3c96a182 3d06fc47 3cda7331 baa9591c 3ca0c058 bc2a7f58 3d00c038 3c9a97d8 3c93034c ba1b1cfc bce73aad bbba6760 3cdf6837 3b98637c bcf1ba56 3ccb7204 bbed22cb 3cf7827e 3accb052 3cee5cb1 bc015aec 3cec15b6 3d3c1002 3d3833a2 3bebd34f 3d223dc1 3bdb635f bc92a6f9 3c65c161 ba25bfc4 bd594e12 3c97fd04 3d07aeba 3c9013a5 3bcd1085 bb84968e 3d0d08d0 bcf1b9a1 3c7b1397 bce6d7db 3cff8538 3d191109 3d0e896e 3d2781f7 bcabbb94 3d1ec457 b9bc56c4 bb11b61a 3ce674ff bc965619 3c42598d 3d175a2a 3cddccdb bbcdfdbc 3cf1c3a7 3c011e2c bbefb3ad bba53f9a bc9af0f9 bc64b28e 3c5d9448 bd32a9a9 bc645598 bcba645a bd80d161 ba0c4eeb 3bacf85e 3cc74d0b 3d011d52 3cf69751 3cab889b 3be88a5e 3d46c9f1 3c8e123a b9c164bf 3c891848 bd16db98 3c682998 3cd2340b bca7ba6d bc54b604 3cc8a0de 3c97cc8a 3ae140a3 bcc10520 bc672264 bb0eb61f 3d01f1ca bcbb9912 ba810fba bbb96160 bca4b8de 3b1e63b3 bc6c2506 3cdb7096 3ca50a09 3c8ba447 bbae9947 bbf3222e bc3c1786 3d2b13a9 3d080575 3c5ddc8e bc6a24a1 3ca133ba bc9d6504 bc46f914 ba5eb220 3ba5e67c 3c1ad13d 3ce678a3 3ceecc0b 3cf1a05b 3cb6e87c 3d104ee2 3bdce956 bc44f95c 3ceddfcc bd0d7faa bc04e94e bbad5b9d bb11fb1d bd31e1e6 ba37bfc9 3a8b1ad6 3c9aca55 bc364a19 3d04f832 bcb15945 3b159595 3c03117e 3cedcc70 bb17749c bd0f68d5 bb3f90e7 3c510e73 bc4de9fe 3caffba4 3d4b378e 3d5abaa1 3d1ef950 3bb5a969 3d056ffe bc1899e7 3bfb0134 3b41ad6a 3d1c924b bcf7da0f 3ac4887e 3cdc3d5f 3c2492cd 3c886b99 bc52f9bf 3c1f9b54 3bcefcd6 bc84952f bc8fce35 ba877dc4 3cbbfa9a bcd5d787 bcae7438 3ca33595 bcd1156c bc1b768d bcbf0a26 3ced3ce6 3ab0e25b 3cc32874 3cc49ca0 3bb30fe6 bccefc07 3c8faeb5 3d29c35d bc87641c 3cbd3e31 bd311459 3cd575d7 bc448021 bb339d80 bd0a2654 3ce25f2a bb7a77b5 bbe9b30e 3bf6bd27 3c112353 3cc036bf bccf25d8 bd1ebf23 bce4814c bc3ba6dc bd14ff3d bc066b41 bc94aa06 3ceb1def 3c23bd09 3ce51574 bc8e0dbe bcd71dbb bc28fc02 bc84f27e baf90c39 bce8442e bc2b4065 bc7204a6 bc8b7c2a 3aa494a2 3c971313 3bb56ebc bc863971 3c81d6bf bc9ef8dc bbee1e48 3c2e6a0f 3c98b01b bcde3fe9 3cdc1a2f bc8b5da4 3b390872 3bdbe130 3c3d8953 3cbf8f3d bc08d988 3bc9e5c1 3cc03cfa bcb8c6de 3bb7233b 3d2b290c bc7e85db bcb1cb3c 3cd1a965 bcb20552 bd07c29b 3d0e8dee 3ad80189 3d18b92a bcaa1d9d 3b81a844 bbd77381 3d05a3ef bd1396ed bc173394 baf374db bcd71d09 bd347fee 3c7141a8 3c3ee494 bc84d512 b9bbd83c 3b8d0025 bce95f9c bd24191c bbd8dfab bbc14496 ba86bfd4 3c9da955 bc4b2b9b 3cc0b044 bd0ae0cb bd341bda bd18e8ba bcf00503 bcf720bd 3c27341d bc1c9e03 3bc540e4 3d161d95 3d5b83ef 3c2566c0 bc3e579e 3c82fcc1 bca39dae bc54f0b8 bc696dab bd0b4cfe 3b9f0b09 bd2bc4bf bd36cb05 bcd1cce0 bb942c95 bb1bb5a4 bd1a9d87 bce58629 3b1a6a5c 3c86fe80 bd407bfa 3b2c70f7 bd0898e3 bc9ca051 3c8dfe7e bbb54b09 bb4b55d7 3c317313 bc84dfa6 3a78d2ef 3cff5610 bca196c8 3c0a9b2e 3c780f97 bc8023f1 3bb2745b bb8bac56 bcdddd18 bce806d1 b9ef0d48 bc6891ea bd3d6ba9 3ba809c8 3c37d7e1 3cd3b0cd bcb2379c 3cb001a9 bc932286 bd07273d 3b14e45a bd166078 3d026134 3d1e8af8 bcc06a15 3cbe8a1c bbd90458 bb5c1b97 3d041e65 3d12ed6b bc38d543 3d3b1011 3cb8f71c bcc0898f bad3a6f2 3a903599 3c85b8a6 bc76f237 3a8add15 3c11d673 3d08274c bc1eeb02 3c4dae6d bb5adff8 bc133782 bc708f98 bb8332c3 bcf095aa 3d1cc1a3 bcb766c6 3c94a9dc 3c42578b 3cba9c1e bd079f30 bb52529b bd095eac bc2d6387 3ba8bbc1 bcd8ead6 3c3c024f 3c3bf9df ba96a4e8 bce65412 3a5f3d50 3c1a45e7 bc7c9a67 bd5f576f bc7ace5b bd175ca9 bd40bcbf bb4d0cc9 bcad981a bcc1997e 3c1bde83 3b5e4a50 3adfa0ca bcbbf833 bc995a1b 3c0fa1f9 bcd663d1 3d07ea55 3b909fee bd05252f bca54ac2 3c8b026a 3c38dbe4 3c538ae8 bd3df1ff bc112fd1 3c5aed51 3b7121d1 bcf62223 bd82e240 3cc73a39 bc23b368 bd25870f 3c4963ea 3bdb45af bc2ad264 3c7c4d34 3c0e6a76 395699cf bd25a3d2 3ca09aa4 bcae9f1f 3cf550a9 bcb24a38 bb1a59f7 bc5cf108 bc9afc19 bc3904da 3cbb2f7f 3c41fd3e bb429334 bce467c2 bc9cd14e 3ca52b27 bc83ef41 bcdb2659 bc9b3e4e bc3ba802 bb8d0f52 3cf44465 bbb76550 3cefb0d7 bd030318 bc8deca0 3c430496 3cb21a82 bc676fde 3c69f5e8 bc9bec29 bcaba610 3c9f2168 baf53470 bccfefe4 ba8f2c99 3cfeacbf 3c0759c3 bbdd2d43 bbc76490 bc8f7361 3cd8301e 3c8d7d74 bb89c680 3bae8b78 bb77e407 bc8bd16a bba3a844 bca60c88 3c072943 bcbf422d bb3a281a 3b9a79fb 3d0ce52a bcc0376a 3b256247 bc34478c bce85b08 3c059167 bc304e94 bc7429cd 3b81a06f 3c75a10b bc867a01 3c9b3d37 3c2ea6b4 3cd186f9 3cd8d356 3c2c2b81 bd48ac40 3a8132a3 bcf05a7c 3bc3808a bd30d9fd bd1dbb15 3b8cf7d7 3c8159e7 bcb481da bcc68afa bcae1e36 bd4aedf8 bcd7de62 bcc10176 3d193159 3ac5425c 3c888275 bcb966d2 3c906013 bd4f6d33 bcf1a45c bba6da16 3cab2841 bb44bced 3bad868d 3b63813e 3cbd08ce 3d2b14c0 bcbb6238 3c962485 bcfe8614 bc8a02bf 3ba6fdf9 3c904939 bbd8ffb8 bd1497e7 bcfde1c5 bd16ecd4 bc09cccf bcd16d62 bce26c41 bbd78843 bc19684c bd0948d8 3c984ecd 3bffbeff 3cc55e40 3b9823af bc969a86 3d16b721 3bf5b09f bd01262b 3b162618 bc4c344a bcd63594 3d02ab3a bc393fc7 bcb2aa21 3b22741d bc366b5e 3cd8ecbe bccccced bc9bc610 bd0089b5 3b16ca56 bc9fd2d7 3d25b688 3c6242fc bc4f9449 bb59e5e6 bc9d6a6a bd10f798 bc822617 bd208e7a bcb6c658 3b1c3868 bc6f6ebc 3be0969f 3d81517c bc74049a 3c6ba527 3d053e15 bcb9283b 3d149954 bce83596 bc882380 3c6cc207 3af5c87e bc06c841 bc750a8a 3c9a7a86 3c4eefb4 bc52be13 bc8eb748 3ce005e9 bc1163a8 3c03d967 bd3636fd bbfbec5a bd039290 bc8566db 3bb6d459 3c46fea2 bc8cd389 bbcb3281 3c1b7644 bb09080e 3c48aded bcfb874c 3d189198 bca6a11e 3d4fe152 3b032c5c 36add067 3ce241a9 3cdb1a75 bbb6f3a9 38a124e2 bce4690a 3cccf77d bcdf4305 bbebedf8 bc4632a9 bd0699a1 bc2f2acc bc80d112 3c5ed441 3d1257cd bbb6cb9e ba2e1fbd 3cd424a5 3c0744a9 bca690f1 3c81642c 3bc1f73a 3ccef869 3cb0fcac 3c51a44e 3cb2526e 3cc4987a 3c9ec63b bb401882 bcda0008 bd25e7d4 bd16ffcd 3bebdbae bbcfc49b bccdd7a8 3b849e67 3ba57793 bc4531d6 bccb818e 391fa010 bcab6455 bd1a0e2a bce04025 bcb75d5b bbe08a0d 3cd0a1fa 3b935de7 bc75975c 3cdcfea0 3d105da3 3cb2cf5f bd51b358 3c7f6cfd 3c72439f bbda8b24 bcedbd78 bcb2c115 3d072c92 bd27309f bcaac70d bc5da4fa 3ca56d3e bc6bd87d 3c90ef62 bc9952ec bd04586e 3b91e451 bc6f6bf9 3be06934 3ca228e4 3cacaebb 3d3eb298 bc78da61 3c18b074 bd1df2d3 b9abf8e1 3c068162 3bf37bf2 3cb16f82 bd768e75 3cae2525 3b44d994 3cafdf7e bc3763dc bcda79ca 3c93446b bc03fb42 bcee4660 ba707264 bd1a2438 bcf6ce20 bd24cd3f bcab4c03 bcadf0ac 3ca3afa5 bc62fe73 bcaa573a bba14b86 3b303595 3d1664c2 bbf26334 3cdeda57 bd26b38c bc989b67 bd30a8a5 3d19bea4 bb895a79 3c2621de bc105d91 bc919a9f 3c1238ef bc7521df 3cae043d 3d139e3f 3d0f6887 bc77ceec ba574af7 bbbf765e 3b270a99 bc7e3b8f bc9c674f bca2f34a 3c4f3a3c 3c9930e8 3b97a904 3a4e4391 bc66417b bd10b4f6 3c53e197 3b81c2c7 bb3bdac2 bd0fc160 bc055ad4 39e965e9 bc96f6d2 bbda1540 3c875cf1 bc2875bb 3c3e7426 bcb7264f bcb63280 bb0f0268 bc3e2572 3d1465f8 3b20232a bc67cdc6 3cee253e bd3e4356 3ce4612d 3aa85b13 3c92cdd8 bc9e4e69 3d24879b ba3c6f3d bc52bef5 bc197752 3c7041fe bcde6564 3d17b316 bbea29e0 3d02d95e 3d249ac4 bc88870f bc63f177 3ca68dd3 3ce7915a 3ce0a523 bb151b99 3c117bde ba276ffe 3ca9036b bc946314 3d28579e 3c210afb 3ce22225 3ca901bb bcd503e0 3a2619f3 bc1e9e50 3cd5c0f7 3c8e56a1 bc4d3acf bc18f3d2 bb803837 3d4ccc3a 39d2ddf7 bc8fd167 bc04a7c1 3cc234ec 3c7d6367 3b3c4aa0 3b204699 3d0ec512 3ca510c8 3b465492 3c0f6acb 3cb7fd2a bc72614b 3cf020b5 3c5c7b7b bc9fc33e 3c1690f4 3c9a8ea5 bcb1c72f bd18c28b 3cf2dca9 bc839d7f bd24e699 3cdb22b4 bc5b3e76 3d12c095 3d12cb9d 3c6679a8 3d142ef2 3cbff0b4 bd21aca0 3c323a11 3cb8caed 3c5cda3d bcde60f9 bcf99cab 3b8121f6 bc96e896 b9f64a7e 3d018b84 3c1b1ca0 3c878cd3 bc09b31b 3a12e536 bbd7f955 3d2593a8 ba200a50 3cbcdff6 bd07c6a9 3b2bd986 bc4e0056 bc28533d 3d12e0e3 38973522 bc3ede2b bbad7561 3bcdad04 3b90094e 3aa4c119 bc170dd4 bc83065d 3d0c6706 bc9ab890 bce2dbcb 3c3a15c1 bc5c2b3a 3cd50f04 3d007121 3cf6d620 bca6179a 3b283aa2 3c7fc621 bc5dcc5c 3ca56383 3d52563f 3d6ca54a bcdba654 3b5f851c 3b155d39 3c550e3b 3bfafa62 bc864674 bc1eded7 bbea389e 3d33ca73 bc735a40 3c957ef9 3bcbae7c bc95cd4c b723ab62 3ce7ae5d bc9b0ca2 3ca3105c bcc44864 3c8e3809 bb897378 bb3c2cfd bb3b65ba bd070b5f bd3b70bc bcd3ad1e 3d05dc21 3aecae47 3d63f9c7 3b70d845 bc1d00f4 3b866760 3c397e12 bbbbb8c6 bb0f5d35 bc00c722 bb44ea61 3b9bdeec 3aaa8220 3c8f1ea0 3b9a1f2f bcbbe194 3cd10c0f 3bac329c 3c0c7130 3b822628 3c7c6183 bc6e2d4b bd00c1c7 3ca9499c 3c2f63ca bd90a528 3bbd4820 bbb43aee 3d17d396 3d4d4931 bc172463 bc653458 3c20b0c7 bc89c02d bb3db27d bc823487 3aedf2d4 3c07afb1 ba791323 bb756c51 3c8d81e0 ba1a4034 bd8be63a 3d4e1f95 bcea5040 3ccce581 3c066ee9 3d399b58 bbe7c3f0 bc84cb77 bd0f5f7d bc1781de bc902f3c bcfe4f58 bc0c3a51 3c8d9593 3d7ce7ca 3d54311d 3d3946e3 3d047d33 3ac456d1 3ba2af98 bbb01080 3c0b949b 3a2688ae bd0ad484 3cf871d5 3cb4c7be 3d58517a 3c00d3c1 bd7b01b4 bc1f1248 bc6431ea 3b5c4008 3c95d9f4 3d188164 bca85522 bcd319ac 3c55bd22 bbeea8d2 bd0529ed bd6304f8 3c7e94fb 3d1b412f 3d728cbd 3bb3cde2 3cbdafdb 3c0b369b bbb06534 3cb49628 bbb2364e bca63960 ba169816 ba10d447 3c381f7c 3c61795d bc3de6e3 3d0d4f1d bc55c4f5 bc2de08d bccf9dc2 3d3e2304 3d52bc08 bc242fdb 3c813b5a bb9297d8 bd4c7883 bbecc5f3 bd16bb36 3b8ba355 3c9d33bd 3bf3ac3e 3cafccd7 3d46cb14 bc888cad 3c7a3131 bc9e7a47 3d0ecf6c 3c840314 bc5bdf71 3cbede57 3c7764d5 bc85570a 3d2fb980 bc5c469e 3c9a9ea5 3caf0228 3d036684 bc9c97e4 bbbe44ee bb983ba2 bc2513bd bcbc11e1 3cc33fe8 bcd34729 bc8aee73 bc1a7e7e bb51f251 3b265402 3cd208cd bbf70b7e 3aa8e5aa 3cbbf08f bb3840c1 3d09e7ba 3ca86cc4 3c110dc4 3d3655eb 3c585554 bcaf1ad4 bcc36e2a bc8f4bb2 bca7e1d1 3d0bee65 3d8b8883 3cc43bb6 bd0d2bbd 3c95d282 3d68b568 3c4a2f4d bc2b051a bcc1b2d2 3d199f3f bbf99cf5 3bf5edd0 bbb6a752 3c87c7c8 bd02b34e 3ccd8ba7 ba4b78cc 3d0244fd bbf85b9a 3ca8fbd6 3d3a1395 3c987932 3c80ab2f 3bdbf14c 3cec10a2 bcc4fec4 bbfedc8c 3b3cb9fa 3d1b7573 bc96c205 bc04ab0f bcbe3dfc bc922adf bc42b2eb bbed1bd7 3c4eccad bcce1133 bcf2edec bd45bd22 bd7518cd bcabd10f bb5ed9c2 bd260076 bd0b9834 3c1fc82b bc4c1619 3c800509 39ec65cd 3c6624da bba10def 3cfb811b bc9a2c44 3be88910 bc1b2c31 bc549754 3b3ab841 3ce8d783 3c938095 bc899b6d bc7625a8 3c68401b 3c603d70 bc915c22 bd8aeafa bd8daac6 bd9bca09 bda2c804 bdb5b2b9 bd1f07a1 bd312471 bcfcca2a bcba3174 bd134f7c 3cb482b3 bcc6646a 3c4a6b85 bcf975f4 bc244a5f 3b35a849 bc755fba bccfed68 3d06d172 bceb0a14 bc34b1bb ba231178 3c536329 3c0f4f95 3c87e68c bbf10d4e 3ce421a6 3afc8293 bc5f7231 bd2fc037 bd689a12 bcb63f5c bdbdbbb7 bdbbcd2e bd443247 bd3fc7f7 bd660256 bcd89927 bd34ead8 bd1c385d bbea75f2 bc01e099 bd21d5e0 bcd442bf bd2e569e bcdcd693 bca36aa7 bb56916f bcb036b3 bcd65a3f bd0701ef bcaf47c6 bb00b2e5 3ac780ee 3ca39e8e 3c68aeba 3c9083fe bba0fdb7 bcd4d94e bc9adbe2 bd11b12b bd05c0f7 bd1e0add bd364087 bd17b6e8 bd38d203 bd685216 bdaa554c bcaa7ca2 3b93614b bd4f0001 bcecea4c bcb473e1 bc39534f 3c1cbf1b bcc06962 3c4adb58 3ce8c0aa bcb1e436 bc98871a 3cc4ae00 3c92b277 3ce41b09 bbbecce8 3d04987d bc89920b bc46345a baafffe4 bd3bb36f bc9709ce bd597a8f bc51c836 bd21007d 382e3ee3 bc897e4b 3cc69c29 3b049a8d 3c7ecdd4 bc7fb9f6 bc184ec4 3ba86287 3a6c7d00 bcd47bd8 3c9efcb2 3c41a0ff bca080a7 3c8ca63d 3d0fc262 bc0d6e49 3ce1e46e bc2b7a66 bd054148 bcdff07d bc3b4bf9 3d094171 3c76f90c 3cfa57f9 3c945b83 b9195102 bcbace47 bd335225 bcc750b9 bcdc2a73 3cadf68d bc04df18 bb7e71c3 3bdbca58 3cee895f bb553fcd 3c998208 bcc32e9a bd0752d4 bba49b71 3c866984 3cb6c818 3c572330 3cdc651c bca5ef33 3c06e539 3cf1c93d bca2a459 3cd4dcbf bcbd3356 3cd12981 3c69a88d 3c13d23d bd0ba5d4 bce0b26b bd4a4bd5 bc1538f4 bcdf1164 bcf18e33 bb7be6a1 bc0e83d1 bd4eb152 bd278261 bca7d134 3c48b836 3bd94809 bc99f2f1 3ba0db48 bb239ff2 3ce15a25 bca5d31a 3d0bf728 3a3383dd 3cc2d95b bb44e73c bd7bf42b 3c3c697c bc6c5dc2 bd10e913 3c83301b 3c1a0747 bcc46007 bd15d5a0 3cee6064 bd1e89de 3c0b59ac bc3ff699 bd30f394 3cd588fb bc938c01 bc73da4e bd38c2b4 bca43fb1 bcf35b2b bd6d45b6 bc7be63f 3cc95f4a bca26dfc 3cf4e599 3ca2a6b7 bb6ef4a0 bcd6e166 3c4425a6 3c4ae268 3c5f938e bb54e216 bc99f5be bd396ae8 bc15748e 3d1a2606 3c9f768b bc9e5055 3c9ca3c8 bccc6f9f 3be50134 bd2f3d95 bc5c5917 bc976e12 bd1006d8 bd69e611 3c7c9717 3c803d57 bc255692 bd0022cb bcb539ef bcb461a2 bca4c08d 3c110ac0 3cce55b2 bb5b9efb bd3f7a2e 3c7c835c bc6cfa99 3d01d109 bca40f6a 3bf07a71 bcf974b1 3beff7d6 3c248cae 3cea000d b910bde8 3c82480a 3bafdfa5 bce0976e 3c2e4560 3bddfe66 bb3c27ee bd142626 3b742c15 bcbe1e3f bc8f3efc 3c475017 bbf30e4b 3cb28193 3cefabd7 3c54ca57 bc28493c 3b9dd0d5 3cc9e782 bbc21255 3cc85a33 3c776806 3ccd2300 3ce47f5d 3b2ef1ff bc84a286 bbe88c8d bc3ab389 bca5b7d7 3c72f4e5 bc061585 3c0b5627 bd023da3 3c91b546 bd45fc0f 3cc6f886 bbbaf783 bd210e4b 3c46f41e bba203c3 bb8f23e7 3cc8de6b 3c12955c 3c136e34 3cc12ef4 bcda2cd0 3d28fea9 3a6423ff bc9663d7 3d043e67 ba9479a0 bcda0a8f bd0e3f6d bb13780b 3bb09085 3d096efd 3c8bf234 bc9518e3 bc703a61 3c7d3765 bb51d476 bcd2d65a bb5c7d11 3c218c2e bcf0ed0f bc06816a 3becd5cb 3cc53e3a 3d26417a 3d02b26f 3c71a98e bcea81fb bd18b6a2 3c1782f6 3c5139b7 bc5d1649 bd1c1fdd bc95f547 3c8ae292 3ca3db83 39ab23e3 bd5b695e 3d36f123 bba60d90 bc4bd742 3cc3b679 3bfacb7c 3ba53c81 bc1b995a bb952973 bc435a52 3af2b8e1 bc857f1a 3c478cb4 babff79a 3c8f8ad4 3cfdff93 3bd24a34 baadcbd9 bc609e1d bca38303 3cb0008b bc592191 bcd500a4 3c912b07 bb5f74fe bd176aaa bc08a917 3cd4aa25 bcee6906 3c9187b3 bc09f2a5 3ccf7e76 3ccd784a bd089e3f bcef1baf bcdfb02b bd11e071 bcb4c300 bcd4879d 3cc8d4b8 bb507045 bd3e774f 3c00e1b7 bc2d76cb 3ce304bc bc0418bb 3cec13f1 3b838739 bd47ab93 3c541d7a bcde0400 bcd1d164 3d136d4e bc2d95e5 bd040b55 bcb9601e bc85e647 bcf119c3 3bcbd961 bcbc3632 bc849801 3cc72666 bcd1eb76 3cab4247 3d27e618 bc07a819 3c520825 bbd2c4ed 3cc63330 baff4973 3b938286 3d5a2e45 bcd2f9a3 bcdd9569 3d0abeb9 bcdf3d13 bc8e7112 bc829bab bd246af6 3c9af31c 3be22dce 3b57ba7f bced0243 3ba1ca71 bb8a14f3 bd417482 3c711647 3c5c2ada bd09ce06 3ce956e6 bc8e343d 3cd17d92 bcc3fda8 3c6883bf bbd08c73 3c2b0466 ba838dad 3c245763 3b9131ed 3d03576c bcb2e548 ba29823d bc727bdd 3c893c74 3cb53df9 3ca7a4f6 3d177574 3d053c14 3d611243 bd07cbbc bd2c33b1 bb389db7 bc746c88 bc89c574 bd3b4b37 bcd8477c bc01e741 bb299ee2 bb020a0b 3b006969 3c90376c 3b414434 3d215c2b bc618680 3a9e8180 bbca81c5 3cf833d3 bb6f82ee bd912c18 bc7aa67d bbb2f475 3cdc2ead 3d2f40c3 bbc9bdeb 3ca16af2 3aae3e49 3af3ff10 bb54808b bbcc501c 3cdbb3a2 bc82d839 bb73d8fa bd1f1ddd bc9fbb66 bc9741dc bd45f661 bd381826 3c0b304a bbc77966 bca7d4c1 bbefbb32 bc519138 3cd68488 3d313e21 bbcb21b5 3cd0dff6 bc2a1dbe 3c544033 bd03acd4 39cd0a91 3c9e7266 3cdf244a 3d3b8e25 3b9fc894 3b9077ca 3b07124f 3b0707e3 bd1024d5 bc7123fd bccf79e9 bd296acd bbf1d3af 3bdcc684 bd1d3efa bd8e3f20 bd5325fe 3c10e9fb bb261d23 bcff65c8 3b394071 3cbeb650 3c582840 3cd955f5 bc18563e 3d38658f 3d50f7d2 bcbc6c2b 3c15f8a7 bcb5ae14 3cbeb464 bc1038dc 3c7fa7b0 3a7ba8ab 3c4937bb b911b838 3cae2a47 bcce19d6 bcedeba8 bd2d097d bcfad3b1 38533660 bc04b1c8 bd01142b bd4665a2 bcb07928 bd190123 bc95a87f 3c0fd4c9 3d099120 bba55540 bd4b009e 3cc3a52b 3d8f8d6a 3c41dc9b 3909e88f bcab11e6 3bffa2cb 3d538260 3b591805 3cf75f6a 3c9e6ce4 3d08dca4 3d76d47f 3c15aa6f 3d40128c bc352300 bd476915 3cfa6986 bca750da bc94601a bc0df0aa 3c1c7297 bc8ddfac bcb603e3 bcd6fe91 3cc40175 bb8b08f3 bb23e56e bc0db788 bc088bab bbd7acb4 3c0a0251 bb89b09a bc8b1842 3d007b00 bc4992c7 3cc611c9 3cd4783f 3cc55573 bd102f1e 3d5c22df 3d02f4cd ba6384d3 bb901ef9 3c8675ad 3d246c2d 3bafc7bf 3cacbdad bc5db2c6 bb4e1786 bc78c675 bc79abf2 3c794f8a 3cf593d3 3cb778f9 bc754f86 bcb19e1a 3d34aaff bbf8a454 3d484953 3c9a8ccc 3b697d6d 3d209088 bc443ac4 3c96718c bb0d6758 3d015720 bc43f4dc bc063e53 3d50a6c0 3cb4b6b9 bcca3b6e 3cd304ef bab4a2a8 3c6eeaac 3ceff31f 3c827165 bb601f0e 3c918985 bcbe4ce2 3b09b7b3 3c17ccc2 3c3c59f9 3bab4c51 3840952a 3cd6794f 3c0c89fa bcc70205 bc92ab6b 3c4db63b bada75f1 3c3915d1 3c18b760 bcb03ee9 3cd281bd 3c10cea5 3c68e87b 3c839ee9 3d1208a1 3d073a61 3d17b5cd 3b0a4d1d 3d031e34 b9b5efee 3bea6404 ba0cf56d bcc1dff1 3d09c574 bcb66c98 3b10184f 3c4e2e4b 3cde7391 3d0d6480 3d408684 bd1a5ef4 3cd3f3bd 3cb2c62e bc1ad05e bc5ec441 3d3f2678 bd08fd5e bcf951ef bbadb173 3bfe390f 3c83a889 3d1d7b33 3ca8e10d 3c87518b 3d144bed 3ca4ab3d 3cb2b1f9 3c04797a 3c3c1580 bc75a5c9 3d1e89a8 3d184475 bc051907 3d07b61b 3cca9bee 3cdd568f 3d10471f bb927471 bc5f4267 3ca0e7cf bcd212fe bc71afd2 badb4796 3ce3847a baadd098 3bffcd8b 3ca634a2 3cfae236 3b94d2db bcd674dc bc07bbbe 3cbc0dbc 3c9a44bc 3d2dbc15 3d49dff3 bb676092 3d340966 3d26af26 3c06d3c2 3b579167 bc318ca3 3bfdaf17 3c0ba0ca 3c323535 bbb55fcf 3d139aea bb99ed13 bc902021 bccc92d9 3cb38a66 3c4beb78 bc0c63bf bcdd7670 3cd88c4f bbf20b8d bd08f545 3c9526ca 3c30b04d bbfbe7eb 3c158f78 3d07bd69 bc3c2eed 3cc2c999 3c4d5451 bcaafe5d 3d4d2a7a bc4805de bba190b3 3cf5f447 3d1a4020 3ca651f4 3d97191f 3c10be96 bc7a85fb bd0b1bf2 bce1ad31 bb0d7138 3ccbc8cf bb4651d7 3b3cc36a 3d0bd9f9 ba2c3d1c 3cb9a6e4 3c193792 bc144f8f bc8ea873 3cc0266d bcca7ff2 3bf5a7bd 3ca26ad0 3c8b03fd 3bc645e9 3ad4c338 bc5a9d36 3d014f85 3ae49ef3 3cc43a50 3cd432c6 3d1103d6 3bcf1b04 bc3427b2 3bdcce72 3b931c0a bc00d15a 3d0db2b0 3cc4dbd9 bc05edc6 3cb6811e bca04581 bcf2c1a8 3c522eb3 bc89ae86 3b80a216 bcf3bf48 3befe930 3c9c5240 3cb32131 bc4b0032 bc94c1f4 3d0287fa bcebb043 bd0c43bb bcf8402c 3cd73029 3c6414f4 3cf8d22f 3cb1b56b 3c0fa5d2 b9ff357f 3d6e95f3 bc615c8f bb8aba5d bca44408 bcc07618 3c286a5b 3b97b59a ba6681c4 bcb41c9b bcfb202f bcd9ccfd bd334b28 bd622d0c bc9eaf17 3c6c2b9a 3b604c54 bd250559 3b97c422 bcd1ccfd bb10ee2c 3af28efa 3c7e9ca4 3d26731a 3d6071e4 bcbdcbf9 3d2e8ab4 3ced2d8a 3d3bebc6 3d1d7697 3cd771a6 3c3d2d00 3ca22a07 bd00a131 bcbde4a4 bba725fe 3cce8bf8 bcf845f3 3b55b033 bd3be64a bce9722c bd85cda7 bc9a1c52 bcaea808 bdad8258 bd07c2a0 bd50ca11 3cd60677 ba18a6b4 bcf93719 3cf746cd 3d086cad bc34839c 3c4e6d2c 3bc293f4 bc2efae2 3c9e91c1 bcdecdfd 3c0725a5 bcf60d7c 3cf845fd 3c92ef68 3ce657fe 3c698a16 3bde775c 3d31cd32 3cced1df 3cdff244 bc546e1a 3bcfeb4a bd04b968 bd04dde0 3d20ac59 3d141d40 baca25ee 3c3d3fd3 bce50a5f bc19bffc bd3bab29 bba11634 3ce9e0ec bbd3e53b bcf81912 bbee3a9d 3cb42b04 bce745cc bbfa0677 bc04421e 3c9e9c39 3cfece34 3b2651cb 3a046ecd 3c9f3d4a 3cadb052 3c0acdf0 3b350f45 3cc43327 bbd218ba 3a72627f bc4a73fd 3cfe940a bc614ea8 bc5fadec bd3fbed1 bc889fe4 bca0c5df bbc31425 bbac5f06 3c673b0e 3d2575a1 bc182f07 3b26b4c3 3d0df88f 3cf70f4d 3c85175b 3cba3bd8 3d02e557 bb62889d 3ce63a38 bc6c6875 bc362d02 3c80adc1 bcacfa19 bc5c3a66 3af4f3c6 3b3c427d 3ae68eab bb9a5bd1 3c8a095c 3d1f2900 bc22878f 3caf240f 3c0c6a30 3cb585aa 3ce9f0ef bb5c9a33 bbef2c19 bc62befd bc1f3f6a bc7458c9 bc0df901 3ca7b8b7 3c2c1195 bc87950d 3ca23380 3b4cfd2b 3ab3d7d6 3c5d6495 bcaa7d01 bb996d4d 3d18596d 3d04a8e6 3ca53da7 3b893b08 3c4ba9e9 3ccb6951 3ba912ca bc4f8cda 3d19ccbc 3d524071 3ce83fc7 bc86d6c1 bcb49410 bc705401 3d8a8bed 3bb25ea5 b9909c8b 3d064a27 bbdd958f 3c361682 bc163440 3cde4380 bd082efb bd0d8ad7 3cc04c52 bba0a7f3 3c20dc99 3c2f8bd0 3c71abf1 bcd70d8a bca3645e bd15df98 3d108537 3ca3f213 3d0bf0df 3d448c2c 3ccf4350 3d29b1ce 3d62f134 3bb891be 3d40402f 3cb7f79f 3d7cd486 3c901c66 3cb5f547 3cd5f5d9 3b9f27f6 bb6a42ca 3c69e963 bd0ef8e9 bb6ca329 bbea327f bc66eff9 3c9e6df7 3cf84205 bd1067c1 3d1daeb7 3d0d033b 3c9abd10 bce2acbe bd07467b 3c31b5cd 3d082dc5 bbf55489 bd152dcb bb629f0a 3cfe14f0 3bb8b749 bb469315 3c77e78d b9eb1179 3ce8859c bb871d2f 3d33a09e 3bd525df bac6d7fe bcbe81ed 3c9e63e7 bca2a461 3b34b4c5 3d46b7eb 3c2ef759 3d147545 3ce36c94 bcf89b24 bb4c090b bcdc9c12 bd5b3015 bc0f4409 bbce14cc bc1c9fbe bbd02b6c 3c67fb45 bc98f7b3 3c9a4896 bc4404f4 3be7d68e 3d40af34 3ced958d bd1474a5 bc6e5aef 3bad4780 bb9c4d78 3caee1fe 3d125f17 bbb561aa 3bf43468 3cf67410 bc800c83 3d18d88c 3c52efb3 3bb08a5a 3c65bebf bd37e4ad bd72dc11 bd903241 baf1e779 bd6381db 3b721108 bd0a6e66 bc12ca30 bcfdbc7b 3c21cb5f bce7e1c4 bb12fb1e 3d0fccc9 babd5871 3d27a5cb 3c8269de bd352a58 bd2cc4e4 bc3d9d9b 3d28604f 3c04c532 3ca6bccd bd1dc063 bbca838c 3c17ce31 bd459fa6 bd909532 bd7f4bf6 bc7ee2d5 bb050db0 bd80d6a9 bd04c31c 3bdd9b0a 3c35f885 3c460d2e 3c7cf545 baa02dab 3a26641e 3d02c44b 3b75b375 3c8e0ace 3c52f757 3c5f415b bd7a10b1 bceae7c1 bd21a80a 3cde1162 3cd9a1f7 bbd0a7d9 bcc2b02c bbec7b76 3cf63fe8 3d143f21 bb50e617 bd5cc46e 3c568513 3be01c97 bd227400 bda25e44 bd48bc77 bd1eabb2 3c32e76d 3d058606 3d11cbe4 b8e7e805 bcb4b47a bb555430 bc8e1226 3b9bce2a 3ca3fd7f bc87755a 3b9f5154 3a3a37cd 3cec1b2e bc3471dc 3cdfe170 3ca6aad6 bcc9f46e 3c75b8b4 3ca5e16a 3c6f1d9a 3c07eea0 bcd12526 bb95333a bd3211b9 bb2f441f bd6884c3 bd0ca79a 3cb8c4f5 3ccda6b1 3d25338f 3d43a6c7 bc725d38 bc7a1737 bc021903 3d1a53ce 399dd07a bc1d5fdd 3ca20faf 3c9f68c6 bca57914 bcfa26f0 bcaecbce 3c5d7879 3d0322c2 3c80da1a 3c5e6b0a 3c297ecd bbc80411 bcbc1c5a 3c81eacc 3c04ba1e bb819e55 3b3307b1 3cbcd8bb 3cc8835f 3acb0b1c bcb9db2e bbb24c1e bb0a9f8d 3d27e1f0 3c80fe76 bcb5ef96 3cff5348 bc12f4c8 bc51bce8 3c664ea5 bd2c3769 bc757f72 bc4facd8 bc9b4df5 3c7cd6d6 bc8e4b92 bd14e71d bb2df175 3ccc25c5 3c474bf7 bd3953d9 bd4bb61a bd1a32b7 3c8054c7 3cb3f646 3c958620 3d11aff2 3b859a16 3c0979ce bcfc4f56 3d51888b 3cc441cf bc243ca2 3c791698 38b9e23a bc523147 bbe24d10 bd13d292 bcf80f2e 3c8eb592 bc4920f3 3b922d6d 3cfeef4d bd09f7d1 bca86e0a bc45ad58 3cc18b39 bd29e3fc 3c62f07f 3c709f98 bc27d936 bc1bd5a8 3d260aef bcadc23e bca30b3e bc96bb47 bcb04e45 3b82dd5e 3d1c34f2 3cd770b4 bc13530f bb8115a0 3d241afb bb7a2b77 3c82f99d 3c21d62d 3c539fa7 bd047e1b bbb2c10c bca18968 3c301043 bcc3056c bc72d75d bca2f933 3c9b22eb bd056b42 3c90493b 3d083e2b 3d2ee527 3c52f800 3bb75eca 3cc5a217 3ccb5c51 bbdd38e4 bd1fe05a 3d3f459d 3c82f079 3d11e06f bca39fce 3cd44a38 3ca11e58 3d310e53 3d107542 bcb16de2 3ca20d09 bcb07acf bd905ae2 bd88410c bc55af9d 3d2a4203 bd17d19a 3cc1794c 3c838a86 bcf4f4df 3c629719 bc306b69 3c013fca bc01d345 3cca3f7a bc970927 3bc2f689 bcc64628 baa5bcff 3c437020 3c1dce09 bc1e3973 3c214ab1 3c84c66c ba27c12d 3d258f78 bc323340 bccfda40 bbe8aae7 bd5a0227 bd850a4e bc3db27a bcfbed5e 3cc2494e 3cc1a604 bbc5cb55 3cc08f8e 3ced4559 3c9893ad 3ceb0422 3cf6c2bc 3c0b3724 3c8a1d3f 3c780827 bcae8a46 bc0be9cb bcc9a9a9 3c936959 3cd42460 bc12ac82 bbf0cbc1 3c0307d7 3b9f08d6 bc4d77ef bc893741 bc442417 bd186880 bd1fd57d bda9c947 bd118a43 3a8d957d 3c0e237d 3cf83ec7 399abb4f 3b8acb59 bd1d5ea2 bcb198ad 3c24237d 3adb41af bc563491 3c22ff8b 3c71ba94 bc483149 3c492543 3c7cad36 3cb1c3a0 3d1965cd bc866bda 3c80b73a 3bd029f6 bd39bd27 bbe83638 bb2ccd34 bcda926d bd423cc9 bd793054 bd59ad4e bc00a6f5 bc923a60 3c6b1759 3d69fb9d bcec314d 3cd877d0 bced45a7 bb4d3252 b872c10a bc332e00 3ca96abb 3c23e8c2 3bed5621 bd326338 bb5b28b2 3cb969c0 bbba50f4 3cffdb84 bd1abc9b bc90f5ba 3c867a28 3c1828c8 b92e9b6f bbacfd9f bd5fa4a7 bc691831 bd450d19 bd3d9661 bbabaed6 3c32ae97 bd145d88 bb8d50d5 3b847efd 3c5d191a bcd7a56b 3d23d1b9 3cb44ae8 3ca256e9 bccd2a43 bcc67002 bcb8df10 3bbc7ae5 3c552db3 3d358057 3b755fdb 3ce82e27 bd2152ae 3c01b03f bd2f09ac bd31ef96 3c79985c bcf52e62 bced9c39 bcf02576 bd3897b5 bca043e8 bbbf5c59 bcd4511c 3bac5e42 bd2efd1a bcae27b7 bcc9a8ca 3b832a1f 3cf6fe76 3c9a0943 3c4c672a 3c681a25 bc8126f1 bc25f8ac 3d3891ff 3be7238d 3b37be56 bc7699e5 3d02d515 3c8efa49 3c63ad48 bccf1404 bcff6f11 3b6f69d8 bbd6062e 3d203025 bbce0d3a bd2c1ef2 bd50c67d bd591ca0 bcf2b5af 3cfe7d5a 3c7a6003 bc82138e bc58428f 3caf4ac4 bc66ede0 3c3fd552 3c989dcc 3c9be2fb bcbaf6b8 bcb521f7 ba76e095 bcc9b1e1 bd1a764a bbf963f0 3c0a49c3 3ab36016 bcbd405c bc3b810c bb9e24c8 3bbed5db 3c88aef4 3d39337a 3cda22c5 3ccee79d bc89a656 bd0af51c 3c8d9c50 3d171e71 bc496ef0 bca9012c bd07de7b 3d011802 3b6dc07c bc1f57e2 b9b89a56 bc9f977e bc5375c0 bcffb1d9 3d03691a bca951e3 bbba26b5 bce313ac 3c734c6b 3c6c9387 bc8f73d7 3c4c8f00 3a1c3943 bc174b3b 3cb14e6a 3d5d3732 3b97e5d1 3cb6c170 bcca478d bc099c73 bc4c858e bbb05537 3c3ef945 3ce36f54 3ac62b9c bc00dfad bb972f35 bc677a66 bd1ed9ee bcbdeed4 bd2047c0 bd36984e bc4a87d2 ba0a622c bc7053fc 3c7bd7af bcf2ec64 bb70e89f bbf4799e 3d586a5a 3d18976e bce5218b bc1915fe bc2bdac4 3d0ca762 3d1d83bc bc3ada3e 3c93943e 3c3ef28d bcbe728d bcd4f83d 39877beb 3c7a23fa 3cd4e62c 3bd43cb3 bd143650 bcccc5f4 3b679002 bb75ebf0 bd347dc3 bb8001e1 3ca676ec bcb30fee 3c18f412 3d0bca06 3cb4205c bc4e7c35 3cc37190 3d061c5b bbed795e 3affa343 bc19c600 3c91b2f2 3d913b1f 3c3b7b6c 3cede3cb bc3f5646 bcf711e3 3c5d1127 bc5e9cbd bbd72d67 3c982d71 ba539ee9 3c64c21c bcd1c0f3 bcd65ea5 3cd96546 bcfa4474 3bee3acb 3cb6a3cd bbfa1424 3be5aa15 3ccd0dcc bbeef05b bbff7c96 bbaf460d bd088fe1 bcd6d1c7 b9a082cb bc6bf714 3cdb2421 3d277755 3ce1d4c2 3c1ffc15 bc0ac201 3b8d3a07 bb0c90bc bba5250a 3b304209 bb84e8b8 bd25c1d7 bc89f9ac bc96b50c ba58c1fe 3c3e1bec 3c834c89 bc99d057 bd2b8397 bbb26838 bd029186 bc85eabb 3ce4456a 3ca28ac0 3d161bd2 bcba782f 3ca1bc12 3b8940f3 bb87dbcc ba8325b2 3d18dd58 3d23a2b0 3cfe433d bcd9be64 bc811f28 3c4bf7ac bc0f1683 bd005183 bcdfaa85 bce2df66 bd86f295 bd2681e8 bc384579 baf5dc30 bc6c5160 3cadc897 bcb48e2c 3c96be64 3c76d4fa bb498e33 3cd385b2 bc190638 3d3271b3 bc57e556 bbef1c22 3d46d6a3 bc958760 3bae524c 3c031ff4 3cee17fc bcbb7221 bc01c5e7 bc65643a 3cd59ad5 3ce15b50 3a39bbd9 3c601cb1 3d40e82b bc9aac76 3c946c52 3d3147ea 3c37044b 3c087f86 3d423648 3cd1c222 3cf204ad 3d0b027a 3c946cb4 bb12ae81 3bd7ad03 3d2c87af 3c2c0cff 3d26a9d8 3ca69f4b 3d6c0c5c 3b090d44 3c27dd98 3be53d70 bce95f20 bd0bb4da bbeb8819 bcf96141 bd0f6034 3c8ef245 bc7c9b76 3c836a2d 3c76b34a 3c311772 3bc2d166 bc8886dc 3c86b79a 3d07ca25 3c5c2bea 3c81ae23 3d055691 3cedc219 3c4bb5e0 bbe2db10 3b00e403 3c4096f8 3d4da295 3c32d3af 3d117d41 3c88a5a9 3d0429a6 3bc5af6a 3a1b037e bc265761 3cb76d9a 3cd4ad9d 3cddc993 bcfff4c5 3b18ef1e bcb08b2f bcbe5375 bcfbc6ba bc5db825 3cff1d89 3c9f6097 bcc7ca77 bbf2ebd5 3b550ba4 3bd4619a 3c962d3d bcca9a86 bc6a2e07 3c9a25cb 3bf5cdfc bc955618 bcda9e06 bb0fbd34 3cf2b64a bc65f579 bba49b93 3c56a6b2 bcf0ddc4 bc6ac59e 3b9daf79 bc844010 3cdf3958 bba7b948 3b832702 bc9b28f8 bb64ab7b 3d053ae7 bcebbbf6 bce39040 bcb315f8 3c0d6e62 bc1f8ee3 3c8cc714 bd0f204c bbbbeafb bcdbc100 3c55b6b9 bb6c14c0 bc7bb861 bce87e36 bcd9320c bbc2b240 bd17706e bce032fc ba1fbc1b bcf63ec7 3bfbf0f1 bcbee69e 3c9d3b03 3cefb89c 3cd21a39 bcac1977 39ae4608 3cfb7025 bc824408 3c401aa9 3cf68623 3beac317 bcbf50df 3b2e118b 3b7ad722 bcf642a2 bce133bc bd1795db bd098555 3c549602 3a349c4a bcf902e0 bd444d2c bcd0e8cc 3d149826 3d3b876d bc0c25f2 bc4877aa bce855e9 babce6a5 3c9ddee7 3ccd34a5 bb7c2707 bc95283b ba3cbc7d 3c31f90f 3cc19272 3b71f1fa 3cd2325a 3d02f803 3c435656 3acde89e 3c9a885a bbfbe951 3c2dfe4a 3b9fa0e0 bc1cb401 bd5f3568 ba729ae2 bd35edd4 bcd85479 3c6813ad 3d27ea7e bbbb2764 3bc93b33 bd10f381 bc73a29d bc1292a8 baec9c5c bc395567 3c0b7e28 bca046e3 bd37d542 3c1cd922 3bcef39a 3d1fbdaf 3c61af6e 3cfc1aa9 3cbdecb4 3d2e34b6 3b970923 3c7bf728 bc929eb5 bb312106 bc91159c bc4a87de bc5446f1 bca5ce4a 3afa4eb6 bc0f9bc8 3ccd6828 bd88d4f0 3c8d7f96 3c867690 bd2d52ac 3cf38b00 3c3c0bc7 bb59a8b4 3cd1cba7 bd0eab20 bc30af2f bccdd61b bc3c4c89 3c5a6e94 bc247cf1 3ab16cf6 3d136f2f 3c90eed2 3befb8e9 3c9a4e2b bc859953 bbbe18c3 3c9a1f86 bc4c30ed 3b6f028c 3c0cb1f4 bccf81bb 3c21777f 3ca4bc20 bd458cd5 bd00785b bcf31622 bc665e51 bc38d98e bd27e60b 3d2901c3 bcb25220 bd115217 bb9a5747 3c5d37fa 3c5e3863 3d0d7948 ba36992f 3cccde14 bc52b872 bcf50076 3b430d3f bc1eae53 3bd590d2 3c487fdd ba873c9e bcc1ffae bc4ab331 bcac47f8 bc65e22d bc76e49f bc8d80db bc190887 3c313ca0 bc98cd3d 3c90d516 3c02fe9c bc8fc089 3ccbcdf3 bbd4f9bf bc1906ce bd1d5e5c b9925996 bcdb2009 3cfcd969 bbc871d4 3c29bcac bc816204 baeb1d43 bae1e6fc bbec14e9 3d44e079 bcc2717e 3c94b88e bca9010f bd4ff09d bd1c95e9 bd63d97e bd802373 bd05a56d baf0f4da 3c8aa349 3d090151 3cfc9748 3b92c969 3d06a4e5 3d008fe0 3c204bc4 3cac227a bc74767d 3c0dd356 bbfddf5f 3add9d8b bcc65995 3cbb247f bc88a05f 3bd06b94 3d4b1a7c 3d186d78 3cb7942c 3d65541a bd22cc8f 3cf5b614 bd72225d 3c5420b8 bd2a7527 bd63e2df bd3d8831 bc18844f 3d696da6 3d3772ed 3c8be10a 3c64993a 3c455844 bcad8212 3cac466e bc3f7151 3d297128 3c570c85 3b6ffe04 3cc133e0 bcbd4971 bcbeb265 bce72cbd 3cae357d 3b6afa50 bc77be89 3d01d425 3c409018 bc1aec5d 3cfbdce5 3bf3b39d 3c64ec8a bd0af124 bd5fa021 bd42f98d bb59e518 bcdf66f8 3bfec0cf bd0f6004 bd158980 3c6b18a1 3bef7f6d bbe602d8 bc804e27 bb9fe344 3b10307d 3c5c6e0c bd176ee7 bca6c524 bb270257 bc6cc722 3c31b163 bd091d31 3cf59311 3d2318fe 3d0cbd36 3a55c65e 3c896f1f bd41113f bd435a8b bd1cb705 bd31c6b4 bd7a88a7 3c3b63f2 3c3e1800 bc5d8b72 3b490e64 bcc571af 3c559641 bb63ed29 3cd06b61 3cb078f9 3bde4067 3b93db9a bd101bc4 bce0883f 3c529e84 badfe0b6 bc0af3f8 bc5d3b1a 3cb116a0 3cd8a84f 3ca6f1bb 3c834655 3d143ad3 3ce86150 bad3264c bbee4b1d bcbf1261 bc894845 bd7ff28c bc781a78 bbf0e308 3c530c31 bd0ddc7a bcc66fa1 3d1b9271 bc5a561a bc6de880 3be5ffa8 bbaa584d bcf5262d bd4e58de bc505bd5 3a8f7dba 3cd4ac99 bd3c8b67 bc49a8b2 bb5640e8 bc1d2dda 3c967f96 3d2a69a2 3cae5e52 3ce351fa bc18f65f bd405918 bd0931aa bccd1fd5 bc67559a 39e793cc bb13ba04 bce9ebbb bd29f305 bc85025d 3d07417e bc0d1506 3d1a5e20 bcf3145b bc288960 bd63f35f bc929fc3 3c00c01c ba79b8ab bd0ea91d bd054702 ba403d66 3b4b7499 bc65fd0e 3d425c54 3c021caa 3b7b8467 3ca18e4f bd63ef2d bc82152d 37dbc351 bc1a6544 3c448ba1 ba557bc8 bcf6f6ec 3d60fd1f bce3757e bc2e8e4d 3cd8c232 bd04e116 3c8d29ef bcbed2ac bd0355fd bcda7741 3bc49779 3c519da5 bd1d829c 3b9cc649 bc17c3cf bd07ca29 3d0b647a bbbace1e 3d2aa38e bbc5aa2b bd0515c5 bd2768f7 bbb98d71 bd38e6d5 3c312dcf 3c6c3631 bcf91518 3c1892b8 bd17dffa 3c5b8319 3b9dceab 3d013fac bd081c01 bc1370cd 3c7ef4c2 3c51621f bccc4697 bd025d06 bca72c33 bc998079 bcb251d8 3b88ad13 3cde8715 3c8ae8db 3d144767 3c227c8b bc1768bb 3cd2ccae bba08df9 bd193b9d 3a97e098 bc6e670c bd0046f3 bc3844bd bcc8e570 398c4fed 3cdf7c9e bd209188 3c33704e 3b6acc44 bc42b219 bcb42311 3cb7f94a 3bb24531 bd1f82a3 3bb5712e bcf41bb7 3b8ed8f5 3aaf2066 3cafa945 3d300c5c bbee06de 3af315c7 3d35943b 3b531ce6 bccf21b0 3bca6fae bc0e3771 3bbac111 bcc761b7 3d3f28f2 bb9bc9e6 bc7de79f bc9b60ea 3bfbcdd4 bcb1bed2 3d8f9886 3b862030 bc442560 3c821748 3d120bf4 3bd796f5 3c8df8c7 3c4f9bae bbaa0023 bc8c2964 bc922c79 3ce4486f 3c888a03 bb31f3bb bc58d375 bcffc46a bb034c1b bd01e500 bd1a9309 bc3e5916 bc9e3113 3bce62d0 3ce5b41d 3cb041ca 3ca272d9 3c9cbfbd 3cf5ec2c bcd5022a 3d5781ee 3b8ba3b9 3ad58a50 3d01c4ac 3cd06bef bc64ccf0 bb91d1a4 3be72c23 b9e3d935 bc9d74a6 3d4e170c 3c1a0c45 3cfd228a bbb33e8d 3c337c65 bc7ed1e6 bcc9ba93 bce3d006 3ba0705e bc245962 3ac3d505 bc8b4fdb 3b6e709c bc24300c 3b7f520e 3d1e5796 bc24826c 3c83b21e bbb71f42 3ccbb7b3 bc81ae55 bc429499 bcd819b0 3caba051 3c01db92 bd382d3c bd1e223e 3cbb8ecb bccaa8cb 3ca4c121 bcaa4856 bd16d655 bb45168b bcf8e61e bd0d7eea 3bffdb5b 3bd46a11 3c83a217 3cb66cdc 3c12bb3b bc5603b6 bc86f3e3 ba121c84 bd3d3f9b 3cb1b16c 3d04b539 3b324820 3c2f0789 bd05a634 bc4e978f bb29e711 bc8c7596 bd1e6167 3b069d07 bb8ddf2c 3b9c3337 bcf3df07 3c923d12 bd14d4f3 3ca0c879 3be9e6d5 bbe74951 bcfc79b4 bc93751e bbd7ab04 bd30f9cb bcdcc9ca bc30e97d bca07a08 3bf33268 3c422d13 bd39c4ac 3b389990 3c6c6279 3c6accc6 bd09529f bc85360a bc8a9e98 3ca19d34 3c9f8c87 bd298f9f bd3608d9 bce4bd8f bbd3933f 3c7a5c42 bb0ca058 3cf8ee3d bbaa6e3a 3c4ed0a5 bccc8045 bcdec3b5 3bb90d87 b95573e3 3c9287f3 3cf0b117 bcdbdcbe 3c84b744 3c4bc2c0 3ca1a116 bc8b2b39 bc9897db 3bbc1524 bbe39791 bcec5c4a bc934fe6 3c4cb6e0 bc67a968 3be338d0 bcaee7f9 bb95fbd9 bc9e25d1 3a14b9dc bbbf4488 3b553f74 3b6500ed 3be1285d bc9551ec bbdf4231 bc933236 bc6b2605 bc12fcb5 bd02c410 3c6f0e65 bcdf2c64 3c8c9d52 bcda4f71 bcb94387 bc348272 bd2b6195 bd0e2c97 bd0d946f 3c488b49 3cb25cc9 baa17857 bbadb3a9 bcc29c8a bc6465ed bd2c720d 3d1fa3ba 3c85798b 3b73615b 3d033094 bcc0e559 bcd3adff ba0d14d0 bcc7bbbc 3c4a5bbb 3b68b4b1 bceb73b6 bc6e95ca bd0b3bfc 3ba79b63 3d5f658b 3d647f5c bd100128 3cfb9283 bcfaee3a bc36e1aa 3c9cb3bc bd096d46 bcd0749b bca63f97 bcb65c5e bb19d8c5 bd1ed6ef bce4ca06 bd1a373e 3cc6c205 bd6c11c6 bcddad96 bcb3930e bd35bfd6 3cf660a2 bc626c6a 3a2c615b 3b009e8c bc009eac bcdd77ee 3cbb27a5 bcd43e7b bc0d1518 3c51fae2 bc174d42 bca5b108 3cb97d6f 3cf4e8a8 bbb4a2f8 bc614e01 3c785611 3d38de0d bd4e4259 bd02b326 3d033883 3c1db558 bd290472 bc95ef23 bd878ba4 bd260cf0 bd368cb3 3be2efb3 bcf4a7ac 3d003838 bbaee0ef 3cf87a83 3d84e1b4 bc1c734f bd05157c bc96a5dd bcaec155 3a30e6ac bd18e543 bd1b55d6 3d20ca3d 3cddd869 bc97678b 3a1917a8 bc1ce311 3cd92f4b bcf7d274 bd1839f6 3c1f05a1 bc8d2f82 bd254177 bba91e5a 3b5e028d bd1163a8 bcb22e83 3ca98937 3b68bc42 bccf2c45 3bf74cc5 3cae3ec6 bccdd5f4 bcd975d6 3b0d2d15 bca78ec2 bb9d46bf 3cacee90 3bc6955d 3cf7edc1 3bb5620e 3d0bcd12 3c6b01a9 3c26914a 3cd80a77 bc66aadb 3cf4cb63 bbcf269a 3cc38f88 bcac41d9 bcf43c5d 3cb01a3a bc84122d 3c5fe21d 3d7f17b7 3c38d285 bc84bcee bbb2f60b bb9918fd bc576b13 3cb5d134 3cd1744a 3cadbed2 3cc700cc 3cb1bdd4 bb8448d7 3b890977 bb9f65e9 3c5b2803 3bf06406 3919f18b 3cd13fd1 3d0ad734 3ce761f0 bc10d896 bc39ae29 3ceca64f bc81f341 3b79459f bca28096 bc1487db bc55b55f 3cb39ad6 bd090a42 bcafacbf 3caa9df5 3b77ac1d 3b608131 bcd6585c bc7bc7f5 3c908b16 3c843912 bd0356f1 bcc706cc 3c27ab14 bce10f1a bc978dc2 bca1f1d8 bcda9b6a bc8bed77 3cc9beaf bd03cc6d 3cbe89b2 bcbc1440 ba5ba893 bc9942c0 3c83ccec bcbfda38 bcef18a3 bd4fe151 bc6503bb 3c26ce9a 3cf0305a bb86df64 bc80eaa7 bc00edba bbb72809 3c2c004b 3d03dd5c 3c8f9939 bbc152be bccaeecf bd1263c5 3caf4cc1 bcf40b18 bcd1e1e7 bcb669f5 bc1982db 3c863a32 3d446002 3d42f4b6 3d0861b6 3c918d0c 3c311250 bc794d5d bc74a798 bbbb1df8 3cf6c816 bc92d24b b9de1f9f bacf5faf bbda8da4 bc4bd99b 3cedd8f3 baabdd34 3c7d282f 3b4ea0d6 3ba665a2 bc89575c bc1b546f 3c62b3f8 3b7e67ff 3c963651 3c03ca00 bc3157f0 3ce16759 3b4ee8b4 3d586885 3c55838b bc8dc56e bd41ac50 bcb79370 bab06cb0 3bba391b 3c425f36 bbaba35a bc9f49c2 bc21408a bc0f0831 bcf90c14 bd406011 bcf85cf7 3bdd73c7 bcbe6185 bc4698ea 3c8a12d1 bd38a18b bcd26af2 bd21101b babaa0e7 3bc6287b bd256061 3ccb6dd2 bca65e11 3cfa4a4d 3d1b3529 3b4e5c09 3ca472db 3b15968a bd120d53 3a9b19e5 bbdcdf9a bcf3f037 3afea900 3cf87a72 3c3229be 3ce9a484 3c4b77a9 3cb3500d bc09de03 3c6e5061 bd2e743e bbd10077 bd28ae4d ba50e4f9 bcb214e9 3c02740a bad6a52a bcdb3a58 38ce126b bd2fdd13 bb82d15f 3bbb34ff 3d19e1c5 bbd34ec9 3b6ac942 3cda8367 3d24107c bb0d3e7d 3ccc160d bd0d6328 bb63c40e bc737188 3b576251 bd1a71c1 3c633a1f bd083e05 bcdc36dc bd4afe2a bd25ca4b bd57e648 bcfbae01 bd18fb3f bcb45fa8 3cf60a98 bba0ceef bd187d40 bd05dbf9 bd1affd3 baf304b6 3c8c0b31 bd27446c 3b1a2937 3c616fa1 3cf45fb6 bc425ede bb9add0f ba11d04a bd583581 3cb25ec3 bb830ec5 bd05e947 385156c4 bc0a56ee bd31f823 bcb2d3f8 bc8b230a 3c0bbcc6 bc194b46 bd55eabd 3baca31b 3c08c549 3ce5126f 3d016518 3c26876f 3c996953 bcd5a01f bc5a711e bd160cf6 3bc221ad bc7704a0 3cdfd723 bd10ce69 3c8ffcd8 3b858560 3c26cd4d 3c6d84ea bcbb0f1f 3d325f60 bbab1a53 3bbd9bea bc07d184 ba8a52f8 bc7e524f bd195135 bd09fc3e bc433954 bbc0f430 3beb1316 bc8e4242 3bf23316 3b17bdb1 bc2f7c25 ba9b71a1 bd236648 3c66303b 3c0e92d1 bb8fbc41 3bbf2ea5 bc2e4910 3c6f68c5 3c22d14d 3c82f82e bb1948ab bcf051f9 ba346150 3c9005af 3c831b8c bc80c5a0 3c8b02aa bd34606f bbee8f47 3c461de0 bcbb87be bbc99e25 3cbde7a9 bc7cc66f bccc220f 3c2cf14e bd1a789d 3ce6e44b 3c437b73 bc199215 3c032bfc bad30845 3d3c914a 3ba0d8a7 bc8b578b 3cb89ed9 bae9b3aa 3c530b5c 3aa60e64 3c920032 3c829ff7 bc881f18 bd0737bb 3cea4414 3d55db7e 3d6417ae bc9ebfa5 3d06ced3 bc4c9f5e 3c72397e 3ce96be3 bd09fd59 bd36b727 bb608450 bd0fcbed 3b0e8e08 3b831293 3d1fa927 3b2cbe30 bcaf259f 3d1abf4c 3b676812 bd537388 3ac44a9f bc3136c3 3c87bd9f bd398776 bc5080ef bcaabdce 3cc15b5c 3c179614 3d613440 3d78bc78 3cae8ce5 3daedd9e 3c8ae154 3c3dc745 3b5454c7 3cc90da5 bcbca443 bbfafb09 bca96751 bce434b6 3cd732ce bd017c78 bcfc4ee1 3d152292 bd5213ff 3a16e826 3c6beeb0 bd09e7a0 bd6160b7 bd057d8f bcece042 bcc50914 3bb61c4d 3ae6a7ca bcdf69a9 bc8a7d6a bba1d3a5 3c979e97 3d6d565c 3ca063e9 3ccbd651 bc5ac231 bd1bf531 3ca89cc3 bb6096d2 3d0b6442 bcbe0015 ba744749 3c2b54ba bc860cef bcd601c0 bc734491 3cbb1889 3c289d5a 3c59ca55 39c10156 ba10943a bd153338 3b78cc70 bab252b0 3b9f62c5 bca63515 bc2884f1 bca7b970 bafacdb6 bc7aa62d 3c77e171 bc04bd55 3abaf88f bbf812a5 bd31e0bc bc9e179b bccfd4c0 bce2c289 3ca9b712 bd0a164e 3d7fc36f 3c96c5aa bc7d6c51 3d22a311 bbef0486 3cb29680 3cf4c225 3d2a9a8c bd1078e1 393617af 3ba1637c bb8c66e6 3d1641b3 bac6c489 3c7f48b1 bd20b1cc bc6b92ab 3cf1092f 3aa1da96 3d09a71b 3d481041 3d059454 bd8425f8 bd1f1348 3c9b5afb bb5505ce bc94ffd9 3d12274a bc78a7b0 bbb37918 bce4db11 3c14af9a 3cd39e61 bd3c7238 3d16983e 3cc053a4 3bf643e6 bd267d3a bd0d9a98 bc629f5c 3ba2743f bc9247d8 3c400d10 bd0dc9c3 bce8f201 3c597e02 3c06de34 3c87c4bd 3add5280 3b9fbe31 bd5088e6 bd1396d0 3ccd0307 bc3aafe8 3d05dc2f 3d2953e7 3c8ea2d8 3d41461c 3d5e30b7 3bdbe506 ba9bee71 bc15fefe bcd80c46 3cc3f29f 3a0a8811 3b77d276 bbe2d42b 3ce4f517 3b2c93a3 3c84e4b9 3b6f0928 bc4cd075 bcc6981b bc479fb2 ba564d12 3ce9d753 3ca782e8 bc47599f bd13370d bc50594b 3c20168f bb9dd2a5 bc642e7c 3c47a448 bd4c5df3 3b6cf292 bc8e33f8 bbd421c0 bad2c301 3d0fac5f bca16533 3cc6b9c8 3cb438a7 bc88b21a bbf2086f bad361f5 bc52ff14 bc666bd4 bca5f6ae bb589506 3c6838d4 baee9b12 3c921252 bd117883 bbbfc5e1 bcdcdb28 bd077485 bcde8c83 bc69494d bd0d422c bce3d372 3cb71941 baa03349 3d5736dc 3d78d913 bbb4d305 3c800418 bc446f34 bd0d45be 3c7b5b40 3c4c4e9f 3d3fdc40 bcbe97c5 3d1f6292 3bde7510 3be313f3 3cbb68b8 3b7135b2 bc313cd8 3cb40681 bb1dcf91 bca7524b 39a577f7 bc827764 3c2761a5 babbca51 3cb67e1e 3b3aa802 bc344307 3c2639d9 3cddd1ac 3bbf1dc6 3da2b210 3b8661c6 3d2ac2f3 3c4e1536 bcb4e91f 3d35127c 3adc598a bb5d8034 bc596aef bcad516f 3cfe7ac5 bc5bbb5b 3d31efa9 3d4f24ac 3cff2ce9 3cb33d39 bc248f48 bd2c9cf3 3c04e5e5 bc9a0df3 3cd46a8b 3c687c60 3c14d1bf bc5dbf89 bc3204b5 39674ba2 3c91b4ec 3d08b9e3 bca00f11 bcd6907e 3d8422a9 3d04f251 bc888a95 3c605ba2 3cac41c9 3bcd4e87 bc44093f bc27ea9c bb11ab6f 3ba8c467 3c94a991 3c4bdb2b 3d3adbd7 3bcfe2e2 3c8a2126 bbd4acda 3b8b52d4 3cccdd70 3cc4d7d3 3c2e086c bb43696d 3d592e3a 3bc5be9c 3ce0e5e8 bbe4741b bc07b057 ba630192 bc0659df bb14da6a 3b9c13ee 3c3f0191 bc88a6a8 3c744b0d bc38ecf9 bd1937f8 3cbe5fc5 3cdbaec1 3c83bbfe bb179883 3c8f16fd bb565799 bd03fdab bc7224b4 3bd25e97 bd449c7e 3c9f066d 3c3cfdbd bbbaf12a 3c0727a0 bbb70798 3b4527c7 3bbf84dc 3ce55d87 3b4bf15b bca3fd05 3c9787c9 3cfe4df5 bd41cceb bcfd108b 3cab141b bc480969 3c72dd2e 3cd7a94f bd0eed69 3c250010 bb83ea80 3c434cb8 bd3e9077 bc85bf6d bd295833 bd0eed49 3ca5c5d7 ba21c4e0 bd1d4d9a 3c8b1651 bce50ddd 3cc7b5f9 bc2f3dea bceee56a bbd3209f 3c2f7922 3ccba9c3 bb3e22d9 3c8ac04d bc5cec5d bc1e9191 bc66c4ec bb99afc5 3c8a8425 3ca7f80a bcf0f324 3c175e40 3c6b2b1c bc9a7635 bcfaec44 bd19a3a9 bd1c9531 3bb1f43a 3ce07c49 bc784f5e bd25d2d8 3c869418 bc8c0b52 bd241067 3c46dee5 bd5e0ece 3c56734c 3c8657f1 3cc71c79 bc2b2121 3cfd6671 bb4fd296 bbf73f10 3c094e3d bd357587 bc7ba1aa bc67d9a0 3b749963 3cc6d17c 3c87f862 bb43e068 bc4d6482 bc59b812 3b1f277d bbbec850 bc491486 3a92aee6 bc5fdde5 3ac55afc bca1dc89 bce3c5c6 bc40049d bd23ecef bd271ece bcc4cceb 3b957066 bc02595d 3c625cee bc8319f1 3c31c251 bcf3391e bd027d38 bb8595d5 3d27c65c 3ce13c4d bc5c66bd bc72a98f 3c9ffb41 bcf1bb11 bc74fd22 bc95e445 bcf13a59 3c2e3f00 bc8ebb7e bb1229a1 bbb096d8 bc2f78ef 3b0e1431 bc8913f8 bd7421a6 bcb87f60 bcc3e260 bc87483d 3c846361 3d1d19f1 3ca97964 3d0711b0 3d0708fc 3c099a0e bc78721c 3d17acd5 3bcbd815 3d3002f0 3cbb8f45 3cee7408 3cc551ca bca29746 bcf90844 3acf253f bd192f71 bc187c49 bd33d14b bb85cfcb 3a9e2cde 3cce3cd4 bc3a5741 bb8949af 3baee61c bcbe4444 3b9b47c5 3cd31e24 3d6e01c3 bced2321 bca4d7b4 bcd1d187 bccef00e bca6ea61 3c3bc1e4 3d436223 bb1b44a6 3c06fddf 3ad52d9e bd39c4a8 3c126bf7 3b33cc2e bc15c04d 3d37ec07 3d591cf0 3cebe0c0 3d21b08a 3d1f54e8 3c9481f1 bcba65f3 3bc09e74 3d0201c4 bc2e5054 3c8c6a83 bc3125f0 3c96d3db 3c8a8c85 3cf1fc78 3cf42db5 3d0256bf bd0cbf20 bcf288a0 bcf42602 3ce4ee6e bd1d131c bab6162b bcbb3337 3c9effa1 bc85c058 bb14b0db 3ac40c82 bcba228d bcd400e9 3c58498c 3af8eef5 bca144f7 3c149c7c 3c818b15 3c798529 bc6dfe5e 3cf58f25 3d0bb839 bd37349a bca56a73 bcdae46a bc0f01fe 3bf8fa9e bd06f61e bcc68ccf 3c5cbbd4 3ce93404 bc61ad22 3c9d6cdd bcdff2b4 bc5fec53 3cd8f128 bb8e0e2f 3c744004 bcab1cb4 3c3dcb6e baab2b4f 3be06d5d 3c7b3602 3c487497 3cc7c557 baf80d7f bc2d7e10 3cd733f1 b9a149a9 bcf03529 bcbe34af 3cb28303 3c8b2802 bc862ef1 3cceeef6 3c8cdce2 3c7e4f48 3b039e94 3c89cf42 bbffd0bd bd0f56bf bc8f75a0 3c4c4ead bc5f8882 3c7d7dac 3d26bb27 3cf2ff20 3cad19e6 bb38d5dc bb8c043e bbcc6e71 3d1a28a0 bd504f24 bc2388b1 3ca9a252 3cea1f8e bad91426 3c2c9cb7 3d8222ad bc54ec48 3a14b487 bcaea825 3ccf01c8 3cc0812e bc97779e bb17ef1e bba73ed3 bd024931 3cc92090 bb408b7a bc0ed918 3ca73f7e 3bd26f7a 3bffb83e 3c84fab2 ba13382a bc8bdc62 b99c5cf5 bcd580ba 3b50554e bd1407e9 3c0de97c 3d26d7de 3d094715 bbd537ce 3d3df857 3d76fd2e bb06b58f bc47ef1f 3ca160c0 3cbaf7eb 3c549be6 3be93fb1 3cd71886 3bcd4559 bcf777f4 3d2ddee7 3d1376d5 3d296968 3cfcb645 bac5b221 3c492add 3beda6fc 3d213d22 bc56bd7a bc90eb70 bc9b6965 bd12a3dd bc393805 3cbffcb5 3d5ceaf5 3c99fd65 ba96c5e3 3cfe130b 3d553f6d bbe00a86 bb3f3eb6 bcd72c64 bb02ba03 3ca9e1f4 3cf7a988 bc0e6ff2 bb81d66d 3ca42367 3c3934a4 3c014d51 3ce35c4e bc5ab72f bd77102b bd0bbe1b 3cb59be4 bd44b3a0 bb1da086 bca4f75b bd5cc514 3aeb01a0 bbe7d4d8 bcc1e1c8 bc93de5b bc012328 