6
mlp.0.weight 200704 3b187dd0 3caf3664 bcd70fb3 bcbe0f86 bc32b43f 3c4460ad 3af85e48 3cf8b9a3 ba08702e 3c4257ed bc0311bd bb8cd961 bcfd5b11 bca9b455 bc4249c2 3b7ebedd 3c86b757 3cc17ad1 bcad69eb bc4f944b 3c7ae0a6 3d01c06e bb97747d 3cec09f7 bb48775c 3bce571b 3d0c86ac bcf51755 bc9f850a bbcdd8d7 bc3560c4 3d06a4c0 bca4d7c9 bc5de302 bcb37286 bcf84575 bc936462 3d0550eb 3c92dc47 3c9b7096 3b5fdbdd bc829a46 3c073af6 bcfba8ce bcc28148 bc854317 3cbf7ce7 3cb7ebba bc586810 3a60109c 3cc91e99 3d19221a 3c872811 3befed05 3cd5a98e bc93cebe 3c1566f7 bcc95c63 bcb1bf35 bc7e351e 3c9705a6 3c889fc3 bc958fda 3c50a70c 3cadbeaa bb34d4f0 3af74ba6 3c049e49 3ca99f20 3d03d6b9 bcebea75 bc79aade 3c2c8352 3ce468bb 3cf32589 3ced13b0 3c00e47b bced6540 3b995492 bca1efae bcf6f74f 3d0a12f9 3cef80ca bd048305 3c15e0ba bb592cbf bb4f66e6 bc5d18b2 3c80de70 bc959b36 3c75848a 3c9e7ebb 3cc72fc9 3c20dc36 bd1a0518 bcd18a72 3c4affb8 3b2d2f12 bd007efc bcd0dae7 3cd76b52 3c9d52b0 bc545582 bc47c571 bd105274 3b853e21 bc91f3c1 bc9b694e 3a9505f7 3c000d51 bc48c11e 3cbf90a6 bc9978df 3d0ccaff 3cda6a91 bcdd30e6 bbca028b 3b666748 3be308a0 3c15777c 3c50166d 38a0682d bc8f4fd6 3c7dfd13 bd031d7a bc641761 bb9dd3bc bc8ab41c bb9eb415 bc8e0ffb 3c09910a 3c8a3656 bc59170a 3a947b26 3d03e774 3885c62d 3c04826d 3aba30a9 3c309638 3ccb987e 3d128ed6 3ccb8189 3d12ecf0 b9a94ad3 bcf05a11 bc9ab2d8 3ca5b304 bbf93a07 bd05a359 bd3c097b bd3d07f3 bcf04caa bb9756ea 3ccd4a22 3c43a1ce bd16d51a 3c968e96 bc7289b6 3c61738b 3cbc76e2 3cec80ab 3c1a1c4f bd0084df bd0e1b82 bad4c474 3c09c2f7 bc628e2f 3c7df301 bced24cd 39652030 3d0771aa bc648c52 3cee6a10 3b5b5015 bd4d197b bb8bc891 bd085327 bd4d2f9f bbbc1bff bd4898c7 bd12eef4 bd3a6bf6 bb92f496 3cdecc79 3d6486c7 3d1b46fa 3bbbff59 3b8f0111 bbce1513 3cab6929 3c28fed5 3c9897f2 bd004a10 3bb820cf bcc3851f bc88a527 bc921430 3c687dd9 bc9aaff9 bb0b4b24 bae019b4 3c447c05 bd6da24c bd8eae1c bd332c07 bbe82378 bd413c51 bbdad204 bc98e0e9 bca18c6d bc8117f1 3ce00ae3 3cd5d3a3 bb4db468 3ca77e49 3ce04c95 bc6448c4 bc2bcf54 3cb41b74 bcfa3fc9 3b952003 3d28bb8b 3c79bdec 3b64c826 bce94e4b 3c9ce33a bcbf1165 bc305e89 bc8cfa17 bcbb2aa2 bcea7f7e bba08b3d bad349a5 3cb32d1e 3c657fd7 bce59286 bcce8029 bd03ee7e bce0bbd4 bc7e4ef9 bc1caa1b 3c5d4f93 3c95d0be 3d228185 3c81e76d bc968ba3 3d072edf bc9f3e0e 3ca9eb7b 3b9dc031 bc4978bc 3c029472 3d00f46e bc0f18c4 bc9cd911 bc75757e bd49dd08 bc5d4a6e bd16b7cc bd171a81 bc9ada65 3d1adc60 3d7130e3 3c8bbc6d bcc07fdb bcc15a60 bd7fc68f bd7899b7 bd54a232 bc3a0694 3bbb7706 3d6757b3 3cb82a7e 3cedb563 bb18d17f bab124e2 3d353bd1 bcb39b6b b9ddcd50 3c092c4c 3b6c9e1b bcb2aa10 bcf98548 3ca7267d bc2a5d59 bb4f27b2 bcd8b949 3c453cc6 3cdfa83d 3d594e04 3c281117 bc2b6f30 bc2436b4 bd830eea bd769da1 bdddee68 bd62c297 bd30a60f 3d98e7fe 3d8db338 3cc8ab18 3beffc56 3b05a4ff 3cf51bab b8243f98 bd08e5bf 3bcb7177 3c8b47d5 3c869fcd bb51b37a bd09deeb bc9d80e3 bc2cb9fd bd06cfe1 3be8f99b 3cffc23b 3d31cda5 3d8197de 3d318f74 3bea4683 bbbb87ad bd2566f8 bd2d5a56 bce81137 3ba0b2f7 3da12140 3dea864d 3dc84acd 3d7a7f89 bc693b87 bc939733 bca363dc 3d2fa5e6 3cf48edf bc9b3652 3c85b6fa 3cedacf9 3d155b0c 3ceb62d6 3c56653e bcca349f bcf02c16 3cfe6146 3cd46d71 3ca9ee9c 3db792c2 3d482f08 3d148f39 bd1ece55 3bf62935 ba07f7da 3d02162c 3cad1138 3dc4818f 3dc2a233 3dc7d425 3cdc9f1f 3d13f094 bcb2eb10 3c9279bf bcb7eac2 bd11e671 bce5b41a 3cec36ca 3cb089ff 3d0f612b 3ce0527c bd3227dc bd296a53 bd0948b0 bd414366 3cfceb93 3c1ba326 3cd625d3 bc1bfb02 bb20854b 3d63a84d 3db0191e 3dbf3e52 3daa1e77 3dd655bc 3da15955 3db08824 3d9b6e55 3c70a938 3cabe12b 3b303ad2 bba4fee2 bd0528f1 3c709b7a 3bcd3e16 bbbe9981 bc8d38c3 bc8d72fa bcd67fe7 3c8b7674 3c051b77 bcf86c9b bd57cfbf 3c95f9c3 3c9016e7 3ba45243 bc972e42 3d1d8412 3d1ad727 3d46e881 3df33c00 3db38135 3d8e96e6 3dca8b85 bafb003e bd578f26 bc758a56 bd46459d bd94288f bd637982 bd089ea0 bbe2d7a2 3bbfbad1 3d0f4312 3b9186fe bc9b9b85 3b5fb68e 3c6d924b 3c0cc699 bd414aab bd14b433 bd51cf9b bc9fbc75 3cf76394 bcd138d0 3c183a32 3d5bd398 3dc67c23 3d44aacb 3cce5e74 3da652f8 bcc62689 bd35891d bddc99fe bde18385 bdb256d3 bd2093d7 bc413c80 bd579ce1 3ce6a5df bc47a0d9 3c5227c7 3b892634 bced46ae 3d0018b9 3c857f09 3cd2cd38 ba66b3d0 bd21353d 3cd9b066 3c041c41 3ccc32bf bb087710 3ca51ca7 3ccc383c 3d55298b 3c9d6ea8 bd0dfd7e 3cac5d01 bd1e499b bda821e3 be0ea947 bdec75fb bd79ee42 bc95bfdf 3c0fdcf1 3bdf239b bb834043 3c6672ba bd023c28 bcdff06f 3c9b14d9 bc8fafdf 3c5a6f30 bd0bc254 bd119141 bd243629 3d0b57ed 3c1c4784 3cd83eb3 3d340cca 3d613e8e 3d3d50c8 3be87dc5 bcf7bb4d bc31c1a5 3a811c92 bda0b11f bdafe951 bdd9be31 bdcbc1fe bd66519a 3ae982bb 3ca2cc15 bd219706 3cbdaedc 3c9edb60 3cbed1d9 3d043019 bc85827a 3c582182 3c26e327 bca72ac6 3ba335fe 3a859e81 3ccf01e4 bc80934c bc803199 3cabe609 3c046ca2 bd48916b bc914ee5 3c6d9f8f 3c0788d7 3c3dbc59 bd096b4c bd7c5f6b bdbc9f36 bd7936d8 bd2835d1 3ca7e79b bc52bf72 bbe1cb19 bc9f98df 3d183ac0 3d16516c bcc3457a bcdd80b9 bcca9b08 bb993f89 bc8e42bb bcd454d0 bba3fb62 3c938a97 bc9dcb6c bc583baf bce1bc0b bd8e0a49 bd0d04d3 3c25545c bcb5d5c9 3cd42160 3d2575c5 3d9b1135 bd490c89 bd810ec6 3c09810f bd0b5c08 3c132a20 bba5d385 bc874d06 bc42852d 3cc84509 3b8a0456 bd01181b bc94f392 bc21ce02 3c79cbef bcb23dbb 3d221125 3aa0c75d 3c123d26 3d0c126b 3ae3373c 3b1a9a4d bd042040 bcf94067 bca6469a 3beafc54 3d920894 3d3eda7c 3c018d01 3c342507 3c19dbb9 bd0bee42 bd3a7f3a bd0f1743 3b974944 bc2e1faa bcadb574 3c18b9ef 3c8227ba 3cf96808 3cf3e96f bb560898 bcfe23cf bce0c924 3d2d5545 3d1c0f04 3d29fc86 bb9eb0c7 3d5372cb 3ce86ec0 3c4ae73a bd261df0 bbc34a85 bc932098 3d8d492c 380197ed bc8e8f34 bc5addae bd6eec43 bd47a541 bc995d48 bc4e1bf3 bd104efc 3cb022ec bca2e081 3c5881e8 3d077bee 3ca5fc9b 3bf7602e 3d021b9e 3bda239d bc78531a 3d1105e7 3d039bf1 bc6cd0fe 3c3c10fb bca309a4 3d0cba2e 3b6bb443 bd14d23e bc0cd41c 3c796c97 bbdfbe50 bca72d7f bcb576e5 bc34009f bd1cb04a bce9d7af bd2c6a70 bd0ddc0a 3c24d6ea bcc6cdd9 3b1eed98 3c5c4a76 3ba621a7 bca4e33f 3d13e186 bc93af07 3d0483ab bd01d4a6 bc5454a5 3c3db3aa bc6052ca 3d695838 bcec954f bcffa0ee bc8e637e bbca61ec 3cda7d5b bc9f728e 3bf6007e 3c524d41 3c9cc9aa 3d34f75f bcc73cb5 3b07cc23 3d0a0458 bb1de901 3cefa210 bc246289 3ce9c728 bd01f0c7 bb21499e bb69ae1b 3c647b6f 3c86233b 3ceff554 bbb2aec6 bc192b73 3c337491 bc6b7386 3d36e03d bd06f2e8 bc58898a bbad7e8e 3c47b433 3ce904b9 3ab62937 3ba33c48 3d8f14d8 3d665251 3d680fac ba2bc87a 3cf1a941 3d315e48 3c25f8ce bce38735 3ce057f5 bcc02ab0 3c2aa9c6 3bfbb308 bc6247f9 3c7242c0 bceb1b48 3c1e7b30 bcd1268d bb9dee53 3c08639e 3d238c49 babe1d97 3cce242d bb8c6076 bcac4101 bc8843e5 bc584a55 3d9df07a 3c9ea334 3d75a624 3d9d542b 3d78188a 3d560b89 3d318176 bc91a515 bb3a58ea bc977f28 bc90eed5 3c301e51 3d10549b bcd0be6d 3cc2f659 bc7f377e bb8aca11 3cf944a2 baef36fb 3c62a865 bc2755ee 3d326174 3be4d186 bbf71bb7 3d1ed769 3c02366d 3940822d 3c96079e 3d92bc2e 3cc1c9b2 3d354aac 3d71cf35 3d251187 bbe29ab1 3baf6c25 bbd7cbf7 bccf542c 3b36e63a 3ced7173 3d03725b 3bbff9c7 3c2cd222 bc4e1e07 3cedebf0 bc4477a1 bcb230b7 3c029d00 3cc0a262 bcee5aeb 3d0ba568 3c721fe0 bcb76e68 bbb7169a 3d110b2a bca4d534 bc14e208 3c8c9f14 bcafafb2 3cbf4c79 3ca37c2d 3ccbd4aa bc9be848 3d194b43 bc97e878 3d189535 bcfe3c86 bcea8beb 3cc58421 3bccd952 3b971570 bcac2fa6 bc859f0c bc424917 bd1268a9 395aa3e5 3b963b5e bad73b1f 3c1efb1a 3d0191c6 3bfc757d bc6c8fa2 bc835d5a bcc38dab bcd11999 bbecb3c7 bbffe14a 3c64fc41 bc87e45e 3cd79edd bcd6a236 bac64998 3cf4d00c 3d08115b bcb37b5d 3b97b0ed 3b2595af bc93cdfd bc60c97a 3c01154a bcd4cfa1 3b889cb7 3c5e041e bc7ca886 3ce14c21 bb56920d 3c7f8954 3d0fc606 bc39f339 3c9a8ccc bc17a5ef bb299b58 bba1a5df bb165332 bc6df997 3c32fe7f 3af35821 3caf2359 bbf752fd 3b31df6f bc679cb0 bcf93277 3c5032ff 3b3c2b83 bc8030ea bc5c82fb 3bf7732e bc023bb9 3cae6562 39c370fd 3c3f7a7f 3c6063a3 bc26b672 3c6ca9ef 3cdde402 3ba92ab0 3c5f3cb2 3c440ad2 3d167f2e b9ac3264 bba8b019 3d00a504 bca2d1c2 3c3560e1 bc06424d 3cdef598 bd0188e7 3cbd6b50 3d166f0e 3bfd41f1 bb360bb2 3d09ce73 bc85b96a bb90d62f bc8ae74c bbd35509 3bc4b663 3b3fdad7 bc047ed2 bd175949 3a26718b 3a23422a 3c121016 3d1c9fe9 3d75719a 3c11476d 3d0eadfa 3c90393c 3c21385a 3c0f267e 3d44ee65 3d1f19cc 3cc42616 3c899e0d bd032c71 bc417f8a 3cc5f565 bcc96f1f 3d04b3cc 3c3ac6c0 3ca9e907 bc86aa90 3c6e41a3 bd05d28a bb7b95f9 3c1d0bde 3c0b1971 3ce1194c 3d173e99 3d28ca2b 3d22049a 3d59ae22 3d1d8229 3cb7a389 3cd75cd2 3cfcd6bc 3c060f0a 3d15d223 3babbfa8 3c237663 3c8c73dd 3cd18907 3c03bdb3 bd2d48dc bd6e242a bc5d1aeb bcaa95c8 bb379bd7 bd2ba612 bd07bd6b 3caa9940 3caa62c5 bd0875cc 3c3f6688 bcf212bf 3ce6ba9c 3bbc9afd 3d0bd9ed bcf0297a bccf29f1 3cf4e182 3d78f98e 3d23d4de 3cda6644 bd0a9c20 3c4131ad bd590c9f baf9cce6 bc85e2b1 3c185f37 3cf40efe bc78a246 bc9d6612 bd8152b0 bd7906a2 bbba779e bcaca098 bcadda8f bc6d61ea bcf7e29e bcf29a52 3c96ce97 3c821c47 3b4c7031 bd185c6a bb110ee1 bbd03d82 bd2b4295 baa9a857 3d08a15c bd1d09f9 bd5a7dc1 ba46f867 3ca62199 bcd4cf48 bbf7e8a9 bc0ba804 bca2317b bca07c79 bb57fcc5 bbab4d39 bd59404b bd23c596 bc418526 3c97f849 bd241c1e 3c93138d bc411f54 bd1311aa 3b8a95d4 bcd05665 3c032819 bcdf2e27 bd26069d bc90e395 bc2ecd8a bb65fe2d bc7fc317 3d21d1c9 3c08115c 3c4a46de 3d3a7ffa 3bfbde8b bc9a01f6 bd8c1926 bd4cb755 bd5dd126 bd38810f bd472be2 bd0c99f6 bdb87e4f bd2e2808 3bd25ff9 bcf71379 bccafbe6 bc204b1b bc3dd23a 3a4645d7 bb416629 3c8d190f bd0254d0 bc3b3eb8 3b853626 3ca709c5 bc84ed79 bca2409d 3bdeaac6 3c9e1d17 bbfb96d7 bba80f6a bb79dffe ba4b9212 bd2015b1 bd83e353 3bee5ac0 bce1ca36 3b8d4d93 bc4caa57 bd31f21a bd5c5c9f bd16210b bc092322 3b91b727 bce8c90b bc2d43f4 bd080990 3c5fbc9e bd0b6b18 3cf41669 bca88082 bcf1c56a bbf76656 bc38f8c0 3cff7d59 b9f1026b bd44b7b7 399a17b1 bcc947d8 bc3e0cc5 3cfe6dbe 3c46ecc1 bd2f3e65 ba0bdf12 3d036a4e 39acefb4 bae45388 bd38fa64 bd65fcc3 3bd01c76 3bb3ab83 3cebd9a0 bc859f8c bcc9767a bc0eca5f bd199719 38fbbe4a 3cf02218 3c996d6d bbb2ba9d 3c1e6a0f bd3453f7 3cc3ccab bd40fd43 bd706910 bd0c4255 3d32ac0d 3a96c579 3cb1ce7f bc493987 3cef57b7 bbd1b2e0 3987dd1d 3c4c0e39 bbf10c7a bc2ed921 bcc3236d bd4b90da bcaf7d0c 3ca2a30d bc808a75 3ca2295e bc9cdde7 bc78153b bc3fb716 bd03a0e9 3b5df1a5 bad01399 3b4869ae bb90bf15 3c839f12 3c98ca81 bd5d4b4d 3b6bdf59 bd009c8e bd7cbb89 3c54c3c1 3b5f4e6c bbfd5aa1 bbd34880 bbc41c56 3c961991 bd12ed39 bcfb933d b930109a bd156b5b bd240f02 bc7e9fd1 bbee74a7 bd0be1cd bcdd9ceb bbcfefcf bd3637f8 bc9adf71 bcff48f2 bd182dbb 3c3e502d 3bcbfacb bce91152 3bceb04f bcc9e174 3c36303f bd16644d bda9b739 bc5e6b41 3cf4556d 3c8c5a08 bc7b7826 3b295c00 3d012fe0 bbcb693f baeb1c05 3d1d2723 bd12076e 3a4c9321 bced958b 3c817c8a bd02ce0d 3c96975f bd230116 bd3d80c7 bcacfcee 3c0c05e3 bd5ca3f3 bbe74d6e 3d2f8b3a bca82884 bcab4bdf bd3f5461 394dfb99 bd3ffb56 bc893be8 baaf987c bd077aec 3b36c111 3c5d3364 bc8abb38 bb215fce 3c53a4ea 3d813c2d 3bc30a14 bc8a35df bbf81d5e 3ae5e6dd 3c0179da ba9bcbd6 bc4023f5 bccbdf4b bca2322e bd028088 3cefcd55 bd0e1709 bd000ee3 bd2d5324 bd047625 3cbeddbc 3ce58503 bc85e2de bc8e4854 bb6224da 3b2c16e4 b9624b7a bc556929 bd671d1d 3ca2b751 38f58ebe 3ce91f3c 3b8e7d6f 3d2c95f9 3d5870b7 3d1f3517 bd0826a0 bccb2ed1 bc8be69a bcd624dc 3cfb2818 bbbf69b4 bc76356e bc44ceec bca23c48 3c15e718 bd5d758d bd48c7b5 bc834b28 3d32536b 3d8a1fa0 bb3601e5 bac3e33d 3cd9c1ab bcf5df54 bd4124d4 bc582d00 bc9b4c75 3a818776 bd3628c0 3ca84992 3d6d66cc 3c3e08e0 3d0c7271 3d0d320a bc7ce092 bc4229bd 3c6a053e bcce0988 3cae10c9 3cc5a45c 3ce8a49d bd0c44eb bd4dff76 39c9138d 3d0c0d5d 3d28fc49 3c72afd8 bba55a03 3b7774b1 bd0848d3 3cb66937 bcd86610 ba321fa7 3c7796d9 bbb1cd97 bd273321 3ca8681a 3d14af3c 3d861276 3bfc83ce 3d1416ab 3cf12ba0 bd0c2778 3af6e48f 3ce28e38 bc9f5131 3cb72575 3cb69a04 3c27973d 3cf27e64 3d050796 3d024578 3d1a993f 3d9720fe 3c6d38fd 3c9016fd bc245a68 bd29048b bb802019 bc76a325 3ae7d1f5 3ca9adb5 bd17125e bc121623 3c5fa740 3ca3ac80 3d096e59 3c9be365 bbbdb1c5 3cebf8cd bc35cac3 bcd4a24e 3cac6473 3d026ca0 3b89c11e bb146828 bca74866 bc71bfa9 3cb1af53 3bc14ce2 3d406cf4 bd2778bd 3d0b107e 3cbaa1f2 3c8a78ed 3ca7a8d0 3c856925 3c2d7dd2 bb169588 bcc41150 bd1e068b 3c5c92b6 3d87c380 3cfe3b67 3cd30dea bb5ec801 3c363421 3cb4e05c bd1418aa bcdb58ee 3cbccf99 3c408ec7 3c51b1cf 3c28cf4f bb86eebc bc05ce42 bd041b0c 3d18b46e 3cdec098 3cceef7e 3d0997e9 3cac45c5 3c1ba716 bc3df601 3d4d8a57 3d36849e 3ccdd671 3c02524b 3d344abd 3ceb2f34 3d8d8c12 3d61dc6d bc120f09 3c9c9bde 3bb09506 3cf09635 bc6a2393 bc335d32 3cf0408c bc9435dd 3cb7dd3e 3d217fa8 bca85f00 3d6d7084 3d1ee160 3d5868d0 3d02f0bb 3da21e45 3caec1f8 3c3831f3 3d3a1ce8 3d0ff35b 3d373046 3d7e2d99 3d10797d 3d6a15db 3d85d557 3d9aafe8 3d66caf2 3c9abde5 bc8e6d37 3cffffea bc9dc989 3caa4671 bd0f5b16 bbf8ec50 3b0ae0a1 3ca4b0a3 3c9e2504 3c3e59f0 bb910a3f 3c9ceeff 3d5961a1 3b553ad0 3cf15235 3c9c24e7 3d60c828 3d9cd710 3d01d1b6 bb75dc01 bbfb0720 3d824486 3d10021c 3d9bbd34 3d45fc7d 3d527443 3d819876 3baa32cf 3c569177 bc86fff8 3c8cc7d1 bb9c0cbd 3aba319e bcd3ba81 bcf99a9d 3cb27a86 3c90aadc 3c365fde 3ca8368f bc89955b 3cf51b91 3ba4d9a3 3d06a70b 3b7a8dd1 3cec6e9e 3d544619 3ccaab31 bbc647bf 3c99e4b6 bd0d2f17 bc1fa9fb 3cab977e 3ce2918a 3b1a4317 3c6d8113 bb99fd70 bd1b0200 ba6cba75 3ca9fabb 3c4e991c bc9596f4 bd0a684b bcef43b8 3a5fee61 3cae9d92 bccdd7d3 bd257da7 bd24da20 bb5bfb5c bd29d811 bd5bcf46 3cbcddee bbcb3ec8 3bba5d63 bc2dd3c1 bd064040 bbcbb235 3c778fb9 3bc4e899 3c4ec193 3cc80d98 bb89d41e 3d58a51f 3d226019 3ca80046 bc818647 3c805ee4 bd0d1b2f bc2873e2 bc0f302b bc642836 3c2f1c0d bcd1ea9a bce6ad70 bd21f414 bd85ef60 bcf83c1e bd64905d bc887b51 bc59114f 3cf103af bcaf0ec0 3baf5326 3c873fd1 3d45ab0c 3d3860b2 bacb1dd8 bcf82678 bce52dd7 bbfe9172 3d15f578 3c74e863 3d1b118e 3ce199a9 ba2d39af bcbf2367 3d058805 3cd91091 3c5f8401 bcb2ddaa 3ca236ef bbed5998 3c854a88 3b276d48 bb07767a bd73b3b8 bd200057 bba0a022 bcb815ba bd17102e 3cfb4778 bb228c49 3ce4fad7 bcd4ac9d 3b87e681 bcc0423c bcb1b06c bc8bbbe6 bca2bae7 3c7d39fd bc19f7d8 3ccfa71c 3be0a61b bbe64216 bcb30221 bd0a097c bc41e792 bd0b8aa5 bbf6e350 39838b5d bb6499da bca8a13c 3c978667 3c51e8ac bbee8304 bc0940b6 3ce51bea 3cf86d46 bcf58031 bc639cff bbf6259c bc6ae562 3cc90cce bc6ee4d3 3cc45019 bb77c569 bbf99267 bcb2e254 bc58c46a 3c1e7939 3c638871 bb3b629f 3d022563 bcd3e182 3c41b3d5 3cf55272 bbfca26e 3cd67bd8 ba8213bb bce0f55e bca953ad 3c34dd1f bc955f26 3be9abf7 3d0b1183 3c0f4b45 bbad382a 3c127668 bcb2d535 bd0678e0 bcf2635b bd00d49a 3baa6c71 3b826c87 bc997a8e bd14c745 3c8e46de bcb01b3d bbf48a91 bcfdf579 bcdc6afe 3bf51ede bd22e417 bcde2acd 3c9cc624 bccdb04f bcb1f02f bc8b087a 3c007aee bcf6c660 bb6d6fb2 3beb1726 bc1ffc43 ba7faceb bd0ab27f 3c0ea390 3bc34718 bc3cf2aa bd13d791 3be16901 3c80da0e bc595be9 3c19ae49 3bbfc157 bcad4926 bc1ccaa9 3ce34e73 bbe46d99 bd0f8c00 bc1ece03 3c28b271 bc98284f bcd0d014 3cb1f133 3c34a0c0 bc63a405 bbd96ee2 bc3cf928 b8e777d2 bc01a284 bd01fe8b bb383dac bbc48893 bb9fbe1a bcbc54fb b90fb677 bd18b911 3acf8979 3c329260 bc3f12b0 bd0ecc57 bbf11283 bbe838c1 bd1947cf bd02aeed 3ccf0727 3c9c3a9c 3c49411a 3c8c6c6c 3bce2dcd 3c4d33a1 3c8385bd bc8142bc bc5cb82e 3c70fcbd bc28acb1 bd0f3bd5 bd27e036 3bb1c55a 3c8b1feb 3c6a7924 bb41a1e8 3c8344af bd2b7684 bd1bfc37 bd46998f 3c827509 bc51e12c bcdd267f 3b5913be bca32670 bceef10e 3bd0fd3f ba3cda5e bd03efa0 bcf78dad 3c1ae8a0 3c9ea642 bb90fea7 bcc11ae0 3c1fe04e bab95f8e bd24f81e bd0d84b9 bbc91e12 3bb2ac62 bcca2f9d bbea814e bd581ca6 3c6d9235 3bebb568 bc507bbe 3baca011 ba084864 bd11a678 bc642edb ba0ef61f bc909983 3cc2cb83 bc9dee0f bd2030f0 bcc32096 bd225f69 3cb213e3 bcb6a62d bd0146a5 bc32a8b4 bcda4488 bc9cd4c1 3c83d2ea bcf43421 3bf13a6a 3ca6f0de bae53db3 3cadd1f5 bc9fcf7d 3ccc18f7 3d0734c4 3c4b2d5c 3d251d4a bc913274 3c05eb22 3c2a9366 bd08ca73 3c68cefb bc95e8c7 bc816f1b bd059968 3c0294e8 bd08300f bc6ebedd 3c0a1e5d 3c9ee921 3b15c9c2 bc92737e bc842f9c 3c8f1881 3a93977d 3bb14678 bc5443ba 3bea3029 bc5043c3 3d5eece5 bc4d62d2 bca9b85a 3c1f88f6 3c82be86 3cfb08b7 3d75597b 3cd1f16a 3d513d14 bbfce13c 3c79a16d 3cc5d447 3c874963 3cc9de3a 3c2717a0 bc3354e4 3b03e70c bcb26c99 3cb368d7 3c36083d bd068407 3c74a948 bc4c455a bc55243c bce66d03 bc2efaa9 3c26e0a1 ba3d38e4 bc92e992 bc62e298 3adc60f6 3d549c4b 3d585b73 3ae7c363 3ce5c53c 3c99360c 3c1eb399 bc68aa9c bd0f2bdb 3bf0b2e1 bcdc562c 3a1096ef bcd707bd bc933343 3ca78600 bcc8388d bc4032d2 3cc0394e 3c07b75a bcf10400 bd2c8bb2 bd263456 bc57f77b 3b168925 bca03577 3c8d8734 bca08f70 3ba3bc22 3d125bc9 3d2d918e 3d0e5d4a bc9042bb ba81ba03 ba86ef93 3cd149d5 bca081e8 bc9c3439 bd471468 bd5fb4ea 3c3115fa bb658a4e 3ca7788e 3ca1b32c 3c24d6d5 3b2e8f95 bcb0cb16 3c0f348b bb90cd06 bbdb63e5 bccc801e bbf53e36 bcde7a9f bcd933c3 bb8684a2 bd754352 3c89307a bd3d8c0c bd875029 bd6b1481 3c843073 bc2a021d 3d42ff27 3be97ff8 3c5b1fa6 bb082f14 3b9b9392 3c7d0402 3ac16f95 3c0e5ac2 bd0a5271 bc881493 bbb3096b bbf2a405 bcd2c339 bd6d6ddd bcef3c3b 3bfe3cfc 3c6dcc3d bd36bed8 39611666 bcec5cb6 bd53617c bd60feb8 bccd5b6d bce31fda bd22a1e6 3cbe58fc 3d2b95d4 3c8ad09e 3d250871 bd1b5a6d bd0843df bbe9bc25 bc477601 bd2593fc bd0feb97 3c25ad22 384c371d 3cdd7063 bcbad203 bb109494 bce11bd2 3b5d1907 bc317f38 3cd79048 3c0a78ee 3cf88a83 3c35ab84 bbcbf863 3bc8d9df bce78518 bbe8e6b7 3ce7b9e6 3ccaaeae bc2b7a53 bcaab423 3bc77b63 3cd09161 bb9a098a bcbda99b 3bcc6104 bca1d164 bcba5358 3bb3a7b4 3b95cf74 bce31ab1 bb77e041 bd140911 bcd3bcb7 bcd83c4f 3d07a856 bcd0b8c0 bcc9cc10 bd31bf39 3ce9aefd bccf0f43 bbd1b8c4 bd242f04 bd07ed02 bd0a79a1 3d21def7 3d7810b9 3d4eb10c 3c325591 bc7052f6 3b78fbcc bbc094ea bca799b8 3b543a0f 3bf0be2e 3c70d088 3c466e02 bc7e2bb2 bbec9711 bb31b3e2 bcd9c9eb bc8ae3bb bc69659b bcc192a1 3d00ce7d bc21e636 bd0ba4b3 3d14651a bcb8f929 bbe28a18 bc76e4de bd0e4312 3c77342b 3d468c3d 3cf7c0ff bcd33d2d bb262447 ba929d5e 3d5fa75c 3cd9dd16 3d264dc2 bc85e88e 3b4035d8 bc21d590 bb20fd96 bd158741 bd1cb485 bb8a46d9 3c1c9c5d 3c430487 bbbe3df3 3c4e68f4 3abf88e3 bd7eb9d1 bd05ed6b bc0b53ba 3abee062 bd874616 bd679468 3a0595bf 3d85bd63 3d31023c 3d09e4cb 3d1c1325 bb820de9 bb81e839 3d15967e 3d9fcc76 3bf15ac6 bccb22fc bd686ce0 bac08c7f bc8435cd bc74a393 3c91bf32 3ccd427f bc11de48 bd0effdb 3cb62cb2 bc9d8849 bd69a659 bd4564a2 bcb3d736 bce9ae44 bd15d9eb bd9629b2 bd4088aa 3c85a16d 3c97663d 3d29a5dc bc6e8f11 3d364642 3d0bc265 bbfec0f7 bc52bc66 bc04ea58 bca8fb88 bcc469ef bd4680d7 bc85ada4 bc22b5af 3c687137 bd1ce0ae 3b148646 3cdcd634 bd31a200 bcca9a24 3c98b09a bd2aefb1 bd2cf7d1 bb9c4ab7 3c17d292 bbca36f2 bd2d571f 3c287c22 3d00063c 3d89eea4 3d71cdae 3c6f3379 3d83eb1e bd1ebc17 bd174b1f 3c3a7f2d bd01f9ea 3c19c6c9 bd771447 bd0f1bb2 bd4f8940 3c259f8e 3cabe759 bb1aa7fd bc2e96d0 3c79c443 bd0165aa bccd390e bd250f61 bd5133f3 bca1c230 bd572081 bd04ed60 bc841172 3d10b01c b923473c 3cc1be35 3db2a6f2 3d11b870 3c8cfc8b bcc0a77a bd513b4c bd1e8dce bc640b24 bcaaddd8 bd57f26e bbd513b0 bd033607 bc9195ac 3b9c0384 3cb70251 3ce6f33e 3c2270a6 ba8080e4 3c84ac92 bc44ca4a bce713ac bd25c70f bd2721bc bbf8e48a bc7c7521 bd1a3f26 bc614010 3c68a803 3d7cad2f 3d9f5f9e bb81e245 3bbb1063 bcfd885b bd13a997 bd608c1c bc7592bb bcf899e1 ba149bbe bda3cbb8 bd34982c bd04ecc3 bc87e16f 3aef09b9 3c66f81a bd0a3219 3c804061 3cb6f85d bc3795bb 3bda9aa9 bcda370e 3c241380 bce76feb bd265d43 bd6bdce4 bd399936 3cbb36e3 3acd39e0 3cd10672 3c253cc0 3bda7d4a bd79abbe bd24d560 bd743fe0 bd26b0cd 3be2613d bd5f06e4 bcff6c87 bcaccc16 3c977f39 3c1bb72e bd07a190 3ccf9ee7 bd2c471f bb9dcb17 bc2e9953 bbae1e29 3cd5d118 3ce362b1 3b266f09 bc92390b 3befdf59 bb28ee2a bc336ee0 bd215b37 bc2bab8e 3d8321ae 3c26f490 3a0df3d0 bc20dcc8 bc678a2e 3cf0d8e9 bb229228 bc9c7b05 3bcdc499 bca42bc2 3c9a2a35 bb55d355 3c9c9ed0 3cbfc2e0 3c776065 3c9b954d bd204e56 bca278ce 3c06247f bcb09e06 3cadf0cc bb707b7f 3cc4b14d 3cf5b8b9 bd249234 3c1ae5c0 ba88297f bd1e9a89 3d1a2497 bc9d5502 3b13a6be 3cab91e5 3cb4ce09 3ce5ac38 bc0a62b0 bccd25a7 3bedba2b 3d5052e4 3d5b5cd8 3cd2bc9a 3b685dd9 3b18a180 bd0bef03 3be727d7 bd2c129e bcaa6dbc bbd39590 3d156ec5 3c96afe7 3c8d650c 3d1a88e7 bc7e447f 3b13d82d 3c019b8d bbec5227 bc943d51 3cb02a08 bbe83c5e 3b46bc74 3d299478 3cafffb6 3bf26aeb 3cacf7a9 3d009dae 3c775d50 3ba39509 3c365b94 3c8b9cef bc2c17f0 3c37d076 bd123f7a bcc7479a 3ca05d6e bb059df0 3be16f27 3cb381f1 3c2b9c69 3c192f19 3ce5a554 3bb54945 3b587264 3c6fadeb 3c9e491b bcc2dbd0 bd112287 3b9faca3 bd12ccd0 bb988428 bcd38581 3d1c74b6 3ca86981 3ba02767 3d425740 bc756257 3c4bebbe bca13736 bd108bb0 bb7f8cb5 bcc5a276 3c950534 bd0e21c0 3cba6686 3c868ccb 3ce3636d bc3edbf0 bd015c6d bceacb1b 3d351450 bbdbe81e 3bce24f3 3bc15b30 3c01b71e bc905a9c 3c93eb01 bd10a9fe 3cd2254b bc7b59ce 3aa54ea9 3c7752da 3d3d9306 3c986177 bc4a47dc 3d1fa298 3d0fe7a2 3c3c8ec3 3ce00fcd 3b1e3196 bc21e878 bd0f9993 bd18e974 bd020680 bc9f94b2 3aa15ddb bd06ca24 bc53e084 3ad11958 bce85fac bc030443 3d0a049b 3c966ddd 3bd5db14 bcea056f bce6df5e bc41b7fd bd0ba3c4 bbe8fd11 3d37e877 3cd6ec16 bbe225c4 3d241b0c 3c303277 3c5f8e4e bd164848 ba296f6a 3c6a2724 bc47c28d bcdda391 3cac37ac 3c06667a bb55bcf0 397fa25c 3a5a1d02 3cb4e745 bb58847c bcb7cda1 3c59068d bb085ac3 3bd5e511 ba86ddf0 ba6d26d6 bc13edda baab4483 bd0251ed bd2633ba 3c5b7ebc bc141251 ba402735 3b6573c3 bad2de81 3c6bf0f9 bb26e787 3ac6ad35 bc28504f bb00b5d3 3bbb2e9a 3c8962e8 bd2526b5 bca2381e bceae396 bc0f3d2d 3ca9ec4c bd183fe0 bd04e989 3cdaa5e6 bc418c82 3d007f03 3c45dddf 3ce88241 3cf35188 bd040bc6 3cdf9889 3b914581 bd182f1c 3bc94b8b bc2c82a1 bcae1e93 bc2923c5 bcc13d69 3cc06b3c 3cbc9b54 bc322985 bd1c93f7 bc18079d bb9dfacf 3c856535 bbc530f5 3b44b1cf 3b15d6c8 bcd4dcf1 bce6ca7a bd1f2f82 bc0beb77 3b9750f6 bc01b24a 3cc98d31 bc560776 bcd939f0 ba9f8481 bca50638 bc67eba9 3cdb6a61 bc03de94 3cb45aab bb8bd329 bca8a7bb 3c980243 bcddfdd5 bbc3dadb 3a41f35e 3c1456fa bd1fc3e0 bba25b3e bc80fa1b 3c8370ad 3ba7a095 3bf17e00 3c6bc924 bc6de00d bc121cc3 3caf9cc9 bd0f16a7 bcfd8ab9 bb8ac5a0 bca85eff bb98ed52 3cc6eb03 bc2fe6e8 bd15ab3d bcb92a92 3cd0f230 bc6b7a54 bcb4860d 3c1514ba bb191690 bd19ea7f 3cb86687 3c55f518 3cc2d4e1 3c0de2c0 bc976fe3 bc946253 3c28e0cf bc5cbb5f b9a3b678 bd2aa560 bcd01c6c 3bbd0d61 bc1b32a2 bcc46e00 bd19a37a 3c720e05 bc79c9b6 bd30e61d 3ce02024 3c23d725 bcf286bf bd0be528 3cd69e59 bbe9dcae bce66c39 3c5bd5e6 bc64f069 bb8c0799 bccc3d5a bd14d833 bcf553c2 bc2c6628 bd0329a9 3ce4a640 bbce6888 bca4fa21 3bc1ab8e bd259b57 bce3d956 3b9774af bd25aeb2 3bc34e35 bbf26998 bd37e71a bd4ba576 bc47c716 bbce469c bcea1550 bd53a083 bd2815c0 bc22ef5e bc24642b ba623e86 bb0c51eb bc08dd0a 3c472d21 3cdfc58e 3cb86887 3cce293b bc97897f bc99cecc bc2d1f9b 3b293e52 3bd4ec60 bc60f5a1 bcfeef4a bd09087a 3cc54065 bc2c1fb7 3b9a4b61 bcac323b bc57dd72 3ccd6fbf 3cb54baf bc5b9a94 bc8878ba 3a248f7b bd66a626 bd66dd2b bcd54b8d 3caba6b9 b9a95747 bae2e91b bc378b26 3c7cdc59 bcc4ed58 3c8bf78e 3ad27140 bb54a72a bb00fe36 bce6d050 3c9edfda 3c8e010f bc9909c3 bc9c8525 3c2f9545 3d3a7578 3c56baa2 3d934e3b 3cd31907 3c32292a 3d20e3a5 bba10428 3c0d714d bcce1784 bd2364ce bd826ec9 bd9ba528 bbfb1d08 bcc6dac0 bcf8dafc bbe1c679 bd1c21d4 3b45b2c1 3c234e6b 3cdfb700 bd10557e bc302784 3c661bf6 3caafed4 bcde566a 3cb77a9a 3ccd6d84 3ceaab8c 3bb54e7d 3d93d358 3d2cce07 3d1e32f8 3d7abcae 3d6cc2ad bc08e6af 3cbf08c5 bc58f725 bb6116fc bb030f21 bcbcca38 bd6e9f07 bd1aff77 bc1ec68d bd0d5263 baa89fa8 bcd0509c bc5f761f 3bc014f1 bd0e8f45 bce2f812 3c4bbf10 bd283a79 3cae5eba bd1279de bb2848b3 3c8711e2 3cc552e6 bc8ce77c 3cea3589 3d878748 3d8dd9a5 3bc1f4d7 bb1db493 3c42220e bd0cfc00 bd6bbf25 bd93d275 bd440df7 bd085f8d bd09c729 bd678a84 bd45a4a7 bc144ead 3c5885c8 bcbe0ac1 bb51507b bbd6af7a 3c4253e4 bcab7519 3bfbcb96 3d24208a 3c8010f8 bd0e9e50 bb66ecd5 bc49aa40 bc9be31f bcc0ffde 3bee0c51 3bb82068 3c6334da bb7463c8 3caa3296 bce5df3a bc1db865 bc58a693 bd1b4212 3b8cdcd5 bc07b2a5 3b758ca9 3bf732da baa48044 bbbc8484 bd14943c 3bdc073f 3c747424 bc959861 bd03dedc 3d0ad3ce 3bbe63b3 3c3a3afa bc14b47d 3cc05dbd 3cbe0120 3ba02173 bc90b87e 3cb63601 3cb8ffc2 3ca1e4e1 3c4e501f 3c64e7b3 3ba864b4 3d49cee1 3d40cc5f 3d0e7908 3caebab2 3b6d77ba 3c581f86 bd1635b9 bcb162b5 bd1c8042 bc26994f bba4e492 3b2385d9 bd00a3cf bc5b019c bcc22168 bcb358c7 bc2513ee bd885a6a bbdc17bf bcf77833 bd416b0c bcc1e67b bd2b0bfd 3c04f19b 3c8b28f1 3c394095 3d74dd20 3d9f7adb 3da8ede5 3d9701c7 3cadec08 3d51a38a bc7087a6 bcf5bac7 bcc8e4ad bcc2162e bcb73563 bd178633 bbb3e058 bc3d9b64 3cb182ae bcbd07d0 3ce73a1f 39472230 bca33cba bcede8f2 bc44eb32 b7568ae9 3b6e311d 3bcfe7a7 3ad2e22f bb6baf33 bcaa79f0 3cd148b8 3da976f4 3dc176a8 3da37890 3db26da5 3c2634ff 3d78972b 3c88359e bd0d792f bd3bbb27 3bd8bb2f 3ccb1166 bd108a3f 3c3ee393 3c3ea864 bbb3490e bca09afd 3c950410 baa42b2f bb5e9d97 3c935a47 3d06ae36 3d49f664 3d2d5465 3d159710 bc037ac0 bd428ab9 bcc0cfd9 3ba3cd34 3d529aae 3d262d1f 3dc21dc4 3cddaebb 3cb56e63 3ca615dd 3d151066 bd28c224 bc38d38a bd2dfc76 bc056508 3bd0c64e bc7f55f6 3cbdc673 bc2deaae bcf62c95 3c3fc67a 3cf314fc bbabbf34 3cff87ad 3b42dde6 3d82c93b 3d90e4e6 3d857fd7 3d027f1b bcd49feb bd833683 bd1eb0ab 3cd53f53 3cbd64d5 3dcf7e65 3da2744b 3d8afb3a 3cae6f83 bc4757ef bcbe91a6 ba06d4bd bd2fc744 bd2f6b7c bcc7c21b bd15d955 bcbba556 bcfb7897 bc9aec5c 3d42c29c 3bcff043 3d0d4b84 3cdb7669 3cf0e416 3d05a776 3cebe505 3ca2a0f8 3d16bbd9 bd2d2ea6 bd3d5bee 3cd91a9d 3bc403e5 3ce30e63 3cb1efe2 bc018ec6 382133e6 3d848909 3d144a99 3b3d504a bd13959e bc813103 bd1fc952 3bae099e bc85d28e bc827f3f bca02ecc 3ca922b8 3d5e891d 3cbc70e7 3cb5a0d6 3c62f260 3c9149ef bc1b3317 3d999cc0 3ca7849f 3d1f5f6d bcf48b20 3b812912 3b3a67dd bc18992f 3d04a0a8 bba83941 3c5ae74f 3bbcfb63 3ca6a4b5 3ccde1ca 3be0da74 bbcae521 bcb8d9d2 3bd254f7 bcc11597 3bf34db7 bcbab42c 3ca8ca81 3d183dee 3d4f2bf8 39b45299 3ca0ba42 bcf08368 3d11d7a2 bb2c992e 3c2e5e7d bc678539 bce40513 bce36e44 3ce9bc3e bc81627b bc3850bc bba5bfd3 3cc073e1 bca5eee6 bd422c53 bc7020bd 3cdc6ddd bcf82c0e 3c23daff 3cb68768 bca984c1 bcb568bf bd03196e bb01af2d bc0e2d85 3c5756c4 3d059622 3c7982c4 bc2d44b8 bbd697f6 3a606cd2 3b325cda 3bf56c56 bc853731 bc1e0c29 bd37b1a1 bc8879d8 bcfbdd4a bbe14fcd bb654c97 bb4f9106 bb33ae3c 3c9a84e6 bb3672a2 3b53df7d 3c3a16bc bcdfe2bd bcb1a806 bc52f5fc bc1df92f bcc6e157 bc6ef13f bbd26bc7 3cdd46e7 3d1c707c 3c792fe8 3b37e3c4 bba4fa15 3cc39ed7 3c8ccf45 3b80e01e 3b5555e1 bd8028c1 bdc7f219 bd293c49 bb285fc6 3b02e804 bd5000b2 3ceefabb 3ba9df0b bc1caa1a bc3a32d1 ba848a3e bd4e4db8 bc49f6cc bbeb0d83 3bdd95a8 3beb5284 bcf23905 3c10d6fb 3cb0d25b 3b3979b3 3cc168f4 bc3f2374 39efb914 3a8563fa 3b74d895 3d68a93f bc1d07b8 bcad60ce bd3b3695 bd4e4b7b bcdc97c8 bc667d24 bbc569bd bc0ae51e bcae12cc bb3339b9 3b700105 3ca96b95 bd1e4b82 bd046762 bbd4bd43 3c0eb658 bb627f10 3b38d4b4 3ce62d08 bca70638 3c9ab824 3cf4580a bca9747b 3b63ba55 3c85d9c8 bbfb28e0 3d138f41 3d4debdd 3d2beae9 3bc299c8 bcd9ef4e 3cd1ee7e bc1b4ea7 3ca14acb 3c75d629 3ce2120f 3cd4f396 3b205ec9 bb88924f 3b9b0381 bd40e6c1 bcdcff9e bcd8f1d8 bb386c9f bd0c645f 3c7164a5 bd1df246 3c0b8dc6 3ca6f1f8 bcf89870 3d12b44a bd19683d bb51d6de 3c415260 bb8bdcdc 3d87b19f 3bf1a719 3a63476c bc81d188 bd0aa94e 3c85d09d 3c2a60b4 bc872999 bc41cb52 bd162288 3cb7eb46 bb5b635d bd02eae9 bd5773ca 39871866 b99c4702 3c736f2e bb4854c9 bcf983fe 3bfcee7a 390ab657 3c2171a3 bc966190 bd0ff062 3c60da52 bbc7d8a9 bcee0240 ba3022bb b9f2623e 3c8a66fe 3c6f029d bc77ed0e 3c6d44cc 3c9ad509 bc507994 bd0ce943 bcfcfb9c bd23a589 bc81c827 bd315c75 3b661a8a bd49ec9f bc3ae980 3bf8738f 3caa7e97 bb79ea07 3c658f25 3baccd56 3c96feec 3c768c71 bd4ed40a bcade0d0 bc9d2d4b bc9962eb 3cd04783 bc4bd502 3cf2d2fc 3d932016 3d83bb3f 3d98f5d7 3cd9dd97 bcb86c9c bce5890c 3ab15285 bc9f1f59 bd12cab7 bc4ab8fd 3ce3e072 3ce38bbb bc5e142c bc2b96fa bd146ecf 3c0f9c40 bd0a9660 3c8f82a8 bcb9cc5c bca78fc6 bd0c76de bcd36c3b bce17fcb bd077c1e 3cff7321 3d2aab9d bcaaf251 3cc0650f 3d49a8b4 3d894197 3d29a0a9 3d8e1bc2 3ca48174 3b34b2e1 3d10d54d bc2248f0 3cd1549e 3cbf87eb bafd19d7 3ca13b07 3cf3b5ee b9e8a7f4 3b4ef537 3b9ed329 bcac23e9 3af65ba0 bccfabdf 3cbe2e1e bcad6383 b990c678 bcc6863f 3b5e859d bc1ab1c5 3c8ff960 bc772ed0 bc807db5 3ce13d36 ba8a2dbf ba7c4465 3d62d0e5 3c91223a 3ce22586 bb966cae 3c3c2f39 bc68e37f bc8e7438 bc3d47ce 3cca3cda 3bf16b59 bcc227b8 bcf7d46b bbc12d35 3b952afd bbf2b918 3c62ba7f 3cbb0ca2 3b3a9e1d 3b1e8bc4 3c520ce2 bc86d95f b8b0d5d4 3c770336 bcfd1b0b 3b2cbb32 bcb688e8 bd5badb8 3c5610ed 3d0e0107 bc9c6480 3c2303c5 3ac04d02 3c09812e 3baddbfd 3ccd4173 3ca3ede1 bd203ac2 bcb9cfb0 3c1b80d2 bcda9c3e 394e8269 bcb1bd79 3995be26 3c2ac9f7 3b8e35bb 3c9a06e5 bc1b3608 3c86878b 3c12f1c6 bc89e620 bd028a33 3cbf50d8 bc962ba1 3c8f531a 3c716f23 bc3da6fb bd105108 bc450ae3 bcfed877 bb71dae9 bccb6aa7 3c4c821d bd27f68b bc87ecaf bb04fe3b bb597d1b 3cb50242 bc9174e4 bd0dfd42 3c8761d8 3b4c4f3f 3c866b7c bce08dd3 bcdf4623 bcaaae20 bb8a1b50 3ba6e1a4 bcdf4348 bc2d08b7 bc590684 3cbef381 bca541e6 3cdf9c29 bcf38dd7 bcbc36aa bd089b66 3c927e00 bd038e7c 3bfeab00 bca065e7 3ced6944 bae735c1 bd18b298 ba603e72 bb1e2d8e bd262475 39bbf33e 3cdb32e2 3ba86e39 bba81af0 bc48035a 3b8f2153 bca86837 3cf20bca 3ccfa264 3c3b3573 bc937151 bd1b0477 bccdc117 3cee8726 bd17abd1 bd1cdf89 bbf5cbaa 3bcb33d0 bd23114d bd197a1b bb9bc318 bc88c305 3c9f78b7 3ba7aa85 bd10eb28 bd1587d6 3c9ca824 bc36cf54 bca61f2f 3bc79bf4 bc41d9a9 3c41910a 3b812da6 bca4d529 bd0731d6 3c65c3bd bcd436d5 bc0b2de2 39b6212c bccacc8c 3c7c86e6 bce41c0b 3bd07c75 3a55f9c0 3c19693e bd207eba bb706c03 3c519d88 bccd355e 3bb95ab6 bb75b791 3cd1cae4 bc42a043 bb97bdeb bca565f0 bc5e81cb 3ba6b568 bd1ebe8e 3cb13f69 3ca5ebd7 3c22214b 3cae19c3 bc81a038 3b484b0c bb2bdb17 bce2c226 bc896809 bc8dda43 bc46ece9 bcfcde24 bcb1a850 bab9c5fa bbc40eb5 bd1313b0 3b8a49aa 3ca8266a 3d0dd71e 3d10cadf bcb76260 bc19853f bc8a2522 3b40b533 3b73dbbe 3b121248 3c7e86f4 3c5dd993 bcc29fba 3c9c949c 3c990552 b9bef2ad bd0f5e36 bcdf61c2 3b9eebba 3c037e8b 3ce48a7a 3c37c1b7 3bfb7236 bba01416 3cb1b6c2 bc4bd295 3c5e6639 bc85d7ad bb9a44fc 3cce5e1d 3cf25b10 3c1b085e 3ca05800 bba0187c 3cb88658 3cce238a 3c2192c8 bd1cfd45 bcef8f01 3c97ad3a bc23374d 3c87c7ae 3caa7bd2 bc7acd58 bccf6635 bd2e4ef0 baba63ea 3ba83e02 bc9a7834 bd1e770d bccecec0 ba53f8b6 3cb5ec31 bc2314b7 bcacafa0 bcb69849 3d07cd4c 3b346516 bd0bff76 bc60f5bd bc7592f9 3d11dfaf 3c3ea8a8 3cabff53 3b834a2b bcfa5971 bd121969 bd018030 bca0b83a 3a04a9b2 bcb04a5c bbf4a497 bc581205 3c823fae bd032aab 3cbef1b4 bcdb64ca bca2631b 3ccfe19f bc15af47 3cf8c684 bc919b1b 3d23682b 3c07f381 bcd35612 bc551009 3c8f2ac8 3c76c537 bcb3c20a 3c9e28dc 3ac3f9e9 3d77ce9e 3c5e7a1b 3b71b3bd bcc39205 bcbe5a0d b9cfccd4 3cc45b0d bcb76091 bbbc0416 3ca86ff3 3ce084ed bc5a7911 3d0236d8 3cc62e2e 3cf316c9 3afa9387 bb46f06d 3d3890b3 3d0ad65c bc08d7d5 bde6cf99 bda81996 bdcefcc2 bc92efeb 3d0650e8 3bdf5448 3c100c3f 3d7c8a01 3d2ef142 3c297712 bc64d1c1 3c7691ea 3cb691e9 bb6703d7 bd1f4a88 bd223127 bc95eef8 3b412c48 bcb1dd2c 3b2c1fa2 bc348e3b 3d14038a ba95ceb9 3cf36acb 3d10ff0b 3d061b28 3cc89138 bd22906d bd8f7cb7 bde9950d bcb87be0 39b74775 3ccf4db1 bc940311 3cb25737 3d4f21f6 3d9b3bf6 3d00feb3 3ce376da bbbac6e2 3ba235b7 bcd1b47e bd060302 bd08fc15 bcf6bc4c bcccf57b 3b6e78b4 bc9ddbd6 bcf158de bc5c53c2 3c0cbd59 3cd0fbae 3c905a92 3da41580 3c0d24bc bd0bd5d8 bd899847 bd60dcd4 3cf13c07 bc53afb2 bc87bf1c 3cba96d0 3d4530be 3d4f8576 3d387468 3d095984 3d0f5a68 3cb6ed03 bbb2f027 3c6a72a6 3cc31d33 bcc246fe bc7f12ab bd1311fc bb06480c 3b00ee5e bd063a41 bc4e84ea badfdbf4 bcfb5ee1 3db5a626 3dc26a82 3c3af399 bd7ec107 bdff5cf1 bd526f3f 3c8b78a2 3bdc41ae 3d03ec6f 3c82432f 3d19585b 3d28bfb0 3d5f31cf 3d3afb5e 3d6d2e6f bcb4e5b9 3bd16b40 3c8d091e bcd9b97c bd1d1890 3b58451a bc754844 bcf648a8 bcac7a05 bd5bed35 3b1dc0bf bc8c175b 3c2f3d25 3ddd6828 3de4d5ff 3d7547e6 bd799b13 bd036dc9 bd63deac 3d6146bd 3d06f623 3d036d64 3d1b4b1a bbf7886e bc26870f bc99f8f0 3d6d37e5 3d320c49 bc6a3dda bcb7508a 3a73d3be 3c6da94b 3abe5df5 bc84098c bd0bf01e 3c9d2c14 bcc5d716 bd531bca bd5ffc3e 3bdf6f77 3d27dee9 3d67b599 3d1d0ae7 bc00eb80 bdaf77f4 bdb5411c bd176731 3d594326 3cbae7a6 bc53d7b6 bd5eb129 bd09a6c5 bd002c85 bcb4c389 3abd66d3 3c3b6964 bd021ac7 bc03ddb6 bc7611ad bcb9d640 bc5e61e2 bca5236e bca5a114 bcedf06e 3c9faf12 3d065036 3c1d001c bbfecce1 3cf2a1b7 3be0af76 3da65450 bb42f96b bdb4e9c0 bd7bc0e3 bcd6a4d0 3cebea5f 3c934689 3ad4179f bcb65b49 bc7154e5 bcd23624 bcd1d9b5 bd02147c 3bb0521c bcd67f5a bc5abda9 3c45da24 bc5e07e7 bc61aee5 bced7495 bd35b624 3cc8af02 3c29f755 3d117402 3c4b5220 3d17e6eb 3b44b8c2 3d182a16 3c45f96e bd22cb1c bd5b4ba3 bae4bcf7 bd3269a5 3bf11c17 3d2fbd1a bbd36713 3c6efa14 3b0edde9 bced8342 bb54647c bc2942aa bb9265eb bc62de3d 3ca6dee5 ba40f9e1 bcddec86 bc8e0504 bd10e8cc bc7421b2 3d233310 3c2ec147 bc6f3585 3c109581 3d85497b 3c7ac7d1 3c1eb0f8 bc2b6efa bc03e36a bd1d74c1 bd1385f8 bd7de291 3c5ea04f bb845fbd bb168e6f bbdf6831 3b992104 3cd5f7bd 3c70c6a9 3bddb337 bca89fea bd22166d bc587578 3ce90d92 bcf3a5b1 bcce7c7b bd164fe4 bb88e473 bd0fb04a bc8e9d56 3d9b6aa0 3d893a3b 3d833945 3d603769 3c8b21ec bb1f093b bda36d75 bd343d5f bd18066b bd8d013f 3c8c8a5f bc5c8f92 bd2a3671 3d09f8bf bc6cbe99 3d2d05db 3d058c74 bd0ca272 3c7532d5 bc9d07c5 bca9f540 bd0433be bd0d9cc1 3b4a52fb bd16532d 3b94a21b bc8c51e0 3c3fdc62 3ca06b5d 3d8ae486 3cc45b41 3d1ab8cb 3cb9eddc bc150051 3a40de9c bcf11d66 bd07d77b bdb916ba bd3a2d08 bc4efebc 3d6f12d7 3d6f0a5f 3d2274f5 3d2b065c 3d1307f4 bd0cceb1 bcb45fb4 bcad4b42 bce9fce9 3ba506c0 bc822236 bcabb9dd bba15e0f bce3fbf9 3d19bf23 3d0fd42d 3d6b427e 3d010892 3d446426 3cc0539f 3b9f5ee2 3d266a7f bc4a5209 3b8b7447 bd552b55 bdb6f823 bc99c9c0 3d42d78f 3d0ba5b3 3d8261b9 3d190acb 3cbb7031 3bb6d084 bcb5fe11 bcd8c760 bcff2098 bcee986f bc1e17c2 bc36710c bcd50d35 3c8e6831 3cdac3df bcada167 3d0e5a38 3c1771bf 3c9db158 3d62b2ca 3c9fc550 ba08b980 3da81aaa 3cdd6d42 bba5207e bd3b78fa bc6992ae bcf94cb8 3d03d0ab 3d22eb76 3cb2cf9b 3ce1d75a bc8ebace 3d0c4918 bcf6b752 3ba18ba9 3947e5fa 3c761c62 bcf2c6cb bbc589ab 3c6fdb19 ba2e3451 bb14140f 3caed85a bb0a24e6 3bfcb8dc 3d23e9c0 3d2fc463 3d593737 3ce2a5ee 3d2b81c7 bb9ada2a 3c2f114a bd1fbc3e bcea955e bc63456b 3c4f08ed 3cad8926 3cfe1790 3c7b036c bbf568ec bd178685 bba50503 bcb3b71f bd1b0b6e 3cdfb30e bc0e33bb bcb5f123 bd1e5461 bd2b783f 3b0986cc bd0196e1 bcb6fb0a bc98cd94 3d6dc56a 3d3584e6 3d81f45d 3d7f26c4 3cf4285d 3d933911 3bb3d60f 3d34a370 3b49c5ec bd118f0b 3c1f6dee 3d0334b6 3bf3504d 3d000bea bcd58c63 bcbe5ecb 3c7baa01 3cd377b3 3c3b9e62 bcd3de1c bd0fd01f bd0931d0 bc82844d 3c0c90fa bbe3627f bd177c38 3a19fa4b 3b8438b3 bc286029 3c0f48fe 3c9dfc3e 3d66e7b1 3d226ca1 3d6e55d4 3d688b45 3cfe194e 3cd743b2 3c3c1660 3c840b9c 3d0a89f7 3c844251 bc57adc7 3c778f22 bd08e951 3bb4a036 bccfde51 3ca72ed5 3c155b92 bc5dac58 3c7731a7 bc8e3833 bab1e625 bbfb8ca4 bcc2069d bcf0afcc bceb9cd4 bd17356c 3bb8849d 3c097e3d 3d28e20d 3d74bcf9 3d195d2c 3cf0ebcb 3d6c3e80 3d9e6733 bc81e937 bc966328 3c84f500 bd15c119 bd0e5e54 3c7cfb35 bb9931d5 bd170982 bc14b273 bba4aa7d bc8e7f30 bd0c4ed4 3c6759de bc1808c4 3ceeb3c2 bd0eb099 bd0af167 bc9d71b4 bd2a455d 3cbdd5ef 3ceef5ae 3d4a08f0 3a59da41 3d81df3c 3d98ce74 3d4bbbab 3d972f5f 3d92cbd2 3cc73156 bd27cd78 3d0eaf2f bcbf4922 bbb54aca bd2c165a bd1bcf58 bd088d15 3c92a96f bcb425da 3c7ccb5f 3bb91f14 3c135bd3 bc50b741 bc7abaf7 bcc8d7df bd04b79b 3c821d7c bc88fa4d bcde6cd3 bc9bc5cb 3c8b43b3 bcb22351 3d117016 3dac1f23 3d38dcef 3d877cf1 3d09abea bca4ce72 bd0eacaf bb1ff01f bd73f04c bc3ff1d4 bc2fdfca 3c11f8c2 bd04dbc9 3cce1c1a bd23505a bd013150 3c83a030 bb75f5ab bcc9da99 bc41c355 bd1d4340 bd397693 bcd98106 3b4dc627 bcb3b69b bc9832de bcc72bf7 3c4ee730 bc9b8c12 3bf41b35 bcab9eee 3c35f196 3ccfd21c 3ccfbb8a 3c3ae559 bc8fe569 bc791b3c bccf92b1 3ca29465 3c06783a 3cc124cc bc2b4249 bd097d67 3b01a1d5 3c18838d 3cbf6f0c 3c0d8779 3c02dfca 3cb578fe bcb4f194 3c8473a4 3a553d4e 3b2da3a9 bb2c79a8 bd7a01bd bc0ac0eb 3bdc3c96 bd75772c bd6a4ddb bd69d5b9 bd1211d3 bc804a3f 3a632c1f bcb13659 bd3e239a 3bed4673 3c53f3a0 bc3d5fec 3ccc4a7d 3cb4c6e4 bc4f8d48 bb6b5349 3aa10708 bc4184ba bc5e749d bcaa0e15 bccbb337 3c4dc4b4 bc815518 bcc73c48 3cc10c92 37ff8b2f 3c9360ba 3cc9d530 bc4fd150 ba967eb3 3cb694fb bd09f290 bc9135cc baa25487 bc2d37a0 3b1101db 3c4ccca6 bcaace78 bb43b740 3cdac83a bccae4d3 bceb287e bd024b2c 3c831299 bd2108c3 bcc66ef5 3c87022e bce6ed70 3cae9b5e bcc10b55 bad6e675 bb2a2421 bc03c326 3c6fe396 3cb8fa3e bcee1519 3c4d842c 3b1b6b5f bbffadec bd01b75b 3b5276b9 3c957ea0 bd18ac32 bd21f4d5 bd2a859e 3a6f7a64 bc8d518d bc9405c1 3cd06ed0 bc841059 bcf12301 bb8416bc bcd865d4 bc8ef21b 3c39936c 3a6d05af bcffb293 3cd67ccf 3c893198 bcfa9a16 3c0d1cd5 3bf3e07f bd032915 bd001fa5 bd0fcc8f 3c1532ca ba2df139 3c163312 bca4c750 3ca04d5a bb7c4a7f bd1283b2 bc846ba5 3c2dab4a 3a22245e bc4caca3 bd01a476 bced6d11 3cbcc5ab bcdf4a87 3c90971d bc9aeb7b bbdfe106 bd2925c0 bc982e42 3cb7314a bd1dc88e 3c34c437 bd1041af 3acd38c8 bd0bed05 bcfbaf37 bcf3cf26 bc38e8f3 3bd9efe8 bcc35e3c 3c2df071 3c9a1332 3cb5578e 3cac3ba6 3c690ac9 bca03e9a bc45a67e 3cbf3ed5 3c30dccb bc832fb6 3c9de7d9 bd1adcf9 3cbadcdf 3c4b8939 bd06a544 bd12423a 3ca53c80 3ce006d8 bb6fe33f bc9832b3 3ca49a05 3ccc7056 3bcb4863 3d1bf947 3d01f36e 3cdae6d0 3d00347b bc9ec83a bb97e06c 3b7c8f1f 3be7bbdd bc855739 bbe4b598 bb5b3520 bd2b4ccd 3baab9c7 bc0ffe69 bcff34ab bbcbd203 bc816c51 bcd34827 bd202c32 3cb5c809 bcea4138 bb582d78 3cb3ca27 bbd47f47 bca4b87e bcb317c9 3ced43d8 3c268af5 3cd10161 3d325a07 3cd35620 3d9af0f3 3cf25079 3cbf1cec 3bd57db2 3cb8ace4 bc9cb0a4 3b5b4098 bccd720f 3bb0928f bd0fb209 bcee6774 bc3ae518 bcdce976 3bd0944a bca400dc 3bebb46d 3c588dea 3c572efa bc745faf 3b720527 bd0489e6 bd377bdb bc90f066 bd2a818d bcefad06 3cacfa23 3d3a7db0 3a414b8f 3c3cfa67 bc9f40e9 3cf87763 3d4a4947 3cf50353 3d915348 3bb196df 3c5a0f61 bce536cf 3b9bb21e 3c636157 3cec6711 3ccfd418 3bd50497 bd0b579c bcfd651a 3a0403be bd22349c 3c10d820 bc4af124 bc827654 bd48221b 3ba3a6be bca2ee84 bc8a231c 3c8551e8 3b51b4ef bc46c3cf 3a99496c bc7b5873 3ccd8463 3cd84aeb 3ccc55e6 3d33c8fd bca7375c bce2e21b bd64c74c bd3c465c bd5a3067 3c9a355e 3c278cb1 3c5f789a bcba480b 3c9fd495 bc662e7d bcb0746f 3c44637f 3c31b43d bd2e5f47 3cc756d2 3c0f3145 bb6ece51 bd1f4786 3bac5d19 bc343af6 3bb125b6 3c39fa5f 3cca88ac bc93861e bd38aeb5 3ce0adf3 3c1c5729 bd238399 3c8662b6 3bb0de50 bd06c0bb bcabc085 bc57e787 3be438d1 bd022c3b bcb61495 3c97248f bd0386c7 3b888342 3cc1b68e bd2afdf0 bc4d817d 3d17345c bc1c6401 bbd83e5e 3c6a4593 3cb880d3 bb769970 3d37f84c 3d5b4019 bc49473c bcc4081f 3d1a8391 3ac1de78 3cdde62b 3ce8f2f6 3c58521f bcc0fb3d bd02d959 bd00bd99 bcbc538a bc4a2d3b bcf976d6 3c94a465 3c25990d bb265cb3 bb9b4aee bc6e8d0a 3cb6fadc 3ca69356 3be98f0d bd23520b bad1341a bc487919 392dbc76 bd4342de bc455ce7 3c9dff58 bc271933 3d25ad27 bbe1aa37 3d35331c 3d2e8d9f 3b00ac96 3d14b4f3 bcc3a50d bca6e534 bd0845db bb52f84b bb16d219 bd2d9e4c 3cd991a9 bc012b52 bcf4d814 bc46ad14 bccf6e96 3c832eae 3d0e3d41 bc4adc41 bc10196e 3a319ee5 bca2ae04 bcd3d487 bce2bd3d bd5c8499 3d00c5c3 3b5d75cf bccd49ec 3c631493 3d80ce2b 3d52b071 bb642cf7 3d26d330 bc9545a1 3b673a87 3c53ff48 3c6f1dfc 3cd51562 3cb5327c bcd91f3d b91a532e bd107348 bc3bc31d 3cdd74a7 3d02dd6b bc934722 bcb70af2 bd25d0f3 bb0cac04 bd4dc8dd bda07760 bd83f503 b946bab8 3d47007b 3d0bbb8f bbe39936 bb9f98f5 3ae52269 3d6da58c 3d15f371 3d5a2cab 3cf568c2 39e8f7b7 bc5b019f bceb01fd bc8a90c1 bb27ef8e 3cd3015b bc3e1757 3b0b6a74 3bf3e4d3 bcdb0460 bcb2cc92 3c02c00a bb5a3f76 bd3dacc0 bbdbf5b7 bdbdd42b bd8d93d1 bd0465a5 3c1d65b0 3c876d8a bcabadfc bd4819e1 3ca6965e bd6b8278 3cb56fac ba821a6c ba1b9ca6 3d14a9cf 3bde9dd0 bc0ebf57 3c1f6494 bd026d5b bbc2b2b4 3c1b495b bc755dff 3bfe1fd0 bb144e07 bd2205d2 bc09ab8c bbfa3928 bd0cf45c 3bb973ef ba2ddf9a bd787369 bd06a55d bcca57b1 3dac0615 3d14d1ac bce001da bd41d88f bd822f5c bd030ae2 3c577b7a 3cbd1bcb bc28c1ea 3c40c7e4 bc20855b 3cf2b08e bcdb0095 3b7b3bd7 3c991ea4 bd0cdcf3 bc0d044c 3bd861d8 3b96cd0a bbe1a120 bc5708b5 bd0e8513 3c89623f bc82a2e2 bc0da348 bcdef965 3b0add6a 3d2f649e 3dc9b0fb 3d72bf61 bd8f6077 bd1893f3 bd691875 384c8f2f bc705bca bd50ffba bc8ab836 3a924a39 bbbebb0b bd006314 3d0195ce bbc324db bd16ab36 b953fb2f 3c0ced4c 3c429549 bcfa1f0f bce2f896 bd0d9547 3c4ec34a bd2fbca1 bba019c6 bd066587 bc6435d9 3cc1d57f 3c78a823 3d912b6b 3d8cdf30 bcf21733 bc309ffa bd180d94 bd7b5b7d bd48cb36 bd59c269 bd94a44d bcb75716 bcee9d67 3d04d819 3c02cdac bbc788fb 3b304dd4 bc90473e bc9e72f0 bd2d0762 3cdb30c9 3d0f6b40 bd2322ec bc89bf5c bd45e968 bd3672b9 3cbec9eb 3d44212b 3d31f444 3d3425e8 3d3e77c8 3d45d9ca bd48bc7f 3ca61ff4 bce9ea3d bcdac441 bd39a0b2 bd62cb1a bd9d7dbf bcfd4b31 badbc951 bb2ca4de 3d0c440b 3d0c95b6 bc3d5ba8 bcd3b89a bd1ceccc bd06c7aa bc779918 bc974992 bca1fc9a 3ca68199 3b1f6b13 3d0e30ce 3d52754d 3cc75013 3cbbf7eb 3d0730b9 bac900d8 3ce97438 bcac9a66 bcd552ce bcea0515 bd241340 b9c6f9a7 3a7e914d 395e35db bd001e95 bcddfbca bc0bbcbe bbfd7708 bc3798c0 bd1aa454 3c3b7ac6 bd248b5f bcf26d57 3ce86f2d bc6be947 3c8ca5ce 3d40b13d 3d54d49c 3cb7206b 3c297965 3d37f28c bc342e1c b8bd482d 3c50cc10 3cce622c 3cf93e29 3c7e881b 3c7ba21c 3c778f40 39769eac 3c323a0c ba3c5a69 bcd59c58 3d041b06 3c475c44 bbe582c3 3bff6b21 3aa3e35a baa3bf06 bcc7b70d 3c081f54 3d0805c5 3c9c437a 3ccaaf1e bc3fea59 3d41946f 3cff12fc 3d3759cf 3d5b3336 bb966972 3c41c357 3da79910 3d3a70a4 3bdf629d 3d6d0712 3d82d43a 3d3e53a6 baa05f6c 3ce7bcd3 3ca95128 3d999f7b 3c8a4c9a 3cdd325f 3baf332a ba028597 3c8d9762 bbd6a27e bd129586 bcd97ed4 bbfd06cd 3cdd2179 3d0ab083 3cc88761 3ceabd33 3d36f546 bb99c756 3d7a935f 3d00aaa0 3d58fde2 3d56e50e 3cc313eb 3d4f6845 3bec0384 3d6fa5ba 3d9d0a24 3d28d130 3d8f4f13 3d5bd033 3da2f17f 3d68c219 3d185cca bd0550e9 3ceb20df 3bc05a74 3c217254 3a34df2f 3c9b69e7 3d2c41da 3c98e27f bbbc91c4 3da130c1 3d249d89 3b492b56 3d4d3c1f 3d424c2e 3d1ba3cd 3c568624 3d1ae521 3d8ad7bb 3d0a6699 3d071710 3d9914bf 3ca31a60 3d707f73 3c33d377 3d5adf38 3c055914 baa8d8c8 bcf16214 3c88566d bb70f50c bbe8bce1 bad2f6b3 bca77916 bc828359 bcaf1688 3b8aa21f 3ae7c45a 3d037c37 3d717198 bb81769b 3d4eecce 3b211253 3cb27b14 3c97ca91 3d0be661 3d077d33 bc9d1139 bbfcbc78 3c074e6c 3cc9f86c 3ba526e2 3c5dcc79 3c9fe295 3d042912 bb9a5e22 bca1c197 3c91724b 3cc6d6ba bc94c5f7 bd189d83 bca8bce2 3bff1385 3baa4872 bc863e31 bd28ab37 bcfc13aa bcab355d 3d21f1fe 3981ab18 3caa1159 3bda2a66 3c7756e0 bb83c205 3cc4fab8 bc2ef295 3d26d9dd bb98a4b1 bb86de1a 39ade421 3c9a2e52 3c71122a 3ca9b1f0 3d2fa730 bd13683c 3c1af253 3cb18e1f bbe3f67f bcede059 bbc6a7ae 3aacd089 3bccfffb bcde981a bd3aa6f6 bd552d1a bd9121ce bc06b58f bd30f1a6 bd203f50 bc1a5a33 3d233b5b 3d00b8ce bd13ea36 3cbfc963 3d00aed0 3cb30865 3cadac58 3d2a6a04 3cd25189 bccc1f1c bc894924 3ae4bbe5 bcd8be45 bc856556 3caf1c3e 3c159cc2 3cbf23f1 bbe28cea bccc7c77 3c771084 bc5c4be2 bc1fc5f1 bcb38da3 3bdeb28b bd27bbb4 3c07f539 3ca12c70 bc06f95d 3c83ad22 3cb8b353 bc786db8 bd09b8ea 3b39e08a 3cca52d0 bc0eb580 b976e246 3cb8d0ab 3b977d8e 3c8d97c4 ba0b6fb0 bb3c301c bc7aee89 bc5135c1 bcd3674a 3c850a22 3ccafd42 3bbec00f bbcb993e bc8ea7ca bd123360 bbe31d91 bcf3258b bd06ff29 bc5f1e3f bbf40249 3c4b801a bcb9c316 3ca3cd1c bd0eb748 bd075c46 bcb361fa bb86fdc8 3b97e11a bcbcee3e bb253bd4 bc76ef0b bcc1f646 bc415e95 b8b4ec7f bd28e205 bd0143fb 3ca567aa 3c0de90b bc0507d4 bbc71e6f bb19c2fe 3a7a7cc4 bcfee88e bc886ce2 bd1e6ebb bd0c6ae5 bc651145 bc5462f3 3cade21a 3a0b0399 bc6ccf4d bc080c35 3c676d4b bc96e337 bc8677de bc89b916 bd11621a bc476b25 bd286094 bced8d9a bcf6136f 3c9b0202 bd219c3a 3cd9c4db 3bc32719 bca2cf97 3d06770f bb8047fd bcd3f573 ba8adcce 3cad10b9 bcf7da0a 3a9ac734 3c93f801 bc2160b3 3be55249 bc22a36c bca093da 3d00d4aa bcacac9a 3b5e8b9a 3c7d91a6 bc813788 3ca9cc7d bccf32b7 3d18acd7 3c9f0921 ba974528 bccf98a7 3ba02649 3c84f92f bc7962e4 ba1ee46f bcfecdd4 bcffb4e9 35a2ad15 3d07aa01 3b0d73dd 3c727b33 bc1dc060 bbd3e17e 3a737b13 bc58f06f 3cd98ea8 3cdee7f2 bcad70d2 3c81ea9d bc0a4f78 bc54c2f1 ba148cf8 bbd6a9dd bc70604a 3c253c56 3cc92ddc ba67a7d6 3aecf45d 3bd5ddd4 bc385f20 3cb72a23 3d13fc02 3a1e61ed 3bcaccde 3d032dcf 3d0519d8 bcb668b1 bc4b24a0 bcf9ebd5 3cd62289 3d090249 bbc1159f 3ca4b469 3ca328f7 bc988d5c 3cd36437 3ce8f623 3c3e3832 3c86ea15 3c9813c9 3d0b8682 3d266a3e 3c7a5629 3cc68087 383787cf 3ce92e37 bc0dc193 bccd2fd6 3ca44b48 3c89a3d2 3c3cbe98 3c9952ae 3c02ad3c 3c8171bd 3c946400 bc7545ad 3af05ae8 3c38d456 bb03c24b bcebd6cd 3c6f91ac 3cf2700e bcda48b6 3c8b2d8b bc0b99af bbc47d8c bcf7c9e5 bd2a3bbc bce4b3f0 bc376df5 bc8169de 3d05f8f3 bc5af476 bc452264 bb02099a 3d18a1cf bc6f1859 3d124f30 3ca924f3 bac6e4e6 3cb39e7b 3ca9a637 bc6c1e89 bb87ce6e 3d1d894f 3ca34a0f bccf2f91 bc97ca7b 3c95b0b0 3c004a38 bd042fae bd4b6fff bd501f49 bd10b37d bcfb7a6f bd01e8a4 bd514a2b bd1d4d28 3cc57db9 bce4c65e bc9e5971 3cdec4a6 3d1cfd61 bd133e17 bd074c2d bbf9cc5e 3d1f2db1 bc83bb27 3bdeea33 3d04cd8a bc2a07b0 bc286cad bcd7cce3 bbef4a82 3cab80c3 3cbbcafe 3cdb19de bce65f32 bd4c72c7 bd0eefb0 bc0ed706 bb0a5260 bd094c09 bc972cc5 3ac30467 3bebc481 bd195cf3 bd80efe2 bcee9127 bcfb5f7f 3c8f5b4b 3d00a67b 3c39ca72 3c7d344c 3cdc5b22 3ce374e2 3cca9ae1 3cb0b8aa 3c05a456 3c1d5209 bd022a77 bd05e478 ba8d78da bac7717c bd4c0fc0 bd82f2ad bd9caf91 ba8beb27 bcb44871 bcfe65ce 3c371a3f bd07a283 3bbae343 bd82c67f bd682092 bd8ec5ef bc4094cb bca3f7b9 3cfb51eb 3c6e5850 bc6b289e bbd7501b bc204ebd 3c9dd7a9 bc276079 3c76c324 ba64304c bd2095ad bd111e31 bd1eb0b0 3c80f811 bcf8a63e bcdc0b36 bd13e584 bdb0efce bd8bb094 bd672976 bccc7f91 bd273f06 bdaa0ba9 bd982078 bcee4f79 bd064594 bc6e83e9 bd7ef95f 3cc56a72 3c9d0ecf 3cafb73f bb8e0522 3cb0c0e2 bcefc55c 3c80ed1a 3d022e5f 3ca55e77 bcf21c72 bc0cdf57 3b68cea7 3d40df3e 3c974505 ba35da3e bc9678be bd156c95 bd3d5914 bd18f764 bc714ebf 3d201543 bb3c04be bdeff6c4 bd5721b8 bcfca14c bd940d52 bd375f97 bd456cc1 3b61f06a 3c0ba42a 3ae23b8d 3cfd790d bc23a73f bc7bf102 bcacb67c bc610493 3d26b249 bc1ef99d bb95f1af 3d07c827 3b83716f 3a88c913 3cdfd1c3 bc2085c8 bd2aa47b bd0bbf8f bd148a94 bc41fcb6 3d51ee1c bc9cd0f7 bd4bbcac be040435 bcf9d7f5 bd731056 bd2bc478 3d166a77 bd0798b9 3c527106 3cef1dda 3d067fee bccb3931 3c27c292 3d1dbddf bcf7ab14 3c74e93b bccd2150 3c0dde6f bc9059ef 3d617346 3c942114 3d25052f 3d0bf97a 3c9c9015 bca32d21 bd2a984f 3d300cb4 3dfe2df6 3d9f0311 bcc255c9 bdd9cb1c bd47c3b1 bca1957e bccc88f8 3cd4d804 3b694dd2 bcc5be88 3ba0b578 3cebc266 3c45b8ce 3d07dba8 3b636b12 bbfcfbab 3d0b1400 bc85d0a6 bcf2d206 3ca03684 3d406278 3c94899a 3d487690 3cf31b5a 3c974c99 bc80105e 3d334722 3ded1e6d 3e51f1e9 3de7885f bbe3452e bdaecca1 bd2df8af 399446b3 3c53a6fb 3d4a2fb9 3c47db28 3c45814a 3c4f6665 bccf78f6 bc7f8aa9 3d120018 bc7117a5 bbf45a37 3cff2ad4 3ca5b5be 3d00d4cc bce039b9 3caf6d22 3ce1d96c 3c8930b4 3c2d0841 bd73c02c 3c262f4d 3d5732da 3dd783c7 3e3e7053 3e07ca06 bcc9b982 bd064195 3cda695a 3d857583 3d9fa7db 3da50eea 3d757eb8 3d028850 3cc34df8 bc10bc28 3c9d36d9 3bb27c9b 3c45d9ba bc9873ad bbfa218e 3d16fc2a 3c16b3f3 3cc14875 bcbeffd1 bc537019 3b978580 3b20edef 3b4c7e82 bc85f712 3d83d4a6 3ddc71e6 3e1ef281 3d85b22e bd371d0b bdc1aa9f bc471bbe 3ccb4e06 3d811558 3d45bd39 3d3c60b1 3d21fce1 3d510358 3d2e2ea5 3c9597e2 3d036a41 3b083eb8 bc144fba 3c38795a 3ce603ad bc122c08 bcc13d18 3c45d965 bcce20b8 bce23d64 bc1d5471 bd1bafb2 bcf85798 3ca5c8d2 3e0812c1 3e1e59e7 3b9c8f35 bd8845ae bd514eef 3b9bc75a b89ea4e1 3c813f67 3cc9cfdc 3d46e84e 3d1ad37c bb9499b1 bcd5a919 3cb58d7d 3d131ea4 bbddda85 bce21a3d 3c65d3ab bca08c36 bd115402 bca9c69c bca8c3b1 bd04613e bb93a45a bd3b1bef bc9ec0cc 3ca31f16 3db8797e 3decd712 3e1b405c 39eb64f8 bde2a4d0 bcd4d17c 3ce22b98 bba1f491 3a566a80 bd182c1b 3cc4e5b8 bc7e3806 3d09cdfa 3ca9f9e7 3baded86 bceda591 3d1218e5 3cd5cfa9 3d123ced 3c89f7c0 3abe0fea bd1cb0d4 bd3a6149 bd09260c bc9efb76 bc344a86 3c1edf3c 3d9a48f4 3d500ec0 3d8e4257 3d4b821e bc44e909 bd011da2 bd4f62f9 bbf9c161 bcc0fee6 3ab01200 bad58a0a bc96a3d5 bcfcfb96 3a9e04bd bc2c1f30 bc9e939e 3cbc9d91 ba6c3008 3ca6ccc1 3cfa8514 3acb18c5 3c0dc0c0 bd2d4201 bc85fc84 bd814a91 bd109705 3d1c59e8 3d529f3c 3e12d339 3e050afd 3d46b7ff 3d249b26 bdaa0e62 bd0e636a bc66ae9f bc11b074 3bea2fd4 3c0d6b11 3ccebb80 3ca27d68 3bf2015f 3d2952b3 3cb5659f 3d1ba298 b9be0fba 3c4c5486 bb01c2c6 3b1fbc72 bc7c7cfa bceec25b bc4fa143 bd01ae56 bd91fcd0 bd8c8491 3d6e8521 3d218ced 3dabada8 3d437efa 3d95ee33 3c1b538f bd9bd013 bd8602f6 bd140afe bbcad979 bcfcb12c bbca86c3 bd2368c3 bd126724 bd168e6c 3cb8f205 bc8e9d5e 3b09e397 3d07c5ae bc7e91d2 3cfec87e 3cace6c6 bca26ff1 bc847990 bd9d6f1e bd1a3c7b bca2840e 3c571435 3c9a4718 3d42a8b1 3d4eae80 3baeada7 3cbcb88b bd851c14 bd1beb52 bc8b9197 bc71fef9 bd12b3d1 bd85dafe bcc388fb bd6661cf bd960808 bc537704 3c727ff1 bcad3c0a 3cfeb1f6 3ceaecac bbdc339a 3c11dc7f 3bc87a8b bc80b637 bd62e109 bcaea5e2 bc915ac6 bd3f8032 bd2ef512 3d27ed65 3d8beb46 3d0e3ae3 3d4d9e88 bc9e8f87 bc0f6e18 3d1af704 bbde6284 3bb936fb bda94cff bd85cb6a bcaddabd bd4ec335 bcdce3d0 bd0c781f 3ac49221 bc0dbc0d 3cf70f18 3ac59d35 3b8e719f 3cf13685 3d10c6c1 3ce1967f bd509150 bd1b5bd6 bcb70e76 bc8dc5ce 3c0e2f85 3d0201ee bc17997e bc8ac2a8 bacd3467 3c2ca842 3c501891 bd1b8af3 bd64ebdc bcd10c56 bd616711 bd553094 bd8090b1 bcc66a5f bd1cb113 bcfc5e02 3b437e26 3d0afd1c 3d05a5fb 3cc2d8be bcb94acb 3cc30249 3ca3d1fb 3c20766d bc8e2cfa ba5aa83d bcc0cdcc bc43dc8b bca96d93 bbedf748 bd462380 bc495b0a bd17b8a1 bd06e47b 3cb6de89 bd15ed65 3d2c2fbf 3c9a23c5 bcf62344 3b5eab89 bd006b3a bb96d4cd bc6f726d bcf6a12f 3bdc9e39 bb03dd76 bbdd1b70 3b718706 bcf700f3 bcab0537 3c044f36 3ce8a621 bce639aa 3c8a0998 3b3a5ac9 bd1767d0 bcfb94e9 3b76dccf bb1eee31 3d5f80e5 3d7adb9a 3c00f1c5 3d5a4fa8 bb0ced43 3d3d6f79 3d2016dd 3ce93a5c 3c0be80c bcdbc998 3bfe26b1 bb894c27 3c6e0d59 bd10b9b8 bb637fe1 3d0c4eb2 3cb60044 3d06d59c 3d003fb1 bb9ff2c7 bce353e5 bce8ccc3 3b199a27 bd0b24e7 bd15f6fa bd266fc7 bb88e4ac 3c0ed821 3d1a884a 3c9b08a4 3cad5919 bc1c8dc3 bcb7dda7 bcca8558 bd45a3d4 3d53daf6 3c9e4f6e 3bf1f102 bc4c9fb7 bb762364 bca84f53 babca2cc bce03364 bc52ec71 3cfc1479 bcee0861 3c1cd97a 3c19b629 bcedceb5 3c4f94b2 3c3b1332 3bfa91c2 bc9f2ec8 bc538924 bcedfe07 3bd00cf2 bbae9bce bd78a592 bd504f49 bd89eb2b bc8deab4 bd110968 bd0ff221 bb76ca22 bb8368a8 bd25067a bb160b23 3c9e1495 3bf3201c 38b7f73d 3cd83ead 3c9cab4d bce002f7 3cc8236c bcc33eb6 3cc06c70 3d084347 3ba078e3 bc550737 bcb4f8ae bc8dcb90 bc15d9c2 bc988101 3cc4aad5 bcfc3f48 bb7635ef bd547d0e bbdf8fc3 3c5599aa bd23c2f2 bcb94ddf 386bd0e8 bd14e460 bccffff8 3c43ea27 3d14b278 bbe0e9da 3b62543e bcf5e024 bcf44cf2 3d0c74b8 3d096366 bbe13165 bc24a48b 3ac9a50e 3ca46940 bcf609d1 bc82ad3c bc20ebf0 bc58b5ae 3b30efdb 3ce93457 3c1ae54f bcfe43e3 3d111214 3cf157aa 3c521a46 3ca0b564 3c855e81 3cfbee0a bcf3277c bc9070d5 3aaaefa0 ba911191 bc9dff55 bcf40f09 bcbc0937 bad65e48 3d096d5a 3ca28680 3bdbb85b bccc2338 bc8f502b b7a04e9e bd12e5e1 bba3a71a 3b748181 3ce7af15 bc4e5577 3cfdd415 ba44e8c3 bce33574 3cf2ecc8 3cdd0b47 bcfe967f bcc25176 3c5ae665 bccc75a5 3ca76493 bca4c25e bc69cc66 bc5c6a93 3cf60048 bc79c272 bc27412f 3c91e20e bce03401 bb698a3c bcf98c07 bd1257b1 bc3ab2df 39fb03d9 3cd8f25c bd17de22 bc5fccb8 3bb5d622 3c1edfa4 3c8a7d17 bd020430 bc49e520 3b8e6c68 bd06e14f 3c4b6b80 bd1947e5 3c95450c 3bfff17f bc5dcb3d 3bff2a15 3cd6b90a 3cb72a72 3c92402b bcc2e6e7 3bdab4ee 3cbb9510 3b368b10 3ca242e5 bccdd9bf 3caded6d bb955564 bd0ec896 bc4c8345 3ce11530 bc83d4cb bc280b81 bc9dd2e1 bccab04c 3a19b7a2 3c65bc2d bbe886c1 bc7a29e2 bc33b9d5 bd0e786a bcb89e24 3ac5f4ff bcee85ff 3c5751f7 39ecc277 bb73d434 bbba5f97 3cd2e736 3ce8b8d2 3c60b4ce 3c6586b2 bca6fd53 3c331201 bcde43db 3c416fc7 bcde87e8 bb3ff2fa 3cb7f8f2 3ca5c2ba 3cf09abc 3be81291 3c275f5c 3c34ff87 3cfd007e 3c16eec1 3bd20ef4 bc045acb bd062d67 bcbd769a 3c79e18c bceb5de3 3c070b75 3ce53e46 3cb90977 bcfce65d 3c17fe0c 3ca99ebc bd0fe9e1 3c9ba096 bccead3a bceb57e0 bc964763 bc8517f4 bc9395a8 3b3b54e1 3be2b93d 3c28bd65 3ce63e08 bc8cfd6a bcac151b 3a36750e 3b50dd2d bc7280d3 3cafcc4d bb0e2493 bcb3d8ea 3c71bff3 bbf8e449 3aed74e3 bd0d34f8 3ca079e2 3cb7c085 bcf6ddb2 3cae90db bc7b166b 3ca13719 3ce62176 bd06f449 3c1f205b 3ca5a0ee 3cf79307 3cbe1298 3b23c090 bbc79d6a 3bc60c05 bca2ce1c 3abe543b 3c9074d3 3c6db019 3c93a02a bc1297cd bd256ac1 bd04ca4a bca9311d 3d8e363b 3d0a77e2 3cf55fc1 bcad8736 bd56965c 3cd027f7 bac70250 3c6eb545 3cd7fa49 3b0b4213 bb92f0cc 3c8eb9ee 3cc98532 bc59c961 bd0d4d50 bca69d18 3ce26790 baa3e0a0 3cb2bbc7 bb66461b bd04c060 3c73fd56 bc4d53da bcc64e96 3c137bca bbdbdaba 3b8c41d7 3d8b307a 3d64c64c bc9c1c29 bc912af5 3b73effb bcd8c66b bc883fdd 3d1256aa 3b7a0627 3d493df0 3c5a426a babdce07 3b2a4ea4 3b883db5 3be4b7c1 bd08bdaa b9e16f70 3d2c492a 3d20875e bba1465c bb88ee2c 3ca2e67d bc9d51fe 3cfb7247 bbf01204 bc9105db 3c80b0ce 3d50b0b8 3d0e589d bb481280 bc2487fc 3d0284f3 3c530d61 bc59fe9a 3c71874d bc4e4538 3ccb6f03 ba953db0 3c0112d8 bc0e15e7 3aa0f08c 3c4e5136 bcdb7a8e bc8daae9 bcd6d357 3d25e2b1 bc3faad5 3c743b1c 3d043319 bc207a70 bb0abf52 bbf31d68 bd36ceb0 3c96be02 3c6df6ff 3c39b020 3cac5881 bc9f1c0e bbc076f8 bc8eb9c9 3b2a57c9 3c2c1cff 3c8484dd 3d208dfe 3cfee016 3d682621 3c740f87 bcaaeded 3c2728fb 3c2a9819 bcad8b3a bc315115 bafb36ba 3cd701d0 3d26797d 3c504cac 3d8981e6 3d225b37 bcda7c11 3cb2b84c 3be03d8e 3bd4f77c bc8d76b9 bdd6f5a7 bdd90ede bdae0c53 bd7e4697 bd828b1a bd37ffda 3ce3e97b bb8501c9 3ca3ede8 3d716864 3c8c6ffe 3cbec0cf b7a5439d bc6c2dc4 bab7123d 3be7cbd9 3cb59595 bc7a0a3e 3d0784ea 3b8b3237 3b60bdeb 3d0f8299 3a513a53 3cbffa3b 3c7d031f ba5bf5a8 bd6066f5 bd0df17a bdabc7cf bd9e206c bd8f1e74 bd508297 bd915c8a bcbff3ec bcf1fe6f 3c8fe084 bb424234 bbdcd7d0 3d4b7656 bb2f84c1 ba891ad4 3a946158 bc04dd8c 3cdc6c13 3c681ce5 3c4adaab bc3785aa 3c538493 bc850b94 3cad6cc4 3d0942c4 bcef5127 3c1142ad 3cf363f0 3d5c2f17 3bf708f4 3c9c0747 3c799257 3d53310c bb4dd36c bd38cb08 bd0c4f93 bb66f5c1 bcd4c51e bcb13180 3c690528 3ca31232 bb6fef5a bcb30fb9 bd174624 3c532ba9 3caf6d3d bcb0ba44 bc8a8fc2 3c2e754d 3bd3a565 3cec64ac 3c88e692 3bf73177 3c88764e 3d8012e4 3d87aff8 3dcd0915 3e164694 3e022495 3da19e70 3d12e4a7 3cdc1b0a 3d09f558 3c75fdc7 bd19154b bb95bac6 baba33ee bc4b95a7 3c491678 3c571b69 bc1ff055 38b2b159 3ccbf4d9 bc393e06 3b44e420 bc9dce6b 3bda4972 3c778ad8 3d096954 3ce1641d 3cd0fcdd 3ce281e1 3dcea17f 3deb9f93 3e1c9328 3db6de4f 3dbba463 3d9f6d23 3d840dd3 3d93f8bd bcac19b3 bc0a4c18 bcc5d776 bd790dab bceaf51b bcc7557c bce45e99 bcd4d23e 3c88cfe2 bbe2d179 bc1e44e0 bc5dce58 bc2fa126 bc9bb8da bd3136b4 39a2c981 bc4d5e79 bd183f68 bcbf75f3 b95c05c6 ba0aa664 3d76895b 3da4d1f8 3d16738c 3d46f1f8 3da982f7 3c8d197e 3c0ca05e 3c8cefef ba970061 bbcdcaf0 3c2c4e37 bd2f546a bcef392b 3c555dcc bcf20589 bc077f40 3c5345ce bcaa7275 bcea9467 bcdc75e9 bd11b65a bd8ba051 bd5b48f0 bdaf3fe2 bd8fd7fb bd446539 b9c9dfc4 3c4dd6ca 3d357396 3a24177b 3cb814af bb966e08 bba6726e 3d69e213 3d891560 3d499a80 3d37a876 3cc1720d 3d47d562 3ce1b695 bc67393f 3c8d01db 3c1097e3 bb4566f8 bb3c688a 3ce21daa 3ae7c038 3c57a64c 3c67e858 bd4455a1 bd23f155 bdc288d2 bdd1a606 bdfbe70e be02376d be08d1c1 bd219ab0 bdb8fcb6 bd2a2720 bd82effb 3ac00272 3bd446a4 3d0a3fc1 3d27b092 3d57a535 3d1d14fc 3d63a05a bb051332 3c8f10b8 bc6b71b7 bc754206 3c492d39 bc763473 bcc8d0e8 bc235e8b 3ce35bfa 3d078ac3 3949e3e4 bc900028 bdbe147a bda8d799 be1623dc be385235 be353e24 be26e589 bdec063c bdf3b24b bd980bb0 bd26d65f 3d1ca0a8 3c9ffe88 3cfffebc 3d0f3452 3d6c34be 3a314c2d 3c019ef5 3ccc21b5 bcb40163 bd172102 bcc8cd51 3c961cd5 3c76a983 3cc15047 3bc4f21f 3c0deaba bcf65e9a 3baf079c bd37e97d bd2c4bbe be096b7d be038997 bd96ed0b be05e3db bdc72640 bd0a67af bcd85eeb bd1f0acd ba19dfc1 bccf8486 3d5a3557 bb74529b 3d580c1e bc78602b bcb4a61e bc9a66af bd3441cf bbf835b3 3cc888d8 bc56e7db bcf9248d bb55b93a bbbca51f 3d6f2168 3d45c198 3d6f66c7 3c080544 3bcbb24f bc03b91b 3d25d39c bc62190e bd2bfb20 bc58be74 bcec0526 bc8671e9 bd0fb0b6 bce226f0 3bcb644e 3bd80eee 3d07b655 bab67f3c 3cc3ece2 bbe457d4 3b97d717 3c511901 bc87b745 3cdb9b5a 3ce3c836 3bdd916c bce8a500 3c5f7a0b 3d6ddf98 3d59bb66 3d712b02 3c8396c4 3d15f829 3dc9854d 3d93ee42 3d9a1e5b bbc2b772 bc872d32 3c89a9bd bd19fec3 bcea243a bd57e1e7 bd0fc083 bc9a45fd bc922163 3cda8abf 3d2db6d1 3d1d092c ba0d0845 bd10f988 bc88cf95 3b9b5c15 bc529823 3c3e3030 bc8969af 3ce8fa47 3d3f1b1e 3d45fd0b 3cd89250 3c758c01 3d665e38 3d330bec 3db1e03a 3d90be0a 3d996d0c 3d3a6f20 bcf4fc69 bd10f90a bd25d091 bd0a446a bd803b16 bcb8567e 3cea6063 3c74dce0 bc9e9c7c 3cdc1996 bcb4eca8 3ce0d4da bc32cadf 3cf9008e 3c8cf20e bbce1fe2 3c9f286f 3d068c0b bc9713e9 bb9946e3 3c282326 bbc7c3ae 3d3d6f0e 3d1c80ee b93a0239 3d710eff bbf55725 3d0028d6 bcd6409b bca025a8 ba85e734 bd1efc5a bc9ce223 bccb1e7a 3ae11d31 bc83f660 bcd3da94 bb9738ce 3b4fd273 3c90c02f bcc1022f bcca5a92 3c4b0958 bcc82113 bc7fa20f bcc37eb1 3c530de4 bc1f26c0 3c1f8692 3d11f9e8 3d3e6d09 bc990efe 3d47bb18 bc901dd4 bd3a3d62 bc399119 3b6cfa05 3c8573d9 bb6d073b bcf4e2ff bd201839 bc7f7a12 bd251b72 bcc5aac2 3cca6355 baecb438 3c7b0bcb bced008a 3ac42248 3ce6d2e1 3b43020c 3b36940e bcc39328 bc99258f 3d042841 bc769a21 3ca18718 3c3fc988 3d328ae7 bb9d7b9e 3cddd891 bc580650 bd2f9673 bc96b53b bca11151 bca0dc6e 3c7200b4 3cd1ee3d bcd8ba68 bbd9dd32 bcd672f7 3d161b42 bc848197 3c8c53b7 bcd86657 bce7c7db bc0dfcba bcbf5833 bc583e1c bc98aacc bc557a24 bcf7227f 3d0216c6 3cc14576 b9fe95ac 3d2b7ed1 3b6689c0 bbe02ca7 3d4b84cd 3c86365c 3d5bdf4a 3cd21f23 bc4d7829 3d683e1d 3d3cfe39 3cea2a23 3a8581a8 bc9aafff 3cb21237 3c2ec6b9 bc7df2a1 3cb7f3de bd09fd4b bccebfd0 bc3f68cf bd146397 bd0f29fa bc641507 bc23dad9 3cb6f5bb 3c6313cb 3d008fdf 3c23868b 3999683d bc6f6dec bc87755b bcd56322 bcbfe58a 3cd132ef bc616352 bbc825ed 3cce9603 bc43b938 3c9c99da ba3c6688 3bd939e4 bc6c43c6 3cdc5e36 bcfab53c bd13311c 3cc44700 bcddc116 3cf7aca4 3c476248 3c25f4a4 bbfd6c90 3b5174c0 3bb737ce bca2ce31 3cb76279 3c949798 bab00697 3bd73a9e bc00e21a bc88ea5e bcf8d497 bc8a90f7 bd19cf47 bc6da827 3c83d10c 3cff14c6 bd1358d9 bd092d46 3cc7126c bc853f7e bb873b7f 3c94319d 3ce2510e 3c21cdb9 3bad2e16 bb8aec12 bb249c15 3c27550c bd1719b9 bd1b0d53 3ca168d5 bd1c9cee 3c6d60ae 3cafa075 3c9e3017 3bdd9683 b808cf4e 3c48d3ca 3c8ae27d bb3b902b bcef757d 3c925e44 b7bd33e3 3c8cbe3d bce080c2 bc4fd7f8 bcd89b16 bafb8079 3cd3c9a4 3b333582 3cd3db6c 3cb2c6ad bce5a254 3cf363e8 bb01ba99 3cd0362a 3b3b673e bc225abc 3cd38a49 bcf48b45 bb4e0d2a bc14d5f2 bb3b4f65 bc6dc481 3cc1be6c bbc89c50 3c1c97cf 3c166f30 3cdaf725 3c00b7f3 bd2ad34f bd169231 bd1e3713 bd1d66f6 bd08e1bf bb96fd2f 3cef0827 bcdb9719 3c302eef bca31a5d 3cbe38e5 3c9a8568 3c4a71ee 3cdcbc83 bcf8a0f5 bd09f7e1 bcb45581 3b4b6dd3 3cddd591 3ca1939f 3be70659 bc2787a8 bcb93f65 3cfc715f bd0abce4 bce3a437 3c857b4b 3ccce3b6 3b24f55a bc23b888 bc232732 bb10b0aa bcc45345 3d00b97b 3d042f06 bc8cb93c 3ca5184f bc42403a bceed356 3b08fba8 bc2e0dfb 3cce9190 bac444fe bc3ee430 bd044611 3c99ea4a 3cb0311b 3b95e134 bb0d8bb3 bc5b70f2 3b91e4e9 3d0c8d67 3beb7aec 3c201f71 bd22cf45 3ba13bf9 bd071e12 bcf4373b bd1da805 3ca23328 3c6f982c bc9abc84 bbeadbad 3c572a3c 3c65f7eb bca166f0 3c2e07e6 3ae9da28 3c84caa3 bcbb5244 bcd988a0 3c48f489 bba4434b bc8e62a3 3d076cee 3c0cc3f2 bbeab8c4 3c8122f8 bb60c93e 3b22bc1b bca021d2 3d16af56 3ce19b3f bd3ce73d bce5e089 bd10409f bd6b3f2a bd3fc31f bc44ae74 b9c4c943 3cb57cbb 3cea7992 bbc6178f 3cdce6d1 bccda636 bb6aee54 bd0676b8 3c52b2a1 3b48bd83 bccd6e32 bce760a7 ba697333 ba5ed7d1 3c11525d 3b2fd8ab 3b12bd31 3d3285bf bc4b9f07 3c62fb59 3ca8dc48 bc980dc5 bcad1703 bc31896b bcbd2231 bd1d9e3b bc5fc2ae bc9f75cf bc5b08dc 3ca12c13 bd324259 3c9c04e3 bcc246c0 bb8cf6dd bcce1df0 3c9d71c2 bd037b75 bc9f53cc 3b1a37b6 bc413117 3c666091 3d310bbf bc1c0618 3ba7cffb bc1fabf3 3d8c1584 3b7c0572 bd00c870 bc7a7a9c 3c6b4640 3c893581 bbde4da7 3b7bc32e bca42817 bcaabcd5 bd800716 bc356344 3c849d55 bbc1433a bcbbee8d bc4a1b6b 3c08e8e8 bcd96fc6 bca4e9a2 bd1c8631 3cab262e bca39537 3d038bcc 3c24118a 3b338030 3d0a0fd5 3c184bc5 bc3deea2 bc331f13 bd950fea bd3336e2 bba0b013 3cea9efe 3c8a672c 3cc6b054 3c0d53ce bd246d6a bd9e03b1 bcaa9c51 bd21b241 bd003664 3ade6658 bbde3818 bd62327f 3ca08163 3cdb3e23 bcf02fd7 bd212677 bd02ac07 bc5db7b6 baa2833b 3ccf4fe7 3c8533e4 3c84c3ed bc16173f 3d0d344d bbec11ca bcc97ae8 bc2e0a83 bc4bb302 3d083bb6 bce10c50 3b996e1b bd944ebb bce036a6 bc347b4c bcc27427 bd1ba747 3cd624cb bc531687 bd67b6f1 bd4049d7 3c84cb5a bcda5093 bc93c617 bc94c3f5 3ca536f0 3c0a5295 3c9c6bcb bb911b3e bc7602d0 3c8bcd6c 3cecab06 3d143ff4 bd616f85 bd78f01d 3b81bb1e 3bf40cd4 bc831b85 bd462281 bce579ff bd62d60f bda41862 bd8831ec 3c108d1e 3d3b36f6 3d2a4716 3cef83bf 3c0d4fb3 bc8bf547 3c54ee46 bcb00175 bccd086f bcd57a20 bce9a4bc 3cddbc38 bca1c2ad bca41463 3ceb14a5 3d07df1c bc6540dc bbb756b9 bc7cf993 bd055a1c bd4f04f7 bd9de009 bdfcd40c bdc6f663 be098591 be000b0e bd15612b 3ace94f8 3c99b5d6 3d476cff 3caa1ecd 3c60c540 bd0bc19e bc702bf8 bd730365 bd0e9438 3cce4aa9 bcd517f4 bc8efb55 bbff013f bd1a1b00 bce65a6a bc4fdf7f bb4ed793 3aca88f9 3d70737f 3d2e9344 3ce5eaa5 bd2fb8ab bd42b836 bd75e669 bd8776bd bdac377e bd2488a1 bd2ab5cd 3d4b9468 3cccbe0c 3d5fdd11 3c8560f5 bb95be74 3c62ee26 bd104817 bc911b6f bc8a3c6e bc429734 bc539cbd 3c3676f6 bc1b223b 3ca73b62 3c839dce 3cabf473 3bf928fc 3968d387 3be969b2 baf0a44d bb2dee95 bce1ab36 3baf5dbc ba7b8a54 bc8dca49 3d480ffa 3ceb0092 3d1d3b92 3d1b33d9 3d16355f 3d04a13d bc1623fd 3caf302b 3d15e981 3cbc8c02 bbe81886 bc369f51 3c08697a 3b66ba16 bbb085d0 3cb71ee5 3ce5a0e3 bca3cd23 3d2d1ab6 bc82228c 3c1eae83 3da06b09 3c68e8f1 3cfbc46a 3c2e5b06 bb03d2cf 3d988544 3dcf3b8a 3db2733f 3d1ebe0d 3d707926 3d2da5b4 3d79043d 3d4d7dc5 3a6e2e7e 3d0b1d5b 3b19a989 3c1fa9b3 bbafd192 bb832b66 bbd289e7 bd1435a3 ba3b0701 3cdff7ce 3c428d7e bd12d5ad 3c214668 bc7a75da 3cd17b09 3c8759d8 3d145b9e bb3f2ec2 3d05ed33 3d8f93e6 3df4b4ac 3dbc8981 3dd649fd 3d9ae43a 3cb93dfb 3c81f35a 3c7ebe20 bd275576 3cb798c1 3d03842b 3c7b18d4 bc5fed57 bcfa51a5 3cced0d3 bcb9779e 3aab3d19 bd0f2e4c 3c964252 3c06917d 3cf28206 3c9f9731 bcb78237 3d28a3eb 39500946 bca2d8dc 3cf950e6 3d25fc24 3d8701fd 3dd7f9b1 3df4166a 3d705cb0 3dce8973 3d2b4514 3ae9337a 3c8231f1 bc93ac7b bc3879a8 3d41fb65 bd0e8a59 bcd5e03a bd09eefc bcc189da 3a85e344 bc430f06 3c052818 3ccb5479 3c025352 3d051850 3b29f3f4 3d7b4059 3d0ee809 3bed9351 3b491657 bca7fd3f 3db5f29f 3dc42ce3 3d4ab133 3d070810 3d4bd83a 3d3b7a46 bbbab9c0 bb621ad9 3ba0422e bb03ad1b 3d287e60 bbee27f7 3c108703 3c2c1f9b bc8e18f6 bbbde1e2 bc28d49c 3cbad977 3cae1fc7 bb3739f7 bc84d1e1 bc992c33 bcb68099 3d37fcd8 3d567e96 3bcd7e86 bd9ad711 bca07712 bbd2f1ff 3d0ae7b0 3d39369d 3b5f42ef bc9bf976 ba9c9ac7 b8b017c0 3c8593a0 3d03b7a2 3c40afde 3c939b01 bc72efcc 3cffdcb2 bcb19af2 3a9498be 3bdebc15 3c4351cd bcce8266 bc2f227f bb3a885c 3a4a367f bccdff14 3c75ba8c bc8f3843 bc2cfbff bd16aa03 bd1388a5 bd76fe0f bd8a2e3f bd28d4ae bc934bab bd86c4d1 bcf21dfe 3ba9ecbb 3c989dda 3c3a9e31 bc482c7b 3ce0063a 3cea38f0 3c1e9dcb bca4bfe0 3cbea9a8 bbebf0f3 3c9e4970 3cbaa091 bc39eff8 3cb62b67 bc6ffca7 3c9173c4 b818c320 bc99367a bc94151b bba87d17 bcbcec41 bda56aa0 bda353b3 bd5fd3d2 bdb24204 bd4cc58a bd22610a bbf7fc40 bbe8fef0 3c350fac 3c176f45 3c3b5d95 bd0e0650 3d38047c 3d0e5a60 bd11ac20 3c03fdd1 bd23f1e8 3c589d0c bbc31319 bbdc63b2 bcb02966 3cb4cc01 3be59c90 3b9926ba bb9558b1 3c4dc41b 3cbedb5b bd779c56 bda11941 bdb543b5 bddc914c bde3c467 bd5ed517 bc122623 3c6c4bd4 3c91b9ca 3b9607dd bcb6e270 bd2de27d bc0d89b7 bae89fca 3b670eb6 bd052aca bc89955f bc85afcf bcfe7536 bca1d20e 3c3a9f64 bc649cd2 bd099005 3cd99a80 bc62117d bbd7d8ae 3bde06d6 bb709464 bd1e686a 3b8a905c bd44c215 bd0fbab2 bcf64279 bc25c77a 3c6f0785 bd003b8d 3c1ed5f9 3ce74ff2 bd1ec22d bc860662 3d122c30 bc9de5be bd0c843e 3c460f88 bb895d24 bc281233 3cad9fef bb10391e 3cf7b5d9 bcde9df9 bd05d6b1 bc2655d2 3cf0371e bd2edf1d bb11d438 bc95e7c4 bd3a5266 bd95b899 bc1af69c bc38a41b bd2e3a48 bcad1b90 bccdf7cd bd54a314 bd4f6b70 bcca9794 bca7ce13 bbc95ff5 3cc535aa bc9c5818 3cf9c3df bc90865e bcffc037 bc89dd1d bd078ca5 bd0c4eed 3bcbaa27 bc5de33f bcb4a6f7 3c8af80b 3ce24016 ba9a3cca bc91761f 3cb72bfd bcc4ca1d bd47e984 bd0b7ba1 bcd7c9bb bc8beb98 bd118529 bd7e80ae bd17f938 ba952af5 3c3d9153 39a77d96 bbf4cd44 3b439358 3c050251 bcef7467 3c2e00cb bc66ce41 3c49c618 3bbe0df5 bc1beea1 bbe844e1 3be05247 bcb0897e bc16b084 3c996e03 bcf6c0d1 3b926aaf 3cd209fe bb8dc8b3 3bfebe40 3cb3c021 3bf8567b bd35fc5d bbd5baba 3b11a0c3 bd0709df 3cecdd94 3ce47a28 3cdb3975 bc730788 3d2148b6 bbf3e140 bcd87f19 3cac3bfc bd02c6f2 3ce7fccf 3cf7e41b bce1124c 3c9dee88 bc2dce98 bc541bfe 39d69370 3c208957 bca958d0 3d3651c0 3d18e74b bb19752a 3d092925 3d19c6d5 3d027c5a 3bcc7a8b 3ca85232 3cc6b002 3d0331e1 bb8606b3 3c820d29 bae44f75 b9b85825 bbf5b26a bc2d62f5 bd16b884 3ccb8180 bcd730a3 3c6a27a4 3b831fec 3c99fbb4 bd17ed73 bbebc40d bd19a741 bd00e78b 3c1c734c bc0eab18 3cc8760b 3cd2b506 ba959495 bbf4ddce 3cf1f36d 3d0248d5 39419d8e bce6c647 3cc36320 bc180b38 bd079456 3b957fc7 bb8abfae bc2c4af8 3cf12af2 3c69498f 3c9649a0 bb637b96 bc3231b6 3c16df95 bcf6e9e2 3cef1fe9 39e11373 bd15810e bcc5ed25 3c548665 3b88368c 3c5ae9f6 bd1e3eaa bb9ee88a 3c8332ba 3c717eae bb67a280 bd233a1b 3cd2c4f1 3c0099d6 3c0988c6 3c8ddeef 3c848fa4 bc117190 3ca2a45a 3ca1af3c 3ba8f5d1 bcf6dd7d 3cb4106a bcab02a0 3cd4a5f9 bcd2f094 bbcfc2e9 bc8f2f73 bc914553 bc25881e 3cc4f0f8 3c5580b7 bae8f994 bcdaa629 bc931cd7 3caeef8a bc7457e7 bcd16e4a bc91890b bc282541 bc65f58c 3ca55e57 3a8865fd 3d0d6731 bcfc49be bc84311c 3c568c15 3cbbe567 bc53ed6a 3c7d668b bc92385d bca1f219 3ca8e4a2 ba321a1b bcc6278a 38cf9a0d 3d0442ad 3c1ae692 bbb6217d bba0592c bc9f2abd 3caf3f88 3b216845 bc810f1d 3b9e4052 3c555f7b 3b883e35 3a52c328 bce617e2 3b14919b bc44fdd0 bb16d9cd bc8cbc7b 3c869255 bca3b97e bc16bc01 bc66e286 bc82054a 3b149404 bc660de2 bc60ae01 3ba8acb5 3c84914d bc79529e 3ca4f6b7 3c422ce9 3ce984f9 3ba0c703 3cf7bec9 bcf68510 3c497586 bcd95aa5 3cac6cb7 bb5922b4 3bb36349 3d32adf2 3d43aa89 baebb87d bc0f9327 3ca89b08 bc37bc75 bc0a0c08 bcb04904 3d1c7047 3be68ab5 3c45063c bc88bfee 3c9b67a6 bd008bc0 bc0e72cf bb7fa214 3cb4e0c6 baed4dad 3bd48c6b 3ce5be8e 3c6420ef 3cf40005 bc24bf2a 3cd1c8bd 3a2879ec 3c257c2a 3d01a598 3d81a3ad 3d1cb794 3cb52173 3992ccc4 bc0ab4dd 3cc5a31d 3afad558 bbf87b82 3a328872 3bedfe08 bb6e8f7c 3d04d990 3ca876e2 3c108371 bc48012c bc65b2a7 3d0610d7 3c0e5a2c bcf8aa5d bb55d603 3c0d7b79 3c2cc63f 3cff7b31 3b74b66c 3af78e61 3d08cb8d 3c00025d 3d20cb41 3ba3cbbb 3bc0b2a4 bc9ce7e0 bc0e219b bd362ad6 3bc2a742 bd140862 bd3ded7c bc875603 bc527c36 bc8080bc 3c8da2a2 3acb6181 3ae00374 3c564df9 bc6059ba 3b5c96ad 3d1245e7 bc608867 3c7f1696 3cfc7045 bb8cde02 3d04654d bc1cc970 bb4fe5aa 3c2b960b bb983792 bbeddee2 bc795085 bcc4e59c bd5cb9b0 bd5b35f4 bcb06a78 3d440224 3c70ce8b 3c0854f7 bd1005f2 bc2a73ef bcf089d5 bc37cd9d 3cdffe9c 3d065a9d bc2af39f bcab7ad7 bcd7af3c bc743bf6 3c5c2e50 bc9e0582 3caa0e45 bc1e8947 3d1f4679 bb5ce003 bc1f2636 bb0cabd3 bb4217d5 bc403bf6 bd5b6c94 bdc8b770 bcd2c174 bd35071e bc44d26a bcd63fc5 bd0e370d bd1db24f bd8bc833 bd55db12 bd1957fa bca2ceb6 bc227cbc bacd9a84 3bc2ffd1 bd0240d0 3c507759 bcaeca53 3cc1fac4 3d07ab84 3bd1bebe 3cfc51f0 3bde2f2f 3cc282e3 3b21b84a bd7a06d2 bd6d40eb bd79a119 bd76753e bd6970b0 bd96a98a bd758a1b bd0d55f4 bd8c9df9 bd7a18c8 bc9a9cd2 bd917145 bdf013c5 bdb9b7c0 bd93a9c3 bd6000ed 3b4cd271 bb8c83b0 bcbe73ac 3c1316f1 3af72aa0 bc962bbd bd0356d7 3c1c61a0 3924f9ee bc403ba9 bca37582 bcef085f bc1c029d bd842836 bd41657d bd906e23 bd42008c bdbd41ef bd7e144d bd301a1f bb74b2e1 3b4d2a06 bd0a8d11 bd1813a6 bc9eb55f ba144e05 bb895cdc bd8062c3 3a18ee10 bd487643 3c2bd826 3bb3d4b5 3b31af24 3c2cb307 bd07d841 3d0cb11d bbbdd0e8 3cd953ed bc0495d8 bd5af1fe bc52b738 bd00a7fa bd8148a5 bd9ff8a0 bdeacf07 bd91ffcc bd480cdc 3d0d3718 3d3ccded 3d0f8d16 bcf3cf4a bd197622 bc419788 3cb73d76 3cc4ed9d bd1ebfac bb819475 bd5a2dba bbcefab4 bd1a8dc0 3d0a9921 bc40ab88 3ca8fdbd 3b0c2f13 bc9a4acd bcc2fc3c bcd8d936 bc17bd48 3b91ea9c 3be01205 bd8e1e07 bdd4cd18 bd954730 3bdce30f 3d8cdda2 3d728e09 3d3615fe 3ceb16d7 3d0eb270 bbcf45a5 3be8d2bd 3cea8fb4 bca28f2d bc14b537 bcb77250 bcfdb3e0 bcc72e1c bbaba450 3c16232d bc7b3198 bac8b1fd 3c9604c0 bc98c8f1 bcf47502 bd42f9b8 bd4af33a bce5479d bd27bb43 bcd6e055 bda02f6a bd377549 3de5d55e 3da97c39 3d8b00a6 3a9b01d4 3d070185 bc8dfa86 3ce914ad 3d8d2071 3cb370fa bcaf1214 bc7d2fbb bd8bb278 bc5e6a8e bb36d842 3c82e0bd 3d01a1a9 bc9d49e0 bc0c8be7 3ca8b232 3c0e096a bbd2f4d2 bd27fdb1 bc9ff73d bcd59336 ba41eaea bd8271b6 3d354ea5 3db48753 3e555a81 3e2ad570 bc513801 bcab6d2b bc22145d bacb88fd 3d389df4 3d69706b 3b6627ec bcb589b4 3d073696 bce2181d bce8685f 3cb9929b 3c7d3518 bb28fc5d 3bb3cf92 3bb0ac23 3d0c0129 3c345900 bcea13c8 bb468786 3cdf6058 bcfbda9a 3c5e518a 3c6ad85f 3da5b7a7 3e30f3d7 3e380b9c 3d155bfc bd7d8f2b 3c3a2132 b97025fc bbc78132 3da5c916 3c1b65e5 3ce574cd 3d01345c 3c9119eb 3d74a638 3d71c87e bced9bef bc8d6a6c 3be93638 3c4bc948 bcb9a6f4 bce494bc 3d0cf3c5 bcc5c735 bc227947 3d5292c8 3c3673be 3c464cf0 3d48f952 3dfb8fa3 3e15e104 3e18a38f bc713b49 bc85783b bca17160 3d9a1058 3d475513 3d19b6cb 3d52c7b8 bc024bd1 bc3b50f4 3cbdedc2 3d7fe745 3d057f9c 3cffb266 bccf23f9 bcb45a8e 3d03183a bc46743e bd03b1dd 3d04d3e6 b98f3de6 3d1e45f6 3d66a4b8 3d049270 bd14baa6 3d3e27bf 3dba5b5e 3d82c5e5 3d94f673 bb55f686 bce06cb1 3c338f04 3dafee57 3db8645a 3d2cabc2 3cec8bb3 bce363cb 3cc5c245 3cf4db8f 3dae0255 3c478914 3ce34768 3b89d7eb 3b04d113 bb3e5901 3c85a19b bce68cc9 3c82e62e bc3e4126 3d1abbf3 3c99fe08 3cf53172 3ce6074c 3c81e734 bb40b2f7 3d08f90f 3b4702d0 bdb13fe9 3c989b90 3d9d61a9 3d9ede20 3de1c518 3d5434b1 3cfe9997 3d5c7222 3da1b861 3d87e435 3d38f953 3d18a020 3d1939f2 3ca24808 bc7bae47 3cdad2a7 bb54b1ca bc287d10 badbd9a9 3c998b32 3b76dba3 bbf832f8 3cd09f34 3d35f3d8 bcb73b65 3d4fe06e 3bf5df20 bc9106ee 3c906ef1 3c3b7236 3d8a4e9c 3e00fd75 3d7cb0d8 3d98d54a 3afc9363 3cf77aee 3d8893d6 3d233650 3b8473de 3d13f71b 3d31c73a bc7821ba 3cb76f62 bbda0aac 3c50f280 3bc01070 3cd41ddb 3c0b3b13 3b94cf07 bb4efed5 bc4514a3 3bfc3699 3caf0fb8 3c063dcd 3c53b070 3d49dd72 3d878ff6 3dce9bea 3e08f1f9 3e12b287 3dab2d04 3d1fa1b7 3bb02c35 ba466f19 bc4492dc 3d111e2a ba923804 3ce359b2 3cbc06e0 bc8deae3 3c4d1a66 bc6526f6 bc806129 3c4e40c0 3cefd9c2 3c04ad63 3c4e314b 3d0b6e1c bc319ca0 bc55febf bcd57aec 3cdfbf8f 3d670d7e 3d7039e8 3c8fc854 3dd73929 3e017a36 3dc3c079 3d31c8b0 bc12158a bd4d8966 bcb148cc 3ae201fd bb28491e bc4419e7 bd34e498 3caaa5ba bca9a412 3c23b66f bcc5d6df 3cda8897 3d00bb76 bba8c481 3d5461b9 bb973505 bd59e959 39739961 bc1ed40e 3cdda3f6 3c94a330 3c6b8c06 3c2fcced 3c5d43fd 3a8df33d 3cbfbf7d bcd5c8de 3b4ac523 bb0bcd8b bd211a5a bbb3e188 3b02ed5a bd23827a 3c90543e bc9f4ea1 3ca719e2 bbe0992e 3ccbd94e bc7ce652 bcbab979 bcc26d16 bb91544e bbc613e3 3cc1057c bd21bc79 bc499d2a baa46847 3c56e1a7 3c4b4cdd 3cc483fb 3b928646 bd1f837e bd4115ab bdab9d2f baab77fe bcdce2f8 bc892d9a 3cb7c01a bc80ad7d bd1668fe bd0e7c54 bd2bd527 bd1b151d 3c419b28 3c978d34 3ca0a932 bcfc2c1b 3cb86a04 3d0979bc 3c9ff15f bc2ddca5 bd0f4b3c 3c95c291 bbb5ecf0 bbbae71d 3c8ed7fa 3d625f9c bcf348e1 3c7bcd19 bda16010 bdb9eb77 bdc1d2cf bd8ab811 bd756f35 bd4f139e bc829cad bc9d2d2b 3c2e165a bce09b67 bca85b6c b9414ee8 3cc9f26b bce1535f bc4acd45 bcb48208 bc886939 bc997029 bafa1219 3c588da5 bc9de60f bc1e482d bc726ec9 bd2ae560 3b519782 3c916cba bc15e443 bd33cdc3 bd814d83 bdb07d86 bd9e737d bdd1b65a bdd13db7 bdae5e9c bc520f10 bd619559 bc05f65b bc59a5e1 bcb45b6a 3c14c405 3cefee13 3cf5e1b0 bc7f7f63 bc62adf9 3c7ba97e 3ca56b89 bce57440 bc9284fc bce26222 bcc08157 bd0fe499 bd5ddd7d bc878675 bc9d0cca bcf00361 bd83cb1c bda62c8e bc86517b bd81c2d2 bcb6acd4 bd830e07 bd56a1df bc671a09 bc3cd1d2 bcf098d9 3cdf9469 bc5f0c5d 3a6106ec bb476bc2 3ce79f72 3c22cfa9 3c91a911 bbca1956 3d1514d2 3c75414e 3c92aadb bc4c29ca bd2d4eeb 3b7a3c75 bd8864f9 bd8b94eb bccb49da bd24cb52 bd9939bb bcc40427 bd5514bd bd80255f bcd26d74 bd143ff4 bd807a88 bd28e495 bd507d1a bcd7d43d 3be6b5a4 3c3f7ee8 bc477885 bc3197d8 bce8b256 bca58bf3 ba4a8737 3b31d228 3cad6820 3cca87b8 3cf9f94f 3b4f0e6a bd05a923 bc93b228 bd2a1316 bc873eed 3b411250 bc65f863 bb72655a 3b9f99f6 bcead796 bd3299be 3bb408c2 ba3f6af4 bd2d4779 bbe95130 3bff4237 3b885450 3d074b4f bcb343d5 3bcd0d10 3d111047 bca81cf9 bc8eb3cf 3cce6ccb 3c9c831c 3cedd542 bb97bf4d 3cb617fc bceac750 bc9d0c6a 3b978021 bcd25227 397587b3 bc5fe318 3d09cd06 bc4db11c 3c3d9645 3b03da95 3cf09144 babfad22 3ca40077 bcc60e6b bcd5ef71 3c9e2fd8 3cb969be bc8b0636 3cf13247 3c5524ca bc96c416 3c965ea4 3d14aecb bc6cf8dc 3cb20a1e bc858cc8 bd1d2660 bd07e460 bc8d6f04 3ce292ae 3c176ad0 3cca95f3 3c491e33 bbc40055 bcea97b4 bd18f45f bc8cf3f9 bcab644e 3cd571d8 bc647b50 bc1f3c17 3a649356 3cbebce1 bc14edcd 3c533c9f bcf2e353 bd1f33a1 bc31efe4 3c2d2e76 3c86db05 3beef75d 3caca445 bcd5b4d5 3b1d0449 3cc1e887 bcde9f87 3c99ba93 bd0aa76f 3c8d6114 3c4f2c78 3ccbcb7b bc216d88 bc0eb5ad bcea7b76 3ccddbf1 bc01fd82 bc8237b5 bb13f322 3c4581e5 bccf1f3f bd0f1501 bc720124 3b99505d bb0577bb bc727123 ba72f7c9 bc0887dc 3cb18411 bcd59985 3ce7e595 bba8cd15 3c9cb493 3c0c78d4 bd029ec1 3ca10350 bc920221 bcf19929 3c20768a 3b6d88fe bca97ec0 bcb2c07b 3ccd692d bd1af19a 3b487ad4 bb63f586 bcfac015 3c2b790c bd31ef68 bc80950f bc9863b0 3c0b614c bc8b0c46 bd1f2850 bbf328ea 3cba7cd3 bcd24a71 3cc4fb45 3c65bbcc bc1b5d40 bbd5a3f2 3cbfd82b bb9fa0d6 3984c86f ba692446 39fba2a9 bce3ba19 bbfcb3fc 3d409864 3d1d630e 3cacfe30 3d49819b bc416bf6 3c539cee bcab2fdf 3c22770d 3aedb877 bbc4bcc6 bcc65f0e 3b931a19 3b750710 3bc3d476 bca316d5 bb7aedf9 bc650282 bcd48e6a 3b45e85c 3cca06f5 3c7ad429 bc7b2be9 3c63cedf bb89719c 3d1a38e1 bcdbaeb9 3ca6d6df bc2e5fa2 3d4649c8 3d542f2e 3d57e3df 3c4e3ef9 3cb3f2b3 3c285639 bc2624e6 3ce52639 3c9543a8 3c53b6e5 bc9d7718 3c144546 bd08b89a bd278003 bc96dd4b bc0659d3 3c8801c2 3c1019eb 3bea2e16 bc83f307 3cb29760 3ceaf0f7 bd0c9491 3cd32bea 3b76251d 3c23ffba 3b070ff7 3c1ee73c 3ba57399 3b8f8f9f bc086b98 bd1f4a9c bcb4d795 bcf2e05e 3cd9c0f2 bd2392f0 3cff0b7f bc53afd9 3d449402 3cdec6c2 bca46d11 3c28a02e bced7106 bd134f42 bb85ffc0 bc80415f 3b4f5597 3cb628dc bd1c2e99 3cfd12ef bcc1a39f bc8dbd65 3c737512 bcc67f76 bd15d048 bbc535e7 3ca6d8a2 ba757388 3cb42e5a 3b99e441 bd242f46 bd480537 bca88baf bd792fec bd1c2072 3c656d7d 3d042df2 bbb2822e bba12f73 3bd519b6 3c2c6789 bc267f05 3c5209c0 3bee864a bd1d25f9 bd1edce1 bbb78336 3bd36c9e bc8f004f bbfca80e bcff73e3 3c29cd34 3d3b33ce 3ccc3722 bd44af6a 3ca246de bccacfeb bce6de4e 3cf69111 bb08b240 bd1d23a4 bd9205f1 bd3347ca 3b0d69a7 3c9a0314 388ee690 3c18fc5e bc845095 bc658939 bb60b45f 3b20f749 3b77da0e 3c56fc43 bcc0b166 3cb2dc07 bc66f869 bc8c85d1 3d0fcf9f bcc2e2b9 bd32f864 bcd6ffe0 3b153d1b bcf9450e 3af7e9ab bd65f76f bc5990a7 3c2e4607 bcceb4e1 bd67ad6c bcb61639 bd3eb3bd 3ba8eaaf bc02bd4e 3c4cbae2 3c693a5e bd1a0ba1 bcc55154 bd42550e 3c9f094c bc0065e0 3cdf258a 3cafa43e bccceab9 3cbee9f4 bcfcac40 bc9604ef 3c24dd41 bd14ad90 bd612163 bd49247a bd10563d bd365d91 bc354aef bd9921c1 bcdff086 3d39ac05 bc87ea38 3ce32887 3d49f6b3 3bd279f7 3a565233 bd10d72c 3d437275 3c2b388a bd013f53 3bebea59 bd1286a2 bcf6b141 3ce047cc bd26494c bc36eb80 bca975c1 bd218f90 3c4328d6 bc87779e bb8284ef bcacc703 bca687db bbc86f27 bd0ea662 3b9b7f76 bd02e35a bd57715c 3cc3b8f1 bcc67579 3c9250f3 bc13005d 3d251f17 bc10eec4 bc6f1cc1 ba9af74a 399f8a00 bcced2e7 3c9d4634 3aff2ddb 3c317367 bcd751f9 3b206f7a b68ebfd5 3c5547a6 3cd3149f 3c9e9481 3c79f4c0 bd29e9b1 bd2651c9 bc8f3b3f bd0dec9d bd20118f bdda9fbf bdd7df05 bd4dc62d bbfb25ad bbd9f871 bd199b50 3c6172d6 3ceff330 3d3b09cd bce6e850 bc5a37ef bce4c032 3c8e346a bc07d28b bcfbfa1c bc3d3a8f bbb396ef 3c8fbee3 3c42ad63 bd33b446 bd062bcb bd331286 bd32d1e9 bcb9f2da bcd8e273 3b793a34 bd10df38 bd84d603 bdb35203 bd92a8ef bc9bde62 bd82f57e bd5544d7 bce96ef0 bcc12d45 bc215a25 3b82ec82 bcc1bce0 bc0e2ce4 3b292f1a bc88477b 3ca0ddbe bce5a0e1 3c16ee9f bd1d00f7 bca068da bbf06e12 bc94c02a bc5cdd6a bd7082dd bd0198f0 bce67cc2 bc84074e bd9dd1e0 bdb14cf6 bda97ade bd05e739 3cc204fd 3c5779d4 bd75ab76 bdc028da bd84bf6a bb1ae203 bb73915c bccbf094 bc8bc6a0 bb892b38 bc416e35 3d170679 3b81f5d1 3c23a0f9 3cfa27c0 bd15eeec bb1d5463 bd0fa684 bd034f5c bd5f6496 bce24ba6 bcc03787 bc584b46 bd275a4a bd2f23ed bdb3f4da bd747ee7 bc59fd4d 3c38c9eb 3d0946fd bc2db901 bd26dc2f bd8b7a17 bd6706e0 bd9aa272 bd40c71f bcee5ff7 bc913645 bd08c367 bcb5aa57 3d06cb53 3d08c96d bb64ed34 bc2b8046 bcb09e46 3bb38efb 3895de24 bc8bde4e 3c90abed 3ca93e6f 3c78d957 bb0b1d89 bd7ca13f bc2ee33c bc57c3ff bbb78585 3dc9594b 3ca91d55 bcc8116e 3c5a07b7 bc601ab2 bd27c02c bd4fd876 bd86b656 bcb0364f bd601120 bc7c3fd6 3d39abc8 3a299fae bcc934e2 bc7bba39 bc06653a bc8f737c 3ce9e4db bc7123f8 3cee8cd6 3cb4a5aa 3d46bc25 bcdc2ee3 3bbc9d15 bb9c9bcc 3c1435ce 3d27e4dd 3d85746c 3d8e7f58 3c9c3f35 3c886e28 3bc45868 3b8e99b7 bb4fffd9 bb603702 bc586851 3c8f3781 3b3b3ad5 bc1b0475 3cd09bb5 3d2f6a59 bbeebeef 3ce184d4 3c55484c 3c1d7776 3ce493d2 3bd1d3df 3d298003 3c2b0b1e 3d65963c bc2932db bc403d1f 3d59a431 3d8559d2 3cdb0e2a 3d883b00 3d4cb95b 3d6c4efc 3d27ef9c 3d1a9528 bc060735 3d3026e1 bc8b4015 bc73da7d bb95f34e 3b32de7e 3c238c72 3d2c1c1f 3d0972f7 3c75487d bd1ef2e7 bcb75a52 3c2c4c94 3bdf7326 3cfaddeb 3d294aea bb02dabe 3d381b87 3ce1de5f 3d13c47d 3d2b231c 3dae98ad 3d9f64e9 3db2d9ce 3d4c3db1 3d6d47cc 3ccebe3e 3d18fc80 b526c62c bb1c2e6f 3d17030f bd199fcc bc07f845 3ce4311a 3d4b0e07 3d9dccaa 3d62495c bd0ab376 bb1c75b4 3b97c8dd bc525acd bcc22d8b 3d3b7025 3bc7b795 bb6a32ee bb4e78d9 3c9e6863 3d13a0cf 3d846503 3d2c9b27 3ca4ebc6 3d597620 3d85ebad 3c680210 3cc0830f 3d2aa05e 3c9f8f4e 3d6787c0 3d2250b5 bc66362b 3d2c8a11 3d53df22 3d538c92 3d55f898 3bc0e0b6 bbda700a 3c20aac0 bd00ea5b bc7420cf bce2373b 3c4ad6b1 3c91dd02 3ca86c52 3cdc35c1 3d81de51 3d28145f bc00fb1b bc4ddd21 3caf9e68 3c499ad5 3cdcbb02 3d170222 bc64d94a 3d93a57c 3d7eac9e 3d04c841 b943d20a 3c6d39bb 3d2133b6 3ccc7e09 3c46114c 3c62b72d 3ceb01ec bbb24c04 bd0905ba bce97e38 3bfb221b 3c156289 bb38985b bb64eab8 3d431e31 3bea2d24 bc13c1d3 3d439b53 3cbc5168 bba754d6 bc40b139 bbdcb2dc bd1fb31a bace25d1 bbbe6398 3b713bcd 3daa7eb7 3cea2ccc 3cff0ade 3d568fe3 3d866bc2 3cd68c7a 3d882150 3c91d210 bced9f85 bd1b0332 bcb25376 bbbaa9ec 3cbbe870 bc900a52 b9ec1633 3d2c05f8 3c942855 3d032a9d 3c2b29d0 3b255c9b bb8b7fc0 3cdb2b19 bd50e204 bd43aeea bba05ea4 bc12b2aa bc654c43 3c366343 3c85fca9 3d5995f7 3cb1585f 3d747093 3d6b7128 3d1be735 398b6ebb bc864583 bc320545 3bb82260 badfd9e3 3cebb2cc 3c94fbb6 bcaadc5a 3cbb5ebe bc7b7d12 bc2a336b 3ca953d8 bd1628a0 bc787a70 bd24c2af bc828cb9 bae193d7 3bce47da bcb572ae bd65f61b 3c4b5cfa bbaa4868 3bb59999 3b1a0fe3 3d447ccd 3ceacd8a 3ce8324c 3c9597bb 3c71fe19 bc84eca0 3cff9f6b bd172a34 bc24fa7a bcd415e5 bcf03d98 3c5c5d29 3ca328f3 3bfa586b bc631a94 bab48d52 bc2cb9c4 bd2adf99 bd3a1d2b bd14aa32 bc82a731 bc2a118e bcdc129c 3cde51e6 bcfb92fe 3c2f5810 3d1d84b5 3c3747ce 3ccacd64 3ce59724 bce2d3c8 3cae5d14 3c54c23b 3c9940e2 3c798ba8 3c82d7f5 3bbb3c31 3c64c822 bd18a663 bd253619 3c47b787 3cc542d7 bcd13200 3c819c9d bc8bd708 3b5a345c bcb5fe4f bb3cda26 bd31ee64 bd2cc978 3c4d5602 bcb538e5 3ca8e636 bbe5cee8 bcc695a1 3c87d290 3c60d041 bd11f975 bb21de1f b984e185 bce0d028 ba6c8835 bd12992e bb1651cb bd12f386 3cc88e43 3c4656d4 3cb67683 3aa7a459 bcaaa098 3c2a19f4 3bbebde9 3c03a967 bc956f1a 3c92a375 bd10834e bd33bada bbcf2516 3c7c73a9 bc92ed08 bd0fc95b bd506d36 3be891cc bd592cae bd08b921 3b4ae218 bd07876a bd053f11 bcbe1e04 3c37e732 bca751f1 bc5c9ddf bc63e0aa 3c5dc99f 3ccf3d8e bb58274e bbaeaed2 bc14a497 3c372fde 3ca129a1 3b15d235 3c803932 bc8992f8 bc0c4f5c bd1077dc 3c125b21 bccaf98e bc479b73 bd2707a2 bb87130f 3b3fb04b 3c3bdc85 bc6cd591 bba6924a 3cd487a6 bc07521f 3c9e55e3 3cec4ef0 3cc75874 3c2a9a57 3c8a6496 3cdea31c bc07275c 3cbeeeef bc9d768d bc824d1f 3c330b8f bcd45a09 bc956e24 bb3f9a03 bafbacb4 bb46cf4e bc1bb086 3bd1f899 3cef0c89 bc878ba8 3c6d0a72 3b775962 3c8e3d6a 3cc2beb4 bc05ac21 bc4619af bc989ae9 bc6dd8e9 bca1667b bc5c89db 3c8062b7 3bbb1c8c bcaed04f 3c75ed77 bada4068 bb602bb6 3c0ee976 bcc82891 bc0b6c76 3cb7a09d 3c9a98b0 3c854c52 bc16b180 b9d90839 3c9b9233 3b59ad28 3c86e267 3c5ac21e 3c3cf8a4 3c53865b bcde7646 bd0a417e bd1e30b2 3cbaaef5 bcc64140 bd041714 b98e02d3 bc3d55b3 3bcf0345 bc64b3e6 3cb7074d bd1bcac5 bd2116fb 3ccfd8d7 bca3eefa 3b787ca6 3c02b9bc 3a980d1d bcd00386 3ab11d25 bcd549f8 3ce3a56b 3ba5c814 3cd0fdc1 3cd3ddaa 3c9a8ba2 3c99b767 3ce12312 bc8cfe36 3cedb688 bc010456 3cc8f2b4 bbafae36 3c4f1fa2 3caff0b2 3aa33cea bc449caa 3c1b6572 bd22af51 bc09ac96 bc43a772 bd018d10 bbd2d7af 3b5c841f bd21d1ca 3cc95d70 3c7e84b5 3d02816a bc7a3d6d bcd074db 3c91fee0 3d1569ce ba67cc88 3b32bdc9 3cb1f50d 3d4343f4 3c1e9e1d bc9bdc2b bbc035f6 bc871c7d 3cc5c2c0 bcf9d922 3cab67c9 3c0ac2cc bc06f410 bc5e8a2d 3c6e560d bcc9e825 bc964b96 3cd5b69a bc96d501 bb1764ce 3c7cc52d bd37cefc bc80ec0f bcca0780 bd125ad2 3c9709ff 3d01288d 3c9b0f47 3cac1b22 3db7b03c 3d8f954c 3d9d86d6 3c1b7746 bb5749fb 3cfebd7d 3cdb0c3a bcc2eff1 bc0f3362 3c469cfb 3c6b0427 3c88bf7a 3ca40364 bcaa8863 3b2e43f9 3ccf2efa bd099685 3c853c5c bba31399 bcd40393 bb799b25 bd6488d3 bd2964f6 bd2603d9 3d02fcbc 3cf85d09 3dc78806 3d879818 3dd0173b 3d96fd0c 3dc19ebb 3ce60678 3c182a01 bbc6f14b bcde909e 3d104913 3c33f61d bcd269c3 bd020a2b bc7af37b 3a9a0b43 bca89c76 3c7ed7b1 bcb45c8c 3bb624d3 3c698e2f bd3bb151 bd82e78e bd9bfaca bce25465 3c82bc22 bcb9ef3e 3d419b0a 3dfcb699 3e089936 3e1df7b6 3e113ff5 3ddaa866 3d99a7d1 3d984aa6 3c53e861 3cb69862 bb9ee011 3c10b987 bd5f48e4 bd0a02dc bd2b3bce 3bb8bdd1 bc4c4dcd bd094e6b bd019200 3b9e9048 3ca5d939 3c6f6728 bc024964 bd90671a bb929b23 3c5fcc13 3c8679a5 3c6f4c54 3db15229 3da72c00 3dddd4d6 3def774e 3d8f0c78 bc51eb9a ba74e60c bc5e5c59 bd16a3c9 bcdb9480 bc3f4104 bd19ffef bd0870f7 bd4d4946 3c66058a bd16f776 3cb97ef7 3c9b7b8c bd143441 3b3a31c1 bc4bc751 39736804 bc160bb6 bd726a73 bcefb9be bce0ffd6 3d89c11b 3ce2d273 3d6c4db7 3e0e41c6 3d803307 3c1d8720 bc9e6fb6 bdb481ec bd869b11 bd8cc2b8 bbc6f219 bd50bc53 bd5ac8b9 bc98bcc4 bd46c67f bd957c0a bd413643 bcb42027 3bec5ae1 3cecdfbd 3c33f15b 3c70ea93 3b10ce9b bcbeb435 bd098c54 3bd83b0e 3cd97a64 3cfe6feb 3d8bf42c 3dbdfea9 3ded64a3 3daf6a5d bd047979 bdb16724 bde7ac7e bda6cc13 bda9a36d bd9e9a29 bc080f48 bd99fa3e bda60614 bd8d1a15 bdd07e3d bd6b9e9c bc51d13e bc63a406 3c63a3e8 bc6e8d31 bd0e13b3 bd13f9d0 3ccf326a 3b8c82d0 bd41ef18 bcd9ddf4 3caccb83 3d8354c7 3d9c8459 3db1f1cd 3d999b05 ba7ea796 bcb1170b bdbc391b bd26ac97 bd6fa25f bceb1f73 3c1d951b bc76d6d1 bd2f0da2 bd2e7f14 bd8ed706 bd122740 3c382b41 3bc367a4 bb1ba078 3c1eca0b bd1746e1 bce444c5 bd15ecf3 3cd401b5 bd2b2e21 3ca502ec 3d473c97 3d287b95 3cf7dec7 3da2581d 3c961408 bd0ccba4 bd6c36f4 bd035570 bc851879 3c071765 3d2c6306 3d7fdaf5 3d90cfdf 3d46530e 3c0a1dc0 3cf1669c 3cb01ced 3cc1c272 3c62aafe 3d33c774 bcda8b4b bc9ac958 bd1cfdbf ba29719a bd07685b 3c8954c9 bcf1288a 3ccb54a7 3d5552de 3da1d463 3d4217d6 3d4ba437 3ce0c8bf bb5c0002 bca0ac7d bd1db758 3d1b253a bbddb407 3d147a0c 3c8493e8 3d455781 3c6fd65d 3d667a5d 3d70f8cd bbeda46f 3d0b34be 3c822b08 bcf188bc bd0ad0e9 baf42e01 3cb61349 bd1b8567 3ba26fb6 3bee2dd1 bd1c985a 3caa5ce1 bb1d550f 3ca88658 3ceef627 3cb9437e bd0a5262 3cf6d775 bca41c2e bac6a3e7 bba1c5dd bd1db60f bcf14623 3b9582b0 bb73e50e bc5f99a3 3d77a0d4 3c99fcdc bc4bde59 3c9c4d60 bb424bfa 3b6539fa 3c1aad4e bcb41ce8 3b88f41d 3cbdf308 3a092be2 3cc2ab87 3c106e54 3cd07368 3c849774 3d3cb54f 3d05415e 3c22d7b3 bb4f8aaf 3bf1f4f4 bc76623d bd7cdc37 bd1532b4 bcde07fd bccaf5bb bb54ac8e 3c7e588a 3cdc3769 bbbeaaca 3cb630cf 3af8af7f bc137058 3cb69764 bd18308d bd116ac6 bc5b0825 bb174ddf 3c9580a5 3b9fb7b3 bc062339 bd3d7365 bceb6a7c bbd2cde5 bb11c036 bc5ec563 3b43eb35 3c6f4af3 bb8abc7c bca05dc9 bbf8c5f6 bd140925 bcb30233 bc377a35 3d1ed60f 3d1a08a3 bc6b533d 3cd522fb 3d444350 3c792d29 bc9524d1 bc8cb2f5 bd0c0cb5 3b2a53ea 3bafcfe5 3c016a27 3cdd4790 bcd366ab 3ccb05a0 bc956630 bcca852e bd1550a2 bd32a026 bc9100be bd0a4781 bd43beb3 bd97a940 bcabea8b 3d16c729 bcc24e03 3b1c33e5 bd7ea74f bb84dbaa 3d293bf5 3cf5c7f5 3ac1f7cf 3cf4b883 bd0da54b bb185782 bc3aab8e bccec20d 3b48d2ce 3bb55eb4 bcf7e26f bc152e71 3b8e39b0 3ce126ce bd0ee23b 3c7a023c bc6f8b69 3b1098a5 bd5f998e bd525027 bd65d70f bc940081 3d2fe640 3db98ba5 3c48f3ff bbc62fb2 bd46ef38 3c99f117 bc4c5813 bd221e04 3c9ec2fd bc1a00bc bd11c092 bcfb5abd bcbe579a 3c21c74c 3c264840 bd0b5b29 bb23778a bd0a6e7d bd0d9834 bc7a7b49 bc495303 3c1a2dd0 3c078a50 3cba5f20 3d040b0e bbe4fd3a 3ac15e1e 3d9e0527 3d54765b 3d6b0765 bd087447 bc9bbef1 bc8b1178 bc3f7d88 bc8566ea bd386f3b 3c797708 3bedf972 3c9f49f8 bc48a84a bc88f405 3b9f31f9 bd0bc26b bd12b657 3c88347a 3b518b42 3afc96ed bc149b9f 3c7bb832 bc742a9b 3bfaaff1 3c7e6716 3c36146e bc54c805 bcedc6d7 3c6dd5aa bab81c75 bc344839 bd41c1b9 bd86f4fb bd1c35d3 bd7d80a7 bd59fb7a bc0f38f9 3cfdaf3f 3ce240e5 3d0c8a2c 3cf3c5ea 3d174b17 3c0e1e07 bcd875ec 3b8673fa 3cd0dada bc8bf842 bbc3811a bd0ff2de 3cb07247 bcc3262f 3abc3150 3bb9ff7a bd04b479 3b7c3137 bc2f2c5c 3d205aed bd2dc689 bc9f1d5b bd755889 bd272450 3a0d6fa3 bd268748 bcbae753 ba6258b8 3ca309c3 3bef854e 3ce80f74 3c680ee9 3cefa334 bc83708b bc8b66c6 bcfc3a3b 3b575350 3a9b0e50 3cf0937c 3bbef976 bc5649e2 bc39a5a1 3cb016b5 ba8a953a 3c0d43e4 bba8255a bc42406d 3c084d8f 3bb479c8 bc38792f bc50eaee bd58ba4e bc8acb8e bccf2ce3 3cb6b3c0 3d023022 bd193bed bc7e6669 bc9f50c0 3d1df474 3ccfa6ee bc980226 bc0bdd61 3cab30f6 bba904b0 bd155dde 3bf0c283 3ce5ab7f 3cca68a1 bb38d4ea bc884d9a bc4660c4 3be9eeb8 bbbaaf32 bd4e4217 3c1f8270 3cde7183 bc332153 bab0eed3 3d6d53b5 3cd81c65 bbf90ac0 3cd25ec0 3cddbe45 bc64a8c7 3cbf6691 3c6ccda5 3cd85e9d 3d34ab9d bb00f4c7 3b4296c2 bc4ae63e bc36e006 3c0e973e bc9697ea bbf9b58f 3ccf1630 3b1d0b08 3cc87f4f bcba0536 bd4d9b39 3c1bd81c bd6eec23 bc3c053d 3ca2f5d4 3bba2f92 3cd604df 3db2e8f0 3cc12283 3c6ed4f8 3b2c2f61 bcf6382b 3ac6c29c 3d37b4bb 3c86bbad 3c8838e5 3ccf677c 3c0ae30e bbe445a6 bc7ecf0d b9fd195c bbe3518f bc211532 bc65c077 3b786ab9 bcd7f4c3 bca76b65 bcf25e6a 3989808c bbc19ff4 ba14c9a2 bb971fce bc99570b 3ccd0a47 bbf168f6 3c7665b3 3d93fda2 3d2934c3 3d8d3fa9 3c98d217 3d6e75b6 3d8055d2 3c5a5965 bc5ae7c4 bb47538d 3c816048 3ce4498f bd0890bc bca878da 3bfaea65 bc5db61c bd0de541 bc84bd10 3b6149a0 bd32d72e bcbf1a97 3bdd060f 3b2e7a14 bcc0a2fa 3cf6fdbc 38f6a247 3cb145f4 3c8f1e2d 3aa5fc84 3d592f86 3b97260b 3d81167c 3cd1f588 3d325068 3d98b301 bb82d01b 3bf0fcc8 bc0dba49 3cc3f8ec bd016017 bc452792 bc99e670 3cae46da 3cba164a bb85d503 3c1806e6 3cf91d0d bd0bd6b6 bb2c9611 3cdf3fa6 bc43f083 bcb582da 3d19f763 3d295aef 3d06af11 3d214f3d 3cb50bba bbebd395 bc237894 3d187a91 3bf88f30 3d3f1662 3ca7384b 3d03b5b3 3ace96c7 bc41c6eb bc948f44 bd0e3e46 bd1f3412 bc445025 bd105492 bd231671 3c4f696e bca59f1c bb9c543d bc624350 bcff763e bc7d912c bce08f51 3aa2e1b8 3ce27e18 bc5bea53 b9c1bb88 3c5ded4e 3c20d72a 39ae9362 bc80b4df bc50c02e bc19767f 3d00bb51 3a82ca6b 3c8ded6b 3c693754 3cc4369f 3aa26e8c bb89ab80 bc74c71c 3c901ba7 3cc3d87c 3ccd1ea1 bd087df8 39997921 bcc15ca2 bccf27f0 bd064f06 bc7f28cd 3cee9504 3c8ec5b1 bcd85fa6 bc1ae217 3c557a62 3c93db28 3cbddf93 bca8f40d bc85e1b7 3c895134 3bb2fbb3 bca61755 bceb6b40 bb8abce2 3ce1e532 bc83adf5 bbe77739 3c352ce6 bd00bafd bc863087 3b35b8c7 bc950fd9 3cce812e bbea8412 3c4f5480 bc0e644d bbe5dda3 3ce7417f bd03c8ed bce0758a bc88d51c 3b1fcfa9 bc82a5d6 3bc7c48e bcb2ec18 3b61c74e bd1b874b bb406f04 3c6934bf 3aaa98c5 bc9d0118 bc8451f0 3b9c3c88 bcd936c1 bcf0ec3c bb2dac7e bd037a02 3bb9357e bccfb9ce 3c8c9af1 3c9569ab 3cd517d5 bcc914e3 ba1db712 3cefac05 bc664bdd 3bee69ba 3c8685be bb8e7b88 bca9e7b6 bb0932c7 bc516872 bd309fee bd01453c bd390040 bd29ee07 3c6f3c66 3c2dbc45 bd07dbe4 bd2bf653 bd0da84c 3c4e70ac 3cdeb60b bbe65f21 bc69ced3 bcf8f854 bb642cc5 3c8d4640 3c70b7bb bc89924c bc854dc1 3b540a89 3c3433b5 3cbe4fbc 3afe9945 3c89e37c 3ce251e9 ba67b276 bca5f8a4 bc375b03 bcc8a534 3c1e0e1a bab72c3d bbdb7d11 bd376154 3c18d398 bcae050d bbc724b5 3c7851bb 3baa1d38 bc56cbc1 bb6533f6 bcea1033 bc8a797b bc34127f bb01c137 bc359233 3c8ae67e bbbc1793 bd017041 39f94c39 bc760df6 3c845c9b bbca524a 3cbc5b45 3d07e31c 3d08d486 bcbce946 3b0b4500 bd00b553 bcc25ad6 bcee38ee bd1441cc bd3f4199 bd346e7b bc18b64b bd02818b 3cfdc006 bcb5ea17 3ceb826e 3bbdfe1a bcdfe14d 3ce2bef9 3c1aae0a bba82b0d 3ccac031 bd137a35 3c040ffc bcb820a1 bc7dc44d 3a67cbdd bcae8440 bb7bce10 3d3a5b82 3c961075 bc12affe bb7ded96 bd849013 bd2a644b 3c8a4a06 bd06248d bc8518a7 3b92e47d bd2cfac4 bc1c2286 3cc5c5ec bc05439f bcfdaecb bd062d7f 3b5f1145 bc5a3709 bcd15e33 3cd7d5ba bcc4a66b bd0a7cce 3b4ae257 ba852d58 bc002f26 3cebee36 3bf7a00b 3cbc6d59 bc42dc53 bcc41bd1 bb8ab165 bc3aea93 3b38d6f2 ba4b7a2b 3c1d4a98 bc91730b bc32c23a bd36ccad bce6f410 3c547cd5 3cf8af31 3cf5cecc 3c2cbc24 bbda7cdf 3cc96f4a ba223324 bb624932 ba466de5 bce3e810 bcd498ca bd5187ed bcb3f647 bd864c44 3c5f8107 3c42a3e3 3cb44033 ba21934f 3c2aad85 3cf5c08b bc4d5d1a 3d31d5f1 bc0a92a0 3d10e569 bcc89626 bd074428 bd21058e bc923290 bb12532a 3d0d83d0 3cc7a318 bc4301ec 3cf96096 3cd96c49 3c4090ff 3cff286a 3c9e1f80 bbcc92b3 3ae40ec0 bd328ca6 bc282766 bd31dc6b bb9bb81c bc6ef3a4 3d218741 3c7d2264 ba2c1e83 3cdfe060 3b23c591 bbc4ce4c 3d1ccbf2 bd458ab6 3cc81221 bd1660c4 3c9ef848 3c0c8cd1 bca6ed66 3c7fc8d6 3ca64363 3d25021d 3d00ce7f 3c9da096 3cbf5e11 3cf9475d bd177ac8 3ac5e9a4 bcf43a22 3b8cd45a 3bc29f3a bca80683 3cafe89a 3bbf58ab 3c5118b9 bc20430d 3c9f8dbf bc1e927c bc8296c4 3c9a3cff bd078201 bd2d36dd 3d1c1a2b 3ce9b59d 3cefefce bbc8bd33 bc8cf146 bc38c576 3d04a4ee bc642b81 3cb66684 bd0d8b71 bcdf199d 3ae920e1 3a2f70ee bc880a98 bce662d3 bc95f1c9 3c20240d 3ca40a49 bb12d02a 3d06acfa 3c8dd211 3c88ffe1 3d7825f4 bd32b14c 3d38e5ac 3c625b18 bd083bdc bd1d3b08 3cb49b51 bc022dd3 bcf14835 bc409ff2 bb23d7a0 bc44c47c 3d26cff3 3d0619c6 bcf594d0 bb11a4aa bd01e712 bc2a8012 bbd00806 3c965b61 3c229c35 3cc9f4d5 3d27f0c6 3bcab47e 3d258fd5 3d90c56a 3d00e0d2 3cdbd201 3cb01ec0 badd412f 3cdba6ce bc23029e 3bf1ba6f 3d1a0f93 3c695c42 3ce28c31 3c50d747 3c4143da 3c917de3 bcbd7fa8 3b7e8b2d ba21d102 3c1720a8 bc4ab943 bd0c08d6 3cd4164e bcbfd5ba bd27b74f bc5d6a43 3c9651e9 3c882bd5 bba115fb 3d1cc614 3d00caa0 3d92faf5 3b8c5560 3b9d20ed bc9e40bf bd3c82c6 bc9f2310 3d38c734 3c8218b2 3cb05653 3d07b71d bc386a5f 3c429fad 3ca1d17a 3c9d459c bc6b2f60 b87db25c bce1b04d bccd228f bc3bcc28 3c94c3fe bb8949ee 3c663142 bc996acd 3cc33623 bcacaaad 3ca8694b 3d45e3f1 3c7794d8 3cd158e4 3c70ab9e 3d4406ed 3c4f3cd4 bd4bf5b8 3d108386 3d3f6406 3ca3ca54 3d125b97 bca1ff73 3ce59f41 3d19ae1d 3c35984c 3b8cc9e5 bc99ad67 bcea700a 3d112291 bd12a867 bc873343 3ced14da bcb3db29 bc030ebe ba3022c8 3c991903 3b2da08f 3d47de86 3d1c2bd0 bc823ea1 3d4fce7b 3ced2da1 3b9d32cf 3cae8ba9 bd7eb11e 3cfe5af1 3d63b7c2 3c8b383c bb40da7e 3c37c585 bc8544ff 3c991668 b923934a bd5dbcb2 3c4ff227 bcba0ffc 3b9d7562 bc479a45 3cadf92f bd0586ed bc83d0ad bc0aaa17 3c790efe 3c8cbc06 ba514cc3 3cdbfc9d 3c9a75df bbaa00c1 3d603412 3d70abf1 3d39f715 bca2a4cd bd9a5def bc1e3358 3da348bc 3d62df1d 3c5387a9 3d1a0e1f bc8d4543 bd5657b2 bd4176af bd702c94 3c4d5fbb 3cd0675e bc550c0b bc1d3cf4 bc1c1039 bc8a3826 bcf00b2f 3c2bed90 bbbfe53a bc537423 3d0a557b 3b652da3 3c961447 382f3b8f 3d619808 3da23093 3b912bcc bd81a2e8 bceeef73 3ca2c539 3d35c520 3dac3c89 3d245246 3b6bf2d8 bd084b85 3cda570e bd223c19 bd4d752c bc10c5bc bb5a0714 bcead524 3cd33e14 3b0671de bcad58c9 3c029e51 3c9f064a 3b09e011 3d351383 3d891b5f 3d18ed17 3c477083 3ca0d4f1 3d448a35 3cabbd46 bd3aa1f4 bd8a3174 bd4a7ae6 3d46a406 3c5fd7cc ba1d9df3 bc43f052 bd049adf bcb4bc8a 3b966536 39d72f33 3b8e778c 3cd14ca4 3bc381b3 bc8dcbac bba68ace 3b57e775 bc70edfd 3cc44a27 3c21087f bc405513 3d09a6da 3d8539b1 3d53e13e bbcab48e 3d5524ec bbcb8181 3b82bd8f bd635fe0 bc026c2a 3cf02590 b9e483da bd05afe5 bb97830b bcf3bdfe bb89bb1b bd16b6ef bc25d723 bcdfbffb 3c810f87 3d1cac26 bd103501 3c51124f bcc3390b 3c0bd9ca bc31695b 3c3024e2 bd003ac2 3d10597d 3d22fd6c bc20c06c bcf50f53 3c2e225c bd83b682 bce0189b bd83a7cb bd948fd5 3b3a010c 3cc622a7 bd099935 bc88f516 bc49c837 3c7c0b52 3c911024 bc1dbfda b9da6e45 3c2e6f80 3d51a466 bcc184e8 3ca9e697 3c870c6c 3c3d3a6e 3c0d9e8b bd017af8 3c45827f bc1cfe23 3b742d59 bb522dba 3c0d808c bcd0bd42 bc88f260 bd7387f3 bcfdef3b bdbf65fe bcde86aa 3c426a68 bd07d938 bdb0e5c9 bd540cf3 bd0069c5 bd61149b bd1f2e7c bcc6c3b0 3b4686a2 3d54bdfd 3d61959b bc02992d 3ca12a8f 3a656d03 3cc0227a bd063846 bc9fc7fa bc054db4 3ce7bcf1 3d02e5b2 bbb5bb45 bcee206d bce14331 ba522ed4 3c9faa96 bd274a01 bc49d803 bce97193 3c17b8e1 bd9feed8 bdad25fb bd42f110 bd45a016 bd069b41 bbbefb49 bd06aca9 3d4d8a0f 3d4af306 3d6aaed8 3c64dfd1 bc016868 3b026b6c baa73236 bce5f937 bc6319ea 3cc20a4c 3ba4e894 3b442276 bccdb774 bc19b878 bcbc6f31 3ba4a1d7 3c1220e9 3c387aec bbba0d53 375841a8 bd3733ac bdacd1f6 bde4cf40 bd8e6835 bd6a0535 bda3d3d2 bbf518fc bca27790 3d3964a5 3bad0f4b 3cdc99ae 3be08e2b bd01e51e ba2ce17d bce83c5b 3c27182b 3ca1a544 bc083a65 3b94dfb5 bcd2b3a4 bbe48969 bd751737 3ce5bfdb 3d12ca8c 3cf578d9 3d4f23dc bca3c042 bd36695e bd4cf993 bdb55663 bd81d435 bd34ca5d bd95f654 bd12369a bd0793da 3cbfeae7 3d86a69a 3d94b3bb bbde359b 3ca68869 bce7fabc 3c1d3b09 3c8c055d bd11b959 bce13b35 bd0b0413 bbf7c09a 3b9d0edc bd1f8d57 bc954ad8 bca1e05f 3d203b00 bd0dcf4e bcad8023 3c35cd74 bd0c65ca 3c2214a6 bd385d51 bcc7838a bc73b271 bc1f2033 bbf2c42b 3d321b3e 3af82310 3c395725 3c303ff7 bc92bd4f bd09743c 3c32357b 3cfbd1c1 bbf780ac bc815d3e 3c56fc3c 3c977640 bd0ad476 bca34489 3cf77991 3c82bede bd0eea72 bc6d0517 bd333fb4 bcbb60e5 bb279a92 3cc65dfa bc369e1a 3d3e40d5 bb4faf92 3cc0af6e 3d551993 3bd6ce02 bab9bfc2 3b9d1569 bc0d9e5d 3c968584 bcc10cc2 bcca2cf3 3ce75ecc 3cc327a5 bca81235 babeed43 bc3e420e 3cc88fe4 bd09b5e4 bcfaf7a3 3ccd7e66 3c3f03bf bbe2f353 3c87d510 3c7a291a bc7e45fe 3d0e4d3d 3d283b86 3bdb86e3 bbcd7825 3cc9acf2 3ce78862 bd0056b7 bd10a411 bc167862 bcce77e3 bc400974 3cdcfb9b 3b9d920f 3c999d75 3bc621a1 3d0341a1 3c499ae0 3c050dbb 3cc752a3 bc84092b 3ce4069f 3a94e284 3cf46eb4 bcbccd57 bcd1765c 3cbff92e bcbabc46 3b66ae6c 3d017024 3bcda267 bcebe7e7 bcbe644e bc9d7ff7 bcd9719e 3c64233a 3ae82067 bba650ed 3c07fdce 3c8be030 b9974d66 3ca51b34 bbe23789 3c39c540 3bad7f19 baf83bb5 3ce6d2ec 3d15862c 3cfce28b bbcb988e bc0e7c90 3d010274 bc58f89e 3bd2e2b5 bc8d0ab5 bbd2f70a bc2a9eb7 3cc92a67 bc4f5709 bc4d702c 3c8f8145 3a41d411 3bc67ec3 bcc0b9f3 bc50c9a2 3ca632a4 3c99e093 bcf149fe bcb16099 3c52b285 bccb678a bc81e62f bc8c80fa bcc53713 bc6c8cea 3cdf5167 bcf234c8 3cd43136 bce2ed3c bbddf8b5 bc13eab5 3ccc0063 bcd2a919 bc71cc3c bd0250b4 bbf9ce89 3c882c17 3d12b658 3d0752a8 bbd9a83b bc82e910 3c2b474b 3cd4685f 3d0ba38b 3cda47bc 3b0623cc bcd744c1 bc97d516 3cc4f447 bcde6d6f bcbc3a7f bca0c241 bbdca966 3c9be1ac 3cdcd3c5 3cf34170 3c9b4965 3c2e1d0a bbd6751c bc99fadf bc78bbcf 3ad05c7a 3d072030 bc21b10a bb2e8335 3ae70c3c bc54f078 bc640ead 3c4edb45 bcb714cb 3a0e34d1 bbbea2e6 3c2ad005 baec6831 bc806501 bc01669c bbc4f1c7 3c9005af 3c2ed559 bc064e7b 3cf6e455 3bbd8cab 3cb2c27d bc2e5422 bcdd72ea bcfebab3 bc1321dc 3cc73224 3cca770c 3c5a8cd7 3c4d7b4a bcab2df3 bbf98337 3be52d16 bce48e51 bceecbe1 bcc5676e 3c5beabc baec515d bb6a358e 3cc8461d bcaa2284 bc9ba4d2 bbaee2d7 3cc6dfa4 3c080d66 bce1ac94 3ce1152e bc90b67e 3cf5f082 3c7eb09d 3c42989f 3d01c43a 3c7ec597 bd031d19 3c853a17 3d13472e bc509bec 3ce14cc7 3cf9ce2c bbb9ce76 3b48e175 bad8a392 3d0bac7a 3c8ee49b 3cdf0a70 bceb8711 bc3a168b bcc256f4 3c2b0052 bc30d207 3c537ce5 3cab3081 bbd876d5 3bded936 bcbd98d8 bab2cff3 3c08bc87 3ce2dc87 3c89fecf 3c424775 3ca48df2 3ced57dd 3b953e9c 3d0e8bff bca4082c 3c5da1ea 3afb8899 3ce44ac2 bcf9f6b7 3ca68788 bce03632 bbf7c1eb bc09a41c bc1683fa bc6c5c44 bcd49f9e bce50429 bb8eb2fc 3cff6187 bbe4af54 bcaccd18 bbefd582 bcd6d268 3a4b4788 3d00c768 bd011867 3cb112d8 3ce89fed 3cdef5ed bc9d214e 3ba5814f 3ca91b13 bcebfddc 3ce78fbf ba804bd9 bced7dd3 bbe44f91 3b501244 bc4a8a75 bc4182a1 ba9fb5bd 3c6a5c0e 3c937b66 bd01fde8 3a1ba2d2 3c3aa491 3cfc6482 3ca524a2 3cd950ea 3c567637 ba439fa0 bc88c4cc bc42aa5c 3c659343 bb99918a 3d0da1fc bca52c41 3cce611a 3cbccffc 3cc23b68 3ce71133 bc9c3e96 3cb34439 bd064b38 bc89581d bb716b13 3cfe32ee bbaf2a1a bcd263c7 bcefac77 3b3daa37 3bad40b9 3c3d482f bbe2bab7 3c6cf888 3bd4d44c bbd5eae2 3ca8fbc2 bcb945b6 bc7d49da 3c39e734 bbf1004c 3ae0394a bc2759f9 3cb1a0d5 3d0c15ff 3cf729e5 3c18f06b bcb2d6c0 bc2e51e6 bc5e75be bb99a813 bc822eba 3cb6e1c6 bd02584c 3b402b4d 3cdd0d6a bcd4bb07 bb8c2daa 3caf4718 bc15d2ac bc5df4ca 3cb147db bcb0316f 3d1a54ed 3d0befdd 3b8b2d96 3c08842d bc787a71 3c2fce10 bcc4e768 bbdbe764 3cf53622 3c3de86c 3cd128e5 3cbb97ca 3d08b241 3c182874 bcc6c6f2 bcfca1b9 3cb6e3cc 3ced7c07 3d10a930 bcbc5a5e 3d05bccb bc375173 3c2ceb7a 3cd6f2ae bccb483a bcfe5f57 3cd4773e bcf54c98 3ca10e0f 3cbbdf98 3ce7e980 3b66e38a bbcddb34 3be86680 bb2093f5 bcfad5ad 3c2bc5d7 bc9af2e9 3cdc452a bc88410b bbf4a76e bce18982 3d050e4e 3ca8ea68 3cfd8255 3ca258fa bcb66e40 3d0862b1 bb6f86f1 3d091698 3bc56c18 3cc0883c bc485885 3c822d2e 3b0f8323 bcd1145c 3cf45156 bc8666d7 bca85c72 3cfc260d bcf1af1c 3c707e98 3cfd6506 bb4a5baf bcfbd71e bcd75ebe b95a3287 bba28607 3cc59ade 3ce32755 bcae75db bc0e6efc bcdf089b 3be23eb9 3cca88f0 bc3767cd 3b1ee09b bae9d4e8 bcf160b2 3d109e67 3c15b046 3d0f2ba9 bce475bc bbfa2fac bbd7228f 3c68b788 bbcb0c8d bc8f1d69 3d00542e 3cf6c3ea 3d19538f 3cc1c05b 3cd0a6b2 bcaabd60 3b99e3fe bc1a3eef bb0cf92c 3b3b2f34 3c10799a bca5616c bbacc342 bc8bd8f7 bc1eaf90 bcb4a710 bc8d5b0e bcc0ffc2 bcc227a1 ba873a7d bce4aa28 bcfe5acb 3cdf663e bcb8fdb1 3cdedf22 3ba73faa bb20987a 3cf42121 bcca308c 3c9f310b 3cd4b475 3cf9936d bcf76dec 3b8a2380 bb0f9357 bcc6069e 3ccf2ef5 bbac1aa4 3cc66bc7 bc9689a4 bc837908 3c489fc1 3b57b9ef 3c9d6d2e 3c7aeca5 3ceb9f85 bccc13c6 3c1cb515 3ce5ef2e bc5c48d1 bc9cc5e6 3d1833dd bcda692f bcba9379 bcdceadf 3c3a045c 3c372981 bce61a44 3cc5905c 3c4e3b16 3c6e00b4 bd016456 bcf3c9bb bcdc5ed1 bc517f88 bcf25106 3c95873a bb951117 bc778c45 3cee1715 3b32d65b 3b283e28 bca0774e bc1f7c0f bce83566 bc9fe582 3d170570 bca741f5 3cb470ad 3cdb39ba 3cd19847 3d005e8e 3d061dc5 3cafe730 3a515dd8 bbcead1b bcfbf794 3cac7627 bbac1604 3c04f68e bbbb5094 3cca285c 3b3e40f1 3cd8ec2c 3cd9d2e9 3c26bb61 bb948bf4 3c6cfd24 bcbf1070 3cbfd259 3cdbcfe4 3baa826a bb0f31f8 3c2d899e 3d074daa 3c2fcbae bc74b318 bb9d94c0 bd01e5ff 3ae3e8a8 bcefce57 3c2d25fb 3bea7c6d 3d10860a bbfef721 3a6b3997 3b2d74ec bc2a7102 bc27cf41 bc4cc0e5 bc598627 3ba599ae 3c5b3002 3ba4972d 3cd4aaab bbc85841 3c006b69 bcf23c82 3cb24057 3cef3c33 3c6eed33 bcaab4dd 3a4d9d69 bcdb5352 bcee7165 3ceef69c 3c9b821c 3ceeea8a 3ccf145b bb3d38cd 3c9ae9c4 bc651e84 bcd3f315 bb32d7cb bc933480 3d0fcb81 bcd67c06 3d0e45d5 bb91298f 3bfacca0 3cf4650e bc963856 bc765e5e 3c543576 bc25c329 3b8ecd2f 3cb35a59 3ae12267 3cc940a2 bc612bf2 3c85c0d8 3bc1f3b5 bcc66507 baa0f2b2 3c85efe2 bc9adc66 3d04bf3c bc8b3ec8 3cb26010 3bd87fb0 bc911f07 3ceee428 bbadd8b0 bb3bc068 bbfe248e bd070af7 3cb59674 bc6daba9 3ca7b100 3c717fab 3c8d9210 3c329459 3c5b260f bce3ba2d baf2ef50 bc6fbe00 3cdb433c 3c70aa65 3b428336 bcefa833 bcf20116 bcda777c 3cde7de6 3cc96f82 bce85c87 bce1342f 3d02644f 3c897663 bc9f30b8 bab071f8 3cc6ace1 3cae5991 3a767658 bc506c8a bc2aabb1 bc13bc3e bcac5676 bcc89754 3cbefb2d 3bae55a1 3c55b9aa bcc3b21f 3bd7aeaf 3cfbeb3d 3c9de195 ba4e0cfe bc63239c 3d142ae7 bc49e0af bbee5eb8 3b8f4555 bbef7daf 3aa9dd86 bbb694ce bc945994 3b44a03f 3c8bffee bd0152c2 3c75ca8a 3c0198a2 bca3283c 3ce3116f 3ccaf9b9 3c57c384 bc48f139 3c0f8c85 3c82b166 bba94ea4 bc72e03b 3a50874f bcf3a348 3cc9750f 3b7bd597 bc6e9f89 3bae0f1e bc827fce bb3a6701 bca1c46d 3c4741d8 3ca0d8f3 bc059e90 3cb059ed 3ce18c69 bcec8323 bca3d6dc 3bbf5331 bc81fdf0 3cd5ebec 3d08f5e1 bc8e9278 3bcf31bc 3b94843e 3d04b72b bcc839fa 3c5ab33e bccd1783 bcf506ac 3d003510 3ca9a8a3 bd0c9d29 3caff352 bcc5ee12 3d008a6a 3c037118 bc0f19bc 3bc20c27 bb6df315 3b29f50f bcaf22a4 3ca38cdb bcb0bbd1 3ba6a240 bcba26e1 bc85b3c3 3bdefddc 3bc2d34e bcec6784 3c494b67 3c606c41 bc614460 3bd4f8d9 bc81aa5d bce04108 bb90c23b 3cc4e424 3afa559a bcc8b17c 3ce22741 bba55c37 bcf3468c 3c5c0c40 bcd76144 3ccde986 3c1eeeec 3c53b312 bce66eb1 3c4384ff ba0de12b bba0fd2f 3c4e9d7a bcec792f bcb75b10 bcef7252 bc1d4ab6 3c954284 3cb3d7eb 3c40509b bc35335b 3b7e4e00 3c83faac bc57a27a bcff136d bba9fa55 bc53bf06 3cc0aa8a 3c4c6dc9 3bc2bb1a 3c87a3a9 bcea0b74 bc81c8ae bcd58f13 bbbd9f76 bcb4b86f 3a98db74 bc5b2c6b 3c5ccbbe bcdd9140 bc806e2a 3cdc7f99 3ce2aa82 3bd383a2 bc5ca59a bce6c4b8 3cdc1de5 3b566f16 bb541994 ba7d277b bbc0161a 3cb0fdb3 bca2750f 38e66f61 3ccc518b bbb87663 3ca91294 3c34554f bce04322 3bd697fa b9ac50fc bca3643f bc60a5f1 3d02c521 3cbeb7d7 3d11c0c3 3d11b80f 3c34a184 bc0a8f59 3c9f053d bc8218b2 3cf743ce 3d0b485c 3d00929a 3cd54d99 bc3034ea bc38a62d bc2277a4 bcead47c 3d11ed80 bc82a51d 3b00403a bbf09ed6 3c3c6774 bcdb1d61 3b7c4274 3d030cfc bc1c335b 3c197ebc 3c8e5494 3cfc994b bcfdcb48 bc506d74 bcbc2b62 bcb97a32 bc9142c8 3c670177 3cf3f1f1 3ba30234 3bb8ca18 ba877e69 bcff42dd 3d199db5 3c882b60 bcdf6194 3c3192f2 3cdae208 3cc50d01 3d0a8b3f 3d0793c5 3cfe0769 bb9bf2c6 3c4599b6 3c738465 bcde016c 3c6aa305 bc98e544 3d163812 3cd9e864 3d0bdb66 3d04c857 3d0d4ce0 bd01d326 bcdce0b0 bcde8918 3cfa4dc5 bc812d53 3cd8242b 3c8783b9 3d183137 bc6f3afa 3c1599c7 bcd6a23c bcd2fd8f bcf6dd6c 3cbe47f5 bbe9afbe 3bb0fd9b 3cfbd7a2 3cadce13 3c5e4c21 bc8653ff 3cbf6318 3d12514e bcf32e8b bb9fa533 bcc580ab bbc7e379 3c27aeee bcf84465 bcc2ca8d 3c6460ba 3cece48e bc5a1193 3ca1072b bcdc182e bc585bd1 3cdc8d60 bb7df333 3c7ba4c6 bca77617 3c455fc2 bbe958c1 b90a6422 3c5e32df 3c1c7ff2 3ccb56e9 babc0272 bc261207 3cdac582 391d40ec bcec5aa3 bcba7f3e 3cb65d89 3c8ec224 bc82546b 3cd2c97c 3c906e74 3c82dddb 3b21930e 3c8d8be5 bbf0f7b0 bcf1111e bc0a42ba 3bfc76ce bc8b6996 3c71836f 3d06055b 3c6ff743 3cc00348 bb3308f8 ba617695 bc19a7c6 3cff6194 bcd1c4a3 3c820879 3c71092b 3d06c569 bb6c22c4 bc6ec76c 3d0ddf44 bcc5c3e8 3a8657a0 bcab0040 3cd2dc4e 3cc45bb4 bc939d18 baf401ae 39978a33 bd0344ba 3d06996b 3c7937c5 3a23ae98 3cf7b5e9 3c957959 3c85ebfd 3c76add5 bc3d0fa3 bce2162b 3c5f3ef9 bb07743b 3c969e57 bcc9f5ce 3b80ab0d 3cdb85ef 3bdaa80f bcc4e578 3c353e1a 3d108bba bc2265a8 bbaa5af2 3cad7cd7 3cbe90c7 3c5c07eb 3bf81e9c 3cdaaa17 3d08f9a1 bcfa76d5 3cbcbf63 3cde162f 3ca4f001 3c6d639b 3c4e97f3 3cd7f2f4 3b52b77e 3cf9788e bbd522c6 3c8f7dd3 3cd7caa6 3a017ff3 3ccf805a 3cbb7c4c 3c60202b bc4bb652 bcd1e8ce 3c6d9f7f 3cae5ec1 bcfc375d 3784730b 3a271c36 bbe0ad54 3cad7387 3cfb5399 bc3e564c 3c733e5e 3cda7817 bb0bf768 3c9f6e79 3d0db3c7 bb745f2c bd0ac03d bd039ac6 3ce2feb8 bcc3ab85 3cfe5451 3bb69292 bce886ae 3d070e0f 3cd1b576 bc38a3c6 bbfd25ee bc9b2f3b 