16
mlp.0.weight 200704 b99bb2db 3c96c2fa bce82496 bccf9a61 bc599cb0 3c1668c1 ba3cf2ca 3cdefe0c bb4a8ed4 3c1468c7 bc2ae464 bbdec01d bd06d8ec bcbba97d bc68db63 3aa1c166 3c5e0c5b 3ca8aef0 bcbf4432 bc75f42f 3c4bf582 3ce990df bbe928ac 3cd270bd bbb6e43e 3b6bd570 3cfeb514 bd02d62d bcb1a215 bc0f4430 bc5c39e2 3cf312eb bcb6e2e6 bc81fc38 bcc517f9 bd041db6 bca553c7 3cf166b4 3c7b53ca 3c8c011d 3b0f685d bc906449 3bc04c19 bd018c76 bcc28751 bc8ef222 3cb09839 3ca45805 bc7b2d81 bac8805c 3cb14c60 3d0bb8b9 3c5eeba4 3b96e739 3cbc854a bca62b05 3bd0a5dd bcdab262 bcc387a8 bc91d1d0 3c7e3977 3c61e7fe bca7721c 3c27d762 3c982a6d bb99ee6b 3ab44856 3c0b3636 3cb89b67 3d0a78cc bcd6c969 bc2e90d7 3c71995e 3ce24749 3ce6b14a 3ced9a32 3bd0c8a5 bcf7c61f 3b2f3894 bcb1c203 bd036ac7 3cf9e8c1 3cd5d751 bd0ca403 3bd194f3 bbbf16e1 bbba88a8 bc81a052 3c4e5dec bca8ae5c 3c47fa74 3c8b0994 3cc9a7dc 3c5bcb91 bd09f053 bcabdba3 3c9ca279 3c30c976 bcd5b9d5 bcd35d77 3cd4903c 3c6d626f bcd5ae95 bc88e40e bd1ccb05 bb45d1f0 bcd50b6b bcd8f4d0 bb02aa1f 3ba784e3 bc6751c3 3ca6cda5 bcabb9a5 3cff3e31 3cc0bfed bceea019 bc0e68b5 3ad19dc4 3bc40d2a 3c277b55 3c90f865 3bd50f9d bc24c660 3cd2d2c9 bc84c704 baf4b4f2 3b832f79 bc4ab08e bc98969d bd29d06a bc86b046 b9b2a80f bcdd6dc9 bbd87814 3cd2dd45 bb303df3 3a6aaf78 bb44bdbb 3be6b721 3cb31d8b 3d053a4e 3cb28b54 3d058c67 bb4cb49d bd0036b5 bc8c9f59 3cd04cf1 bacafc91 bc9f37f6 bce3de61 bc939a74 bc45e375 bbeff150 3d012bf6 3cf7bf66 bc4ae514 3bf8423c bd75ca8b bcd53ee1 bc9cf84d bb6592c4 bc186aa9 bd04b2d6 bcf5f380 bbce7e7c 392f2463 bc813341 3c5425dd bcfdd548 bb1b0266 3cf67517 bc7dbe40 3ce123cc 3bd5e1f2 bd1f1a63 3c2ba4bb bc99ee3f bcedfd74 3cba8dfc bcfe1018 bbe20548 bc5a0e2c 3cfd1417 3ce72190 3ce1842a bc81a085 bd246297 bd071b8d bd25ac7c 3b8461d6 3c6ddb63 3c8c696a bce223ba 38a69445 bcc7caaf bc9b8d41 bca47066 3c3c8e7b bca900f1 bb45b99f bb637af5 3c3572ce bd49f107 bd662c95 bd002269 bb60394d bcfdd7a3 3c7538bd bb1fe4ab bc4e7aa1 bc5d5c48 3c601f29 3cec4557 bc72d70b bcb7585b bcecb27d bd4b08d1 bd0f4bfb 3c4b5460 bd1dc6d9 bb91e4f6 3d061a32 3c4d42b6 3a75a5a0 bcf36a91 3c8599c8 bccea768 bc508116 bc90658f bcb64ba1 bc94273d 3bbe27da 3c1608ee 3cf05c2c 3bd884b9 bcad4b09 ba405e5b bd3daa2b bcbf0527 3c950d84 3d31bc90 3d3712a5 bc50c01e bca54aa0 bc9929f0 bd6ac17c 3b97c492 bd2fde37 bb22649f bbde060b bc907d5b 3b93e212 3ce7f2b2 bc389358 bcb2d5de bc8a81c9 bd4737af bb81bf45 bcf00bf3 bcbb9621 bb7d07ec 3cfc0a73 3ce06ee7 3cd49f0c 3ac71320 bd290112 bcebc227 3d1d7d7f 3d518bdf 3d23d762 3ae8214e bc7ffefc bd44052e bc59565b bd114503 bd287f41 3ccdd1c9 bcc6b4d2 bbbb191e 3c15e36b 3a7ba23b bcc50084 bcfff201 3cad641b bc42efa9 3c02c1ae bc530420 3d15af6d 3cfe7253 3d036739 bc3d6c53 3aaed6af bb75899b bccae60f bb92a3e7 bc6edb7b 3cedfeac 3a4ade46 3d2223e2 bb8bfd3a bce86fc9 bc910135 bd0768b2 bb9fe436 bb29394b bd03ff1c 3b6c82f9 3c6c6e25 3c5df93f bb9fbc59 bd072c75 bc4c585e bb91696a bcc5b184 3c9dc702 3d4c2091 3c85be00 3ccf737a 3ceb6e3a 3c460394 3c492946 3b94bf0e bd0bfb53 bc783c76 3c55795e 3d87a34e 3d5327e3 3d0c7a80 3c9dd9ff bd090697 bd3b562e bd37fb6d 3cbffe31 3c8a9d31 bcd172b6 3c5ae548 3cd43b54 3d0b2045 3cd8bea8 3ca60b5d bc96bcbf bc76c75c 3d2d4bbe 3cb081f5 bc2d0833 3d6d861f 3d19b421 3cddee8c bc7e43ff 3c78b491 bbbecb75 3ceede02 3b75867a 3d3ba197 3d00c0e4 3d1b65dc bca3d635 b94eae7d bd29cf71 bb4aca43 bce79c28 bd19bf88 bcea5c58 3cdc66b9 3c981023 3d03091e 3cd61cf6 bd0e6741 bd09ff93 bc5be627 bcd26073 3ce44a48 bcbb8e1f 3c5a71d2 3a8887d2 bc184ee5 3d501c5e 3d2fd15e 3d0ffc57 3d1d5637 3d4705b7 3c40bcdf 3d00f997 3d36170f bc853b89 3ae7e318 bb2e4ca2 3ba2550f bcabf787 3c547d33 3b6f7cb3 bc068ffe bc9f3d39 bc9f9c72 bce235a5 3cab8bdb 3c9db81f bc7c0279 bccf211a 3cf99ab4 3c3d1ad6 bba966a0 bccca762 3cdf152f 3d0f4286 bbb6ac27 3cd75345 3cae2d0e bc25c466 3ce48edb 3c0b7f93 bc3a3a3b bb07863a bd1a6082 bd5fa47a bd0f190d bc7ebb52 bbdaf138 3b852896 3d023e7a 3aeb67cc bcae3eb3 3aa022df 3c667057 3c6b35e4 bd1729c6 bc30bd7d bd10c5f1 bcbb771b 3c17d8d6 bd10ac89 3c8f33e0 3d1c4301 3c2da33a bd346f5d bc81e134 3cb3b8fe 3b120042 3cbc58d6 bd048d2b bd79bec4 bd89cd86 bce3972f 3c190939 bd05d491 3d0359a0 bc521589 3c2b9356 3ac898cd bcfe63d2 3ce71f3d 3c877c23 3d0101dd 3c5043ca bd102867 3c8d15bf bbbe2520 bb09bfc6 bcdf1e4b 3c10f0ee bc9aa645 bcb81c62 bc6b2585 bd0483af 3cc53f0b 3c609e51 bc075d73 bd0be73f bd33821c bd0f5d03 ba95d8ca 3cd1f4ef 3c90d436 b94418ae 3c5e09fb bd072958 bcf0e41a 3c830b8a bca28bf9 3c809f2b bcd7314e bc9c4299 bd36ff68 3ba72c0c 3b09494c 3c8f2f97 3d1faf11 3cc83037 bb31828f bca8a05e bc9988e1 ba34682a 3c41cfcd bd139d18 3bf26ac5 bce3ed0b bd54966f bd1f4b4d 3c0d886a 3cba1134 bd084647 3ce1cb63 3c8fbef4 3cadaafd 3cede760 bc9823a1 3c29f6b0 3c5bf661 bc3a3f51 3bbb3684 bc93a660 3c2c4869 3a8f4cc7 bba1ab32 3cd06bca 3c89289c bced7fed bca53d1b 3bcc3bcc bc6eb21a 3c0a08be bcdedeb9 bc23adfe bd2e03da bd2e6fdc bce11d64 3cdfa0ff bb165193 3b6af886 bc6979bf 3d0c70af 3d097004 bcd4bebe bce76c6e bcd895d8 ba383d32 bc3a01a1 bcf724dd bcbc672a bbd1e346 bca334d4 3c03d977 bbe61a62 bcea764b 3b862a13 3d26386d bd057ebc bb4a43b7 3c092489 3cc60f33 bd08b264 bd0df12e 3ca6f7bd bcb47b9c 3c4f15d0 ba29c6b4 bc0fda0f bc1fda0d 3cb3f121 3ad2d923 bd0949a1 bca5267d bc423555 3c85e7b1 bcce8a56 3cc733ee bcc3a402 bca7073a 3c49f7a6 3b158b3e 3c292b63 3a020eb2 bbe9913b bc22c75e bb52cf2f 3cf0daf7 3b365fc9 bd4df1eb 3c54a81c 3d04c5e8 bbcd8def bcc681f2 bced49d3 3bf1bea9 bb7140a2 bc96111c 3be7a7a8 3c552f92 3cdfad0c 3cda43b8 bbb165e9 bd0020ee bd00c651 3cf67533 3b3eb5a2 b99678b2 bd512267 3ca3fcf5 3ca470d9 3ca033a8 bcd07c5a bbfdfe69 bc8f8333 3d3ef554 bcaae98d bd356d9a 3c1f35ac bceab2b7 bca0fdd5 bbcaf77e bc2359c3 bd03f1c5 3ccb6085 bc8513b6 3c48d406 3cf4b6ea 3c8db94b 3b9e3380 3cedd74d 3b9a18a8 bc8e54cf 3ce9e814 3b4954c0 bd426408 bccd452e bd156f96 3ce41448 3acd5ac9 bc2949ef 3bc61bba 3d259b09 3bbfc7a4 3beb7c6b bc99b7ed 3c1ee3ab bc2a458e bbb3747c bcf5ddd4 bcf4594b 3c3c6a38 bcb89fd0 3b81f4fb 3c32af23 3b1cef2e bcb6ef16 3d06845f bca4faf4 3ce93058 bcf749c0 bc57a61b 3be9b9d4 bce40806 3c913c11 bd29999f bd00fc78 3b05d051 3cf9e6d1 3d17baf7 3b0fd570 3c4eaea4 3a394d4f 3a542f52 3d3203a0 bc3235f0 3c83414f 3d16649d 3a02d179 3cf27d4c bc270e3a 3cdf77d9 bd08861f bba3ab6e bbc72f6e 3c35ea36 3c5c0b45 3cd4d5cb bbe465ed bbab0f97 3c0520bd bccdd0e2 3c34558b bd228c97 bbac66df bb1bb24c 3c64ca3b 3c420fae bc09b6a5 bc2a6805 3d4c4278 3d1b8dc5 3d304728 ba23af04 3d135ade 3d38006d 3c1b2c20 bcf77ec2 3cc8d822 bcccd87b 3c027698 3ba26c0a bc842955 3c437f23 bcfc1227 3bfb47db bcbc0e36 bbeec2a7 bbbbd69e 3c925ccc bd03488e 3c36aba6 bc1dfe55 bcdc882c bcf02410 bd0db606 3d1bb85c baa36e81 3cfb9b7a 3d2c5f56 3d2612e1 3d146a3f 3d230e2f bcaab375 bbd1c7b0 bcb3c2d0 bca6dfe8 3c06fab4 3d0471f1 bce1f6b5 3caa23cc bc9259e4 bbdcbc30 3cdf4b0b bbe60528 3b8e26cf bcbb843b 3d017396 bb17224e bc81f47e 3cbb86a8 bbdb5229 bc515ef2 3b9126c5 3d2dc7ce bb138fd7 3cf62aab 3d446dde 3d169afb bc80796b 3a82bbe8 bc0387be bce32128 38361a40 3cd3c0cf 3cece2f8 3b4fa3b0 3bfe95ca bc7485f7 3cd44aee bc6b0bf2 bcc3fb1e 3babe844 3ca84e7b bcfe81e8 3cfe1640 3c491250 bcc76548 bbfcb347 3d03cbd8 bcc33198 bc24ba14 3c716190 bccc6209 3ca3be21 3c8f5c02 3cca1ebd bca22f60 3d0cd403 bcaa9d00 3d0b5b83 bd074809 bcfb4487 3caca93a 3b68e739 3afeca8b bc9dfd7d bc70566f bc28c006 bd0a28eb 3ac9d821 3bbf2a79 b990acbd 3c31de3e 3d0499e2 3c11baba bc524115 bc6be064 bcb61144 bcc4aae8 bbbc5c72 bbcf4d3b 3c768f69 bc74d513 3cde84b1 bcc7a993 b91c5c4b 3cfb2e15 3d0b0543 bca52d4a 3bc0985d 3b79fd77 bc861609 bc46aaa7 3c148888 bcc5dfa9 3bb1cc89 3c6fb996 bc620628 3ce7f4ee bafdda09 3c863db0 3d127af7 bc267143 3c9a8fd6 bc2174f2 bba6bad7 bbb74356 bab27eb6 bc564e20 3c34c686 3b2d779f 3cb22a47 bbd3c2cd 3b72fd72 bc4a0db0 bce69384 3c619e3f 3b8812cf bc65a498 bc42802e 3c0f4796 bbd3cd6b 3cb60825 3ade6cb0 3c5090f0 3c728a2c bc0bcd46 3c79de56 3cdac415 3b98da84 3c31960d 3bf08454 3cf7f682 bbeb4714 bc5c5e31 3cb33d2d bcdebb6a 3b984dc0 bc42023a 3cab0c84 bd0df679 3c9ce108 3d08b3ff 3beed1bd bb0a3d98 3d09e393 bc74543b bb44bd52 bc7ac224 bba39c42 3becc5b3 3b86b3e3 bbde75f3 bd0adf83 3b271bd0 3b3134b1 3c134546 3cf1fdf2 3d301122 bc56fb6d 3c1f311f bb788468 bd008ef2 bcc80c0f 3cde6543 3c929ff6 3c37c566 3c754b4c bcf36274 bbfb28e9 3ced0c0b bcb4e59d 3ce00689 3c06b44f 3cbfbd9e bc731fdc 3c7fae55 bcfbc2c8 bb1f53d0 3c2b3833 3c1d2162 3ce62a49 3d19b62a 3d221898 3cf927e2 3cff4c97 3c143be4 bb7a9bfe 3b384153 3c0e8215 bcd63a40 bb547c8c bc701abd 3b680847 3c83bcc5 3cdaec72 3b23cad5 bd08f388 bd171343 3ab3b6eb bb8b0b9a 3c4ee366 bd0ebf72 bd02b00b 3caba0e3 3cb22433 bd0070a6 3c5055b9 bcdcd73e 3cf2e0a7 3c7b8ee2 3d098d76 bd1f345f bd29000a 3c520446 3d157479 3cc31dd3 3c97ddd4 bd30869b 3a7c7172 bd210175 3c6e8ded bbef3208 3ab97411 3c9cdb64 3bc60299 bb8f7737 bd1eb19e bd213c5e 3bbefdcc bc7c9820 bcab23e6 bc5fa35f bce84a48 bce32e14 3ca669f3 3cb7b42a 3c50e69d bc85f0b0 3c1f790c bc6d5469 bd2bf321 bc30712e 3cbb5805 bcea63af bd2e6e36 bc337b61 3c8eb318 bd0601a8 bb82c539 3bd13a34 3c7118c0 3be2cef4 3ca797ee 3b6c2086 bd086ed9 bc7a1fea 3bd16e85 3cf8688f bd0c55e5 3c97fc76 bc279773 bd0b1871 3bfcee75 bc875f3c 3c327b95 bd0b0bc1 bd1ddbaf bccdf4e9 bcb287fc 3b7a4713 bc0f3d59 3d16c155 bc699675 bccc0785 3c58992d bceee593 bc5f9f03 bcbf15d6 bcb25849 bd435273 bd2b6670 bd61e438 bccff5b0 bd62b545 bc81284d 3c9ffe2a bcd0628b bcbe7d90 bc0f4892 bc1f4e25 3b9f8686 3b06b2f7 3c6a8962 bd1580f4 bb8fad10 3c3c8616 3c834b24 bbd85336 bbe36753 3c290017 bbac0009 bcde3c77 bcaeb49d bcc9d21d bcf130ec bd04e5cc bd1da4e3 bcb0ffd9 bd3402fb bb9e0ea0 bb046eb2 bc298024 bc6c51f6 bc68cbbe bb384035 3bc43800 bcd92b94 bc0d6211 bcfc39a1 3c84e469 bd0be632 3ccb0953 bc832f54 bca00040 ba167dee badfad9f 3cefd0dd 3bbbd6bb bcd30d2a 3c11a75a bc00f89f bb0dd173 3c97f66a 3cf20a0c bcb825c1 bd071487 3b0dbf80 bc1b9790 3c244cff bcfc138d bd0b61d8 3cbeb576 3c59bd07 3d027127 bc6f5d16 bcb77c02 bbf7de23 bd127fd0 3b92da51 3cda8015 3ca82993 3bf4e7d3 3c925765 bced14fd 3c200853 bd5b9e93 bc99af2b bc5d6366 3c9bd0ad 3bcfe13e bb12e529 bd1a6b55 3c0fca37 bd0c108d bbe35fa5 3c3e3642 bb7d8429 bc2636c5 bbb8cb60 bcbdaa33 bc5787ee 3cb2b781 bc65eccd 3cac51b2 bc84a7e1 bc305530 bb9a19c1 bd03b129 3c434d4a 3b49f7d1 baf61d60 bca3eccd bb89c787 3bee5871 bca40a2a bb0337af bd3bbfae bd59efe3 bc48a183 bc8ab6ac bd0cbecd bd016878 bcae09ec bc2cfd45 bd2189f1 bd1f9adb 3b9f4892 bcbbc1c3 bd052478 bc5e60ab bbbd7500 bd012b61 bcd0cc9c 3a4d2a36 bd051450 bc0b45d0 bce75780 bcdfef3f 3bc8005f bd49575f bd6d2bc0 3b860b86 3af209b2 3cb15037 bc138a1d bd52da20 bcd93430 bc2506a9 3bbbaec1 bd461eeb bccd597b 3ba30542 bc563ad7 bca20910 3cb818a2 bcf3e613 3bd253ff bcdb9cea 3c89f89a bcf34172 3ca73d0d bd02bb58 bd12820f bb66f9d3 3c7cd25c bce9cada bca32a6c 3a619574 bd1a80fe b95be5c8 bcbeeec0 3c552861 bca0e17e 3b0de57e bcafbd3d bd4ea94d bbda27d2 bc28f7ec bca189dd bca35da5 bb529042 3d1a8bfa bc8d8e21 bcb473e1 bc072d90 3b030287 3c15571d 3a179ef7 bc0f6892 bc8e7877 bc2b5184 bccba67a 3cec0e55 bcbfa323 bc9031e7 bcfbc070 3a70ca32 3d18b20e 3d21974c bc9c1e7c 3bf70fc1 3c5730a5 3b843dc4 3b87dd0e 3b0101eb bd000162 3c8ab183 bc78b895 3cbbf5a5 bc0b70ef 3c76affb 3d1b37f5 3d124044 bd0095f0 bcbc513f bc739cca bcba4910 3d127b98 3a29d3b7 bce206e6 bc605c72 bc41ae65 3ca83d10 bcb4389a bcfb5740 bcbc0573 3caa9eaf 3d4c1a4b 3be231ea 3c715a73 3a55e630 bb9f35a0 bc9d985d 3ccc791b 3c47c2ea 3ccd3024 bc7d17a7 3ca4e60b 3ce87dca bbae0afb 3cf71ee4 3d0dc581 bc621dde bc24ebc3 3c84e525 bcca3c81 3c7aef31 3c73cb4f 3d00f971 bcfed16b bd38a2cd 3c4b9699 3b718804 bcfccf3e bcbcaa3c bd005093 39a02ac6 bca4b031 3c7cb128 3bc479fc 3cacbc3e 3d75f844 3d183c99 bc1d27da 3d29f49d 3d0493ca 3d32e187 bc318c58 3cf0ceb3 3cf4eca7 bd0403da 3b56f683 3cee1827 bcb27162 3c2fbba3 3cac564f 3caa3c40 3d0adb88 3d134955 3d1ef3fc bc70141b 3c4d86ce bcd2af8e bc4affc1 3bf79bf8 bb6da756 3d1d2240 3d0c4316 3d973bdd 3d75a18b 3b471300 3c288aa1 3c1a264c 3bb65643 3ca68b07 3c0487c7 bc0c1715 3ce5a9b7 bc1c4f95 bcc5b86d 3cb679c6 3cd1b5ba bc2ebbdd 3b6607f2 bc49090c bc733c4c 3cbcb44f 3adc6450 3d160fab bcfcfd56 3d1927c5 3cd3db43 3d801af4 3d80c8fb 3d81ee40 3d3b6fdf 3cafcd8d 3b38c4a3 bce30a22 399fe35e 3d14416f 3c6c5986 3c85f993 bbed6ae2 3c4b1cf6 3cbe9c8a bd0bda33 bccaa688 3cd3805d 3bae3ea5 3b45c9d0 3c5ddb1d bbacb64c bc02bfe8 bcb79c2e 3d063427 3bf2e05a 3ccc3db4 3cae208a bbbeb600 3c8f1d7d 3cacc690 3d6dd371 3c5fc775 bb3e11e8 3ba0e9ee 3d049920 bbb606d2 3d08993c 3d37dba9 bc75bb4f 3c8dc6dc 3ba74f11 3cf75537 bc4fdca8 bc200bfc 3d005897 bcc917de 3bcc86c2 3d2283ee bc6daa49 3d2f19ab 3d3d6318 3d0a52b2 3aa2bda9 3d650c0c bbce590a bcc8f853 3ca18719 3ccea6b4 39f9b017 3ce364e7 3c8a9917 3d69a634 3d3a079e 3d3a88bc 3d26e30b 3c727c52 bc841c1c 3d07d3d8 bc985e0d 3cb20bff bd0735fb bbcab206 3b8c692e 3c3e5e1d 3b5fb28b 3c574b9f 3bf6495d 3d07abd2 3d3de88d bc6e79e5 3c8939b4 bb8a4e72 3d093b2f 3d01c70d bbff3d7e bd3b72ac bd723350 3c7e2a3d 3ce2def1 3d8a5025 3d48ebcc 3d4e2378 3d3f6d73 3aeab66a 3c9d28a2 bc42954f 3c8fc2c8 bb5ac6e6 3b32e6a6 bcc4cf3f bceabe71 3c834a6f 3c1a5412 3b1197e1 3d0d602f 3b3baf93 3cd62862 3ab6f6bc 3d09ec9c bc0c4419 3c12b43d 3bd28838 3bbbe273 bd08aacc bd20d39a bd8d1c9c bc9cabdc 3c2f4a1e 3bc1d7f6 bc8f29f0 bbeb9a97 bb0fb95b bd008612 3b0c294a 3cbb1673 3c6095d5 bc87d850 bd02496d bce489a9 3aafd281 3c9e3859 bc915b77 bc8c68fd bc711aad 3b96e157 bcb9bfb5 bd0159a9 3c13b1d9 bd6f1c8d bd632ac8 bd59f38b bda5f0fd bd905b94 bd35b8d1 bd15bd73 bc9f0a44 bc0b6cb5 bd0129a3 3d03c5ef 3d0c71a3 3ccdf4f6 bc4a33e8 3c9054b6 bd04f7a1 bc0f65fe bbed3b71 bc5ea1db 3c3fcd96 bcb04806 bc7ad148 bca51ae7 bd2464f2 bc858a69 bd3045b1 bba6e163 bc5cc3f7 bc84be0f bd73d370 bd380ad8 bd0ea927 bc3fa4b8 bc194318 bd005e8c bd3e891a bd40854d bcbf5cb5 3cf49040 3c33fc87 3d12ab4e 3cdb69f1 3a1d6acd bcb09635 3d0884a7 3cdfea74 3c6fc8be bca3089f 3cc2ab21 bab5230b 3c8c3dc5 3bf790d6 3bdc2282 bd47ef22 bd192c24 3bb3e7f0 bcbfbe71 bd4b4ebe 3c3c9374 bc882d5a 3c5ea8b7 bd0f3f93 3b16139b bce981cd bcbd9903 bc177e12 bc45ee0b 3c98f655 bbd7fc31 3cd61271 3c0290e9 bbb62b79 bca4b697 bd01ed86 bc28601f bd036029 bbd5cd6e 39a4c360 bb2b9cdf bc9235d9 3cb05033 3c36f692 bc65ea89 bc931b72 3c909039 3cd061a4 bd140ae3 bc61d112 bc04ed12 bc869d4a 3cc5ce5a bc148b4d 3ce2fb86 3a974c2e bb5b8f6a bca5f583 bc3f3445 3c317d4e 3c7522e1 bac0b29e 3d052abd bcc4f563 3c53efd9 3cfbace8 bbcc1062 3cdd2b32 399f6350 bcd301ab bc9b3d9d 3c493957 bc89f974 3bf0a414 3d07a31d 3c30192b bb8085bb 3c0771b5 bca54290 bcf06e59 bcd0fcb2 bcf1679d 3bd64a3c 3bd559f8 bc68f2e9 bd0ac5a0 3c968eea bca1d675 bbc42d3a bcee310c bca61b2a 3c5c93b4 bd06c4c4 bca7d064 3ccbf74a bc97a758 bc78d735 bc2c9461 3c6263ce bcbff732 3b284604 3c57a518 bb5d34cb 3baee9fc bcde123a 3c704247 3c441db6 bbaa24d2 bcf019a1 3c52e699 3cb09410 bbe1e243 3c7b175e 3c42626c bc6fb94a bb561400 3d08970c ba3c120e bce77149 bb5dfb55 3c84e8ec bc464aad bc9ab56d 3ce0d14e 3c8dcb6f bbdc6d3e 3a3f4799 bb979b7c 3be66c2c 39a3d44d bcb1f80a 3bb1b7d2 3a8cd525 3b394ef4 bc7008d7 3bfa273c bcec55b1 3c12359d 3c8ef1d6 bb9a9d4d bce2071c ba83a6ce ba59d392 bcfa9cce bcce6b74 3cfd53cf 3ccb6e02 3c94e209 3cbbec31 3c4a7166 3c973842 3cb35865 bc11ea59 bbb07e31 3cba1df2 bb38c1ff bcc4f91b bce63261 3c87380a 3cde3ccf 3cc24d06 3c15534e 3ccc34ba bd0d19b6 bcd7060d bd0c67e0 3cdb4c05 baedfddb bc8cf687 3c2cad32 bc63e451 bcbc408f 3c4adb7f 3bb17578 bcd0e964 bcc0bac3 3c7f2315 3ccf99a3 3ad1c253 bc97a5c7 3c80432e 3b9af2e7 bd07905d bcdedc86 3b06001c 3c33d01e bc80af82 3c412c36 bd097451 3cda9854 3c824285 3a586d23 3c8882e0 3c83fc86 bc8fab06 bab66567 3c366aff bbf8e103 3cfc65d9 bc4739dd bd01e27f bc8d4d2e bd064082 3ce0e67b bc78aa72 bccb5f74 bba7e840 bcc09070 bc95bd62 3c5c44a2 bd0352fa 3bee98da 3c625ee3 bc0cb682 3c82b032 bc62a0e4 3d218f9f 3d12fb6a 3c1fd4a4 3d0badc6 bcb146b4 3bd44922 3c816e73 bcc4c610 3ccc2276 bc08d4ce bc4b1d50 bcdb83b6 3c4d8d33 bcdc7c18 bc05f457 3c6bd4e3 3cce28c8 3bd9f780 bc811c6c bc78a34f 3c86d92f bb253ba3 3c79a45a ba80e356 3c5ce7cf bd16ae3c 3c7b2c4a bd0b5977 bca74e6b 3b800ef5 bbf03e2f 3ccc0c73 3d4e46db 3bf4349d 3cfa86fe bc2dff45 3c832483 3cc0bcdc 3ca20420 3ceaafe8 3c6c518b bbac037d 3c04a99a bc79f9cf 3ce36e1a 3c74f65c bcfda06f 3cdf2668 bbcf638a bc1c51f6 bc4112ab bcbd97f3 bc9b745b bd0417e7 bcdb8a5e bcc09ba3 bbc36012 3cdf9417 3cbaf0ea bc4bd5ec 3c121f9f bc3293e9 baf6c3a1 3bc2e3c6 bc5fc2c6 3c357acd bcc752b2 3b56f0ce bcae4e10 bc5179a7 3cd6839c bc94c0b7 bb7fc611 3cf858d0 3b6a6139 bcbe8dbc bcdfe285 bc86269a bb7f2d41 3c065f95 bca34bd5 3d0ef014 3c4b3d11 3c24d171 3cd10219 3d0fb16f 3c694391 bcfcbe4f bcbe372d bcb5d28a 3ca7e0c0 bc8b9019 bc9a7434 bd0b0e07 bd20b555 3c91c51c 3ae7d3c7 3cd2a496 3cd7d867 3c8a6ea3 3c429843 bc36e06e 3c1bc860 3c35339a 3c2a0fd4 bbfc0508 3c39e23d 3a70bcb4 bca8372a 3d22e24a b9c6e219 3be5f0a8 bd2ee08b bcdb0479 bd68cd62 bca1d255 bd2d77b5 3c1681d3 bba1ee74 3c56a66e 39e2a7ed 3cb9f89a 3cf2b934 3c3df2db 3c434644 bce19b8a bc269211 3afed04a 3b326784 bc774ad3 bd29cc35 bcb6b7e8 bb449d21 3c04181f bcee3ece 3cc6b89f 3a2be066 3c9c6973 bbbf2972 bc987ada bc6c9d19 bcf3a18f bb936d55 bcab08e4 bc880096 3cd27f4b bd18b85a bc8a921a bb893eb0 3c1e79b2 bc5b887d bcbd916f 3c48d5d9 3bf2757d 3d05dd73 bc757eaf 3c2a8b55 bc98cde7 3c26f73d bca2f3d0 babc79e5 3a7d2905 3d092e6d 3c86c775 3d186caf 3d8011b6 3cc893e0 3d1c1c59 3d780e10 3d11f0b5 bc6e0218 bce19778 3c19f23a 3c116aa3 baac92d9 3c01b7e1 3d057a01 bb962e5e bc11e440 3c34793e 3c0a6fa2 bcad5d67 3b1fca48 bcde37f5 bc3bb2d4 bc92600d 3cab6147 bd44f814 bd319fd4 bd5d8f68 bc6213b7 bcaa3a34 3d79f80a 3c57f34b 3c1b0461 3c68c9cf 3c32f0a3 3c98819a 3d875d90 3c8f9562 bc8f852e bcd14851 bce22caf bc58392d 3c4c2735 3cb0d31c 3c842a16 3c2656c8 bc4afb2c baa5faeb 3b652547 bc97d62a bb8ccd6a bbd685fc bd1271ff 3c47e574 bc85698d bd5a787a bc308478 bc70747d 3d6ac712 3dc9b39f 3d2cc7e5 3d56ef53 3d13d47a 3d3a8a79 3d326e68 3c13abfa bc9cf61c 3bba6625 3a6ed4ca 3ccf305e bb05bfac 3c055245 bb3943b9 bb4249d9 bd0f08ad bd0147b8 3b01b629 3c842bbc 3cb1b690 ba24abfd 3c27b8cb 3b9b2a79 bd1c0f9a bd31dcbc bd74f23e bbe515c1 bbd63758 3cd1f27d 3cc0697a 3ca3f36f 3d032f96 3dbb3af2 3dad4a7e bc8dbab0 bd4e24b4 bcd79e56 3ca6c1de bc86c726 bcc7379c bd0bdf41 3c8e138c bc591401 bc72c1ea 3cb78bf0 3cfbf125 bb1f78e1 bccee954 3cd80d63 bc8018f2 bcab1a37 bcff2a29 bcc4cff0 bd355652 bd196df6 bd70626a bcfefb5f 3c1c9d06 bb783164 3d1fbaa9 3cb8271a 3d602d70 3be28400 bd94826a bd80eeef bd6fb2ff bd1d1f07 bb6b8b87 bb7a1789 3c595598 bbd8e3b5 3c864496 bd010e96 3c08fe88 3d041fcc bd0eea1f bc9a5a1f 3cb1825e bc321e99 bcef87c1 3be584e1 bc64ecbf bc9a4ffc bd469e3b bc6e2605 bc7db9fe 3cb0631f 3d216439 3d3ac3c0 3d6bd747 bd22689a bd8982ef bd301cd3 bd5877f6 3c9b043b bd01aa46 3bf4507b bcf257cb 3c224247 3cb3e8ad 3b4af45f bb8dc479 3caaeef4 bcd5a520 bcc8d746 bcf8a413 bcd45c66 ba53f6cd bcadc301 bb428e51 bc303351 ba8a6703 bd782877 bd125378 3c94e6c9 3bf52db0 3d2e60f0 bc1c6e62 bd52f8ea bd925167 bd1d91ae bca06e16 bd090697 3c538feb bba6eb4a bc28d191 bb33868f 3cb3ac7c 3d054cb9 3c81da38 3ba6fefa 3ca9c411 bc8af5a6 bc99de3d bc588434 bc8d350a 3cb6c98f 3c9a1c33 bc17e6cc bcae7add bce3ad5a 3b99c866 3c31c06c bca3f941 3b8ccae2 bd18d0af bd1b8378 bd5a00dd bcdfe4e0 bc04211d 3c85aa1b bd1a88c4 bc19732f bca5c423 bc90b5d2 3bb1d3f5 3ca3a7bb bcdcd58e 3caff541 3cdf91a0 bca91e36 3b4510cf bcd6ced8 3c558a7c bbdd6220 3a445aa4 bbbd6dd8 bd27517f 3be7c946 bd2df8aa bcf60d5e bbcd8e7f bc782835 bd383758 bd2e9ee4 bd8a889a bd140de2 3d079395 bd1831e0 bb5bc903 bb6f63f3 3c98a9ed 3c269e1c bce30fcb 3cf454ca bd0fe4f1 3afdd2af bb8d4644 bc335269 3c82650d 3c736e29 3c07edc4 bc1563e7 3d1cc7bd 3cc7faa7 bc2f6bf0 bcc500ff bc24d5de 3cad969a 3ba8a458 bbcd7100 bb54fcdc bd1fe92c bc74d92c bb2ce948 3b917e73 3c533762 bc8b64d7 3aae0cc4 bbffa6e9 3ca417ce 3cd8bf5b 3ca858af 3ccacab9 bd01822d bc5cfd51 b9f9bda0 bd10ad8b 3b2dc3a0 bc8a3d66 3cc57603 3d2aa9b7 bcbad9e0 3d07457f 3c4a111f bccc0219 3c920cd1 bd177312 bbff0115 3c0ffc8d bc4e7257 bccc159e bb8b79fb bca62262 bbba9c8b 3cd6ca4d 3cc18c63 3c82d061 3b9e49ce 3bf22b23 bce059d2 3c55b43d bd0fc6a8 bc7eaa58 bc4c375c 3ca36d8a bb28374b bc50d744 3ba13df9 bce07add 3b97667c 3c84df5a bc6d5589 bc85e623 3c1f74f5 bced4922 3c7452f0 3d2c49ba 3c002e64 bc5ac681 3cb6dcb3 3cef1cb0 3a89a9db bca52010 bc2caf15 3c539b25 bba5361e 3c9b1ea5 bcece632 bc9162d2 3ccf81d2 3b44a9a5 3b9dfa93 3bc46d8f bc008e7c bc2811c8 3c33933d b9279ebd bc92e751 bc61f1d5 bb54af42 bc9fa5ac bca9b76a 3ce987f2 bca287c2 3ca2d7d8 bcabb499 3d1503d3 3cb66b66 bc6fdffc 3d0b9525 bd141311 bbb04c7d bcb5581f bcf6e8f4 3b25b38c bc8fc608 3cc46452 bce49e5f 3ce0a724 3c9035cf 3cadc12b bc84e30d bca3e875 bca646c2 3d3d07dc bc3740b8 bbfdfe6a bd54c2b8 bc94b447 bd024129 3cb14f7b bce8faa0 3d372d64 b9a3d652 bbe44d9a 3c480b5a 3c7bf548 bbec4154 bd124901 3cb53cb6 3cfeedae 3c858ba0 3d06296a 3c0b1dbd bb6a3851 bce78c9f bcfe531f bcd74eea bc683da4 3c44375d bcdac95b bc294ce9 3b38a64b bc971ece bc0502ff 3c12381e bbfb952c bcc92b6f bd344800 bc12b912 3d074361 bb8a2d21 3b69bf17 3d274bb5 3b991a16 bc9e9a3c 3cfd17b6 3beccf7d 3c941b1e bcfc2caf 3bb3aa8b 3ca511fb bbbf5cb7 bca74c28 3cda0049 3c735ce6 3bbbac3c 3ab03153 bc2bc78d 3c1279b8 bc813e1b bcfe1887 bbc54713 bbd32726 3a3bfcb4 bc5cb436 bc23dcf1 bc080b73 3ca76fcd bbea27cf bcd31567 3c58dfe4 bc691d7c ba040336 3c31607b 3b984de1 3cae4f4a 3b6cb19d 3bf97a43 bb81ac68 3b8978a1 3c40234c 3cb8ef81 bd08f88d bc651fa0 bcf83cb9 bc776646 3ca8ad89 bd0b880b bcf2dcdd 3c9d9f6f bcab7cdc 3c9e9b3e 3baad3e2 3c8efec5 3d14e1db bce519a6 3ce6e03f 3c1ca501 bccaa273 3bf25e07 bc344dc9 bc772241 bb9c12ca bc8bffaa 3cef0a37 3ceb34b7 bb9503a9 bd007c86 bb437ff2 3ab670ee 3cb510f0 39605dc1 3c150485 3c05f8b3 bca7e039 bcb6b974 bd01f0e4 ba561a97 3c2b136b bb5d656b 3d031660 bbd30228 bca6af3d 3bc9d41e bc27a004 bb7f700d 3d05abd8 baf0fa72 3cec8094 3b662ebd bc601719 3cc7487a bca7a467 39873165 3be069f6 3c3dcd16 bd11b470 bb0d9aea bc50e356 3c971aad 3bfcfa98 3c22bd6d 3c89d572 bc3d2631 bbc640b0 3cc27215 bd014711 bce24165 bab333d4 bc8f4911 baf65054 3cd94a50 bc005610 bd07d26f bc9f8d54 3ce32779 bc3ac9c9 bc9b0493 3c3e878a 39d674b2 bd0beff9 3ccb0c1e 3c7e2eb3 3cd549bd 3c3778bd bc7cf6a0 bc76ed10 3c51f5ee bc2c47f0 3b2f2f0b bd19ac46 bcb5b434 3c0a1505 bbc8f647 bcabdd30 bd101289 3c8983d8 bc41c75f bd246db8 3ce097ff 3c38325e bccd2fb1 bcf8c587 3ce7f13a bb88461b bcccc4f0 3c820a1f bc345efe bac3918d bcb23dea bd0707dd bcda9266 bbf9c6c5 bceb6433 3cf56338 bb6aa25c bc8cc401 3c141692 bd0ffee3 bcc2222b 3bdf4405 bd1a2afe 3bfff7b1 bb7e551e bd04a090 bd1a0cee bb75c32b 3ad13069 bc9c8af4 bd259e0d bcf6198b bb3ebfee bb92af17 3b656aa2 3aaa84fa bbbe8fd3 3c6a524f 3cf1b4d7 3ccb0e09 3ce06c95 bc7d2915 bc7f6c64 bc02efa5 3ba2f4f7 3c0f820a bc3eca24 bcfcce35 bd140596 3cc4e864 bc86ab44 bb4d2111 bc7e09e1 bc88e5b0 3c5b9d88 3cd0a858 ba80e373 bc0e87f0 3c101bc7 bd1abb57 bd2a14e7 bca7f76f 3cca53e8 39c4f2f1 ba10a72b bc0ea905 3c8f6a8f bcab1f2b 3c9f73ad 3b8c2455 b89c3c95 3a507825 bcd3b3c1 3c8d8c08 3c2c3efe bce33a77 bd18c504 bc4d7e41 3cb96805 bc2a9dc9 3d1a3528 bc6353bc bca418e4 3c8906d6 bc53d09f 3d073c42 3c57893e bb3fb445 bd09653d bd530d8f 3ae9ce45 bc95ab19 bce6ff80 bbaacf93 bd1243e4 3ba6547e 3c4c7cb5 3cf1a679 bd027ed1 bc0fe48e 3c3b4820 3cb17ef7 bd05f069 3c3bf65c 3c2d7eb8 3c798a21 bcc72096 3cd90ea3 bca49c95 bcbae044 39369ed5 3ce40253 bc8166d4 3d077afe 3d0268f1 3d07f6da 3cd07c66 3bbd76e6 bd09c485 bca33ece ba89fbc1 bd105b23 3a59fed3 bcba4eb3 bc2f0263 3c0a7cbe bd01d409 bcda4cc0 3bfb98b3 bd37a5d9 3c8c2ab3 bd04a88b bca54028 bb253030 3c62ff82 bcad3319 3b886945 3c5d0381 3d250be9 bc4981a8 ba90b79e 3cb1b14f 3cdb3b14 3c6e0baf ba8c8576 bae67930 bc0030c2 bc803028 bd05aa53 bd1d85a0 bb1ad2bc 3c8199bc bca450f4 b9c86551 bb8e7ec7 3c4ff1c5 bcf67923 bb82af9b 3d00ef80 3c7e40eb bd65f4f2 bcae8c64 bc7ef141 bb8b8290 3b8a81a7 bc2e6908 3cd27981 3c13970b baad7564 3cc4d24e 3c392753 3cf02822 3d075e4a bae24ec6 3ccb2904 bb0805f0 3c0e896f 3c81f819 3b23c453 bb3d4caa bd0987ef 3c1a3404 3c895cfe bc889c0b bd253b64 3cb368be bc1d74e6 bb4e8e29 bcfa8211 ba68c2e9 3c8131f9 3c7520d6 bc5ebcd9 3ba746e0 3c962582 3bd82c1e bc992687 bc1f582b bb2402bb 3d1b53f0 3d25d0fd 3c9991f7 3c0350e9 3afa17c9 3cadff8d bcf122a7 bc8c9627 bd0ec09c bbedacb9 bb0e84c3 3b93d9fc bcf8e89c bc35f4cc bce3b414 bcaf610c 3b2ad8cb bd4bdb27 bb342584 bd2813be bd345a92 bcc07e85 bd105beb bc03a763 bc1d0fab bd3fb07b 3c1ddbd1 3d9199f9 3d43544a 3d0cdade bc68ea2a 3c928769 bd1e5d36 bca6f2f4 bc345eb5 bc91efa9 bc86ef75 bd097ac5 bb2de07e bc03b822 3cc6f697 bcb9300d 3cea9012 3be0717f bc7c4ef6 bc916b1c bc847aef bcb17f2e bbbaa56d bb91b1cc 3c84953c bd0e58a6 bd5383dc bcb6df31 3d169ea0 3d50de91 3d10d4a2 3d33f6c5 bc9a8118 3c99ea0a bc0930e5 bc8ce75f bca760a1 3c6c7d90 3ce2142a bd02b546 3c691478 3c8d89d2 bb6bbd61 bc4fb2a1 3cffeaff 3be4214d bc9ef5e2 bbf2277e bb45148a 3b55c1eb bb019ada b9d3075e 3bba54d4 bd537434 bd13de95 bcc4c87f 3b1016fa 3cb5c5b6 3d5f681f bc81219c bbeb483d 3b9c076e 3d1f93c1 bd14decf 39e315e0 bd1ab111 bba480e7 3c12ed5e bc45cf35 3ce09756 bc08fd74 bca89c70 3ca9a112 3cc6d8ca bca72559 3cf99104 bce3a1e9 3bfa0bdd 3b945ed9 3ca58991 ba9f81a2 bb1b5369 bd6e3cd7 bd6eb75c bc0dd073 3c0fd211 3d5ce6d5 3d124971 3d0723ed bc04cec4 bc9a09f1 bcfac4eb 3bcf507b bd13af96 bd1c8553 bcaddc81 bd073bc4 bc98e1bd bcdabd81 bc2f254d 3d3bf6b8 bc3403c1 3c2e860b 3b4181d1 bc2f1a07 bcb4bf80 bd40856f bd14e2e6 3c4f65a1 bcc91ae4 bd6f97f2 bb98f9d6 3bb125d2 3c02babc ba3038dd bc958f21 bb5194be 3d2dcebe 3c961795 39d2a8a8 bd079bb2 bc59e799 bd140004 3c026492 bc5b0ce8 bc496ac5 bc5f8041 3ce9f10c 3d078a45 3c424ea5 3b279c2c bc094890 3b9e414f bd513dfc 3b99d2ed bcdd9075 3c0429c0 bc9252a1 bca55d7e bc538aa6 bd0bde47 3c996892 3ca8d940 3caa0684 3c9503c9 3ce7fb5d 3ce8d395 3c169d60 bbb1cb25 bca0b776 3c135254 bca732ba 3c1f3e34 bca0c1f4 3cb9c94e 3d083394 3d05e031 3b635020 3b986afe bce5e623 3d4feed3 3bd98d5b 3bfc6a3e bbb05867 bcbe1b34 bcdd4858 3bf2ff04 bd0fb41e bcc015b4 3ca96725 3d25a2c3 bc8b4342 bca76d52 bbb6080a 3c9b9002 bd00f9b4 3c27242b 3cc0a93a bc92009e bc9be3fc bcec940e 3a1dc422 bc15445e 3a3faf74 3cba74f3 3c601fca bca0df6d 3c1d5fc7 3c84302f 3977f600 3b61eb26 bc2b4390 3cd8b7ca bc9e86f4 bd1fc83a bd813ad7 bcc2f8ed 3cc9fe91 3c81939d ba2979a1 3cff3d55 b9233d6e bc08c4b7 3ca18587 bcb44c62 bc91d0de bc20d680 bbdd78a3 bcad31ff bc456ab7 bbc67136 3bc8620e 3ccd4ef6 3cae226d 3b6e5e0a 3c9a849e 3cc06d04 3c9d0dce ba81829e bb7967d5 bd095a34 bd1d8e3e bcc9ae23 bc225dc5 3c0f48a4 bbb58e8f 3d250eab bc135da4 bcb8054b bc965822 bc0433c7 bcf21c49 3940dfbb bb29c347 3c260fdc 3c206e89 bcd776a6 3c34ece7 3cae1552 bbde8918 3c107d43 bc120884 3c69a0f2 3d1743d2 3ce2ec04 3d6bcf9b bc02711d bcac679e bca052d3 bcc963c8 bc3fdf80 3be149aa 3d4c11fd 3cee1b7c bb960f26 3afec02c bbec37db 3c8e5f3e bd0b5c41 bc139ddb 3ba863b0 3c50aeec b945aa87 3bb33ee5 3cfb6fa0 bc870e87 3cad75ab 3cb81d8c bcf69d9d 3c05c2bb 3c9ecbf7 3c3bdd49 3d5769bb 3d3d9290 3d684f90 3c60ea06 bc9e198d 3cb58601 3cdf617c 3d77c2ff 3ccb478f 3d351b79 3d3449d8 3bb354a3 bc323f2a 3952f99e bceeb3d7 b9399f3c bc62aa50 b9f4bbb3 bcfc0ce7 3c8c9391 bd0fee96 3c459ba1 3cd2a70b bd159b22 3d12547c bcb8fe47 3b99755e 3ce4f85d baaffedf 3d30ef8d bc37022b bc2d1483 bd24ed32 bd13cc29 3ce1e55b 3d4c005d 3c90111d 3c6f7398 bc233804 3cab088d bb1dada1 bc78d6db bcbdc71e 3d0345fe 3c477526 3c8ca07d b99672e4 bcdea3eb 3c2821f6 3b7d8738 3c6c92e5 bc1d0fc2 bc37393d 3ce59d0d 3c051566 bc4496ef bc862538 bcad6a66 bc0b2a26 3c44e0d1 bd253e4d 3c5cf2c2 3c93fdb9 3c9595e5 bb776bde 3c7cf22d bc08f874 3c9b0650 bc369c0a 3ca7fc2e bcb09300 3cb49d2a 3c9e6119 3cb37856 ba888d5c 3c86c839 3c010f8f 3cae8906 3c86294e bd1ce194 3a39fc60 bc2027f1 bcaec95b 3d0cfc2f bc08afba bc2df950 3c10903d 3c94feac bb9ee437 bc8df867 bcf04c12 bcc1de59 3d0c6a16 3c3ceb5a bc0f6248 3cbad1f6 3d4606f3 3d1496e1 3acb5a68 3c04c8ff bcdd700a 3c4481ca bcf9cd9f 3ca2ee2b bca02a22 bc8d511e bd0ff675 bcc7925e bc89e3c6 bc9c14ca 3cc4743b 3c89ac05 bccc07a5 3aeadb3d 3cd46d03 3d17ed20 bc12a58f 3cd62010 3b920840 bc8ce4de 3c872ea0 bd0623fa 3cd862a2 3cfb5454 3b0e6207 3cb538d5 3d1293ac 3c59c26d 3c0bfb49 3c0c8476 bc92bf78 3b94f0b1 bcb5a1f7 3ccf84d9 bcad55a6 3b49748d bc961189 3c23d01a bbed4b81 3bc9baa2 bc786158 bc8ce07a 3cca9a82 3b016973 bc36c69d 3d103ddb bbca3f12 bc91d30f bc99187a bc1b84ca bcacaa6c bc81370b bbcca4ef 3ce81bad 3c429f58 bc9b5b5c bce08024 bb462ced 3beadebf bb95a5a3 3c855b72 3ccd7efd 3bdbf91f 3c32aeab 3cb2079e bc3fc0d4 3b89c007 3c8f2556 bcfdde24 bc009d1c bcb8bca2 bd2d6bb2 3c26363b 3d0e1242 bc9223e3 3c0ca05c 3aaa2ccb 3c0187b0 3c7223b7 3cf79da7 3ccc731d bd06fbd2 bc89b708 3c6db839 bcc01c3c 3b402ad7 bc9843ea 3b4361b7 3c53d44d 3be40ca0 3cad1923 bbfb2d79 3c9755de 3c48a51f bc53b337 bce5ffe9 3cdcc0f5 bc83dc12 3c8206e3 3c4738f6 bc2ab8c2 bd067a66 bb616037 bcc38bba bad9739a bcbc0a94 3c9f61b7 bd09ae92 bc2f5772 3b13f232 b9f7895a 3cc7eefa bc7102dd bd002dfe 3c9af538 3bbcbf3a 3c9a048a bcc637b1 bcc4f247 bc914abf bab76004 3bff002f bcc2a3f9 bbed55d3 bc21bb30 3ce0ca91 bc864232 3cef57a7 bcce1aed bc93dd9b bcf43721 3ca918bb bce62328 3c1d252e bc862f22 3cfb78e1 3a996650 bd095edf 3b0472ed 39ae7e85 bd17f65b 3b48130d 3ced3807 3c088a74 bae48521 bc0e5990 3bf8408e bc8a43ca 3d04499b 3ce6b478 3c6d99e3 bc6b6412 bd0aa953 bcaeeca3 3d0288a6 bd07291c bd0bf206 bb84dbe8 3c19a375 bd1299fc bd092331 bab40d9c bc56865f 3cb7706b 3c082ab1 bd00a1f5 bd05531d 3cb4a381 bbfaea2a bc880199 3c17dd35 bc084880 3c73d6e0 3bea90f8 bc86bec3 bcee8bf8 3c8bad04 bcb4c2e7 bba5fc1f 3b5b349b bcaec4b8 3c919564 bcccfa61 3c076579 3b5f29dd 3c5040ee bd0f8931 bad7d11a 3c68b595 bcbbe278 3bf8c1e1 ba73a6dd 3ce61a73 bc09c0b5 baa5a920 bc874cc0 bc2466d8 3c07b262 bd0e2d16 3cc8e38b 3cbdbfd9 3c54ed81 3cc53867 bc4926fb 3bcdca2d 39e8b769 bcc9d954 bc698b44 bc6558ad bc12bd11 bcedb2a4 bcba0697 bb24935d bbb4cb6d bd12abd2 b9f9be3d 3c627f52 3ce92734 3d03cd26 bcbb3aae bc2aa75c bc81e75c 3bb20c61 3bf87158 3bc46398 3c97cc86 3c87d010 bca3f7f2 3cb4902d 3cb11a04 3b329787 bcffadbd bcb61544 3c0d56dc 3c450b6f 3d0a2ce5 3c887587 3c27dac9 bb809910 3c83577d bc5b2f9b 3c5dd371 bc92f08c bc4b580a 3c1dfafd 3c7486bf bb824885 3a9a0608 bc97be73 3c7a7834 3caf7863 3c391e1a bd0ef236 bcd68f5d 3cafc504 bbd47414 3ca02ba2 3cc2b0d8 bc3ea5ce bcb1de47 bd1312e8 3b102130 3c02cfb6 bc4c5101 bcf1ba3c bc4ca28e 3b3bde26 3c9097f7 bc85f669 bcec55e5 bc73191c 3d0505d9 3a5fe2ad bcfc6383 bc856e36 bcad66ef 3c8d4cdf bbe10ffe 3ae4a06b bbab30df bcfd3258 bd047b0c bce75462 bc82bfb2 3b782e03 bc916cdf bb4ddeed bc3119a5 3cd0ffff bcc39b60 3ce02a47 bca1edd7 bc81bc3a 3ca66ebd bc909f24 bbf73b13 bd81e213 3ab7a80e 3c54f1c6 bbffccfe bb59b750 3ccfc53f 3c8196e3 bce66df5 b994bd27 bd003747 3cd7a33c bc0d23d8 bb3422ab bcb79e0b bca50e22 3b3e273e 3cdb98cf bc9adc30 bb6ae6c4 3cbdb3d6 3cf5cdfd bc84d5dc 3d026d68 3cd9d018 3d1bb906 ba916c30 bd0370db bc91322b bc64dedd 3b7ef2af bd217b0b 3c3119fc bd4beabb bb3132ef 3ccb0ed4 3c1a4c42 bba191ee 3c3505e1 bc3e49d4 bcbe9e8f bcc7d336 3c7d82b5 3cca77c0 b9309be8 bd0ec731 bd1283fd bc80c9eb 3bdac47f bceb7f1e bb69cd0c bc9aab31 3d23ecf9 3c0cb7c7 3cb9f051 3b4c0057 bc9ac1b6 3be4e26d 3c80a655 3cc46e8e bcec8cc2 bc2c4a8a bc750281 3cf1269e 3b35f83b 3c11c809 3c3503d3 3c9ec477 bbf0dabc 3c2afd5b bbe02c36 3bfa0ac8 bcb9802a bceb578f bcf1111d bcce8a34 bcaf1b7b 3ba3110b bcd90886 bceb8d97 3c7597f9 3cec61d4 3d819052 bbb1245f 3b4d663f bc7bf9a3 bc6c11e0 bc36e861 bc8a6d80 3caac808 bcb49208 bc1f3c09 3cb85d89 3d062d11 3caac404 3bcaca7d bc0c4618 3c76632c 3ca07c47 bb1f6e05 3c8ddb8c 3cdadbe7 bc9f2cb4 bc149984 bcdb9a54 3c0fe31c 3bfd6f80 bbf46ab6 3c9543f7 3d036adf 3cb29d68 3d564a4c 3c3722f3 bd705e71 bd68e20e bd8b52a2 bce211b1 bbd4efb5 bcc43927 3b52e41d bc8ad927 bbbe96bb 3c0fe677 3c29e0cc 3a2dfa7d 3d108975 bcbac6ac 3c399915 3ca51b96 bcba5ad4 bd0848da 3bf6d18f bbe58b14 bc894495 bbdaa5fb bcec9ca3 3d06441c 3d0d4366 3d7609a4 3d94e732 3a739759 bd09aaa1 bd966ed4 bc266e7b bd0b7488 3c319554 bd0a5332 bc6586c7 3b2177cf bd389ace bd456f47 bd52b601 3c985669 3ceb36b9 bc6f622f bc96adfc 3b89b177 3c899dae 3be4f086 bc19afb7 bc7b86a6 3d1b9ce3 bc2cbfb5 bd27da9c bc83ebfc 3d4489bb 3db55cdf 3d4f49e5 bd1714f5 bd572f05 bd494fb0 bcf7ab0b bc5f46ce 3b641378 bd21fc4e bd968c5e bd80275e bd59678d bd24ced8 bd0b331c bc906d04 3ba3523c bcfb54de bb953b98 bc3b8dfa bc9c80f8 bc14a9dc bc8e4991 3b80856b bc501e48 3cc41e00 3d079f7c 3d0fb24e 3cf80ab8 3d8ee610 bca43f5b bb58ff5e bd88ec92 bd442cf9 bcf060a4 bccd4351 bc37aa13 bc8584d9 bb88bb28 bc596544 bc2b019a bac9a7b7 bc803a66 bd0a5059 3c2db474 bca8caff bc1139ef 3c780812 bc2354f4 bc217347 bcd99a8f bcc0c5aa 3ce737c3 3c2feb31 3d1e3b71 3c7d0522 3cda1392 bc007d58 bbccc090 bd233926 bd2b29f0 bc9793d6 3b0ae258 bd08a8f0 baa79675 3cb0a101 3c9980dd 3c93dd07 3c6957a6 bb66983e 3c2491b1 bb8f86c5 3bc25dee bbcdf7a1 3cc42a05 3b216993 bcbe8f6c bc62fc0e bd03d5b9 bbfd0e53 3d0fda4f 3cf01ec9 bbb9167f bb82b00a 3d14c2b7 bcf4c7ff bd153330 bd048700 3bdfeb75 bcb8fe0d bce2ff23 bc603d77 3ced76a1 3c18ad90 3c34c8b6 3b97bec5 3c1ce1d0 3d2ce0d6 3cff214e 3c833d12 bbe061e4 bcff9f99 bc1d11d9 3cff5d1e bcd46283 bcb62662 bd0f478c 3a6b4c44 bc9b2f40 3b281fef 3d57b7ac 3cb2912d 3cc25d20 3ce66c07 3aa043f8 b895291a bcd5cf1a bd120492 bc3a7838 bcc8cff7 3d0ec103 bbb968c2 bd2c7516 3ca19987 bcb09550 3d218ade 3d0db8c7 bcbab63a 3cf7b319 bc4bd325 bc894b46 bce88ede bcfb03f8 3bec9e8b bd09280a 3c05497c bb7eeae8 3cca856d 3aac6a63 3d03a3f0 3cbdbd93 3cffa046 3bc1bca9 bcbd0a48 bb31ac1d bd03caa1 bd1346bc bd23e16d bd09ed8c bcb6e765 3caec132 3ca84b93 3ca7d140 3d34734f 3d14b298 bc85615c bc025e5c bc6e7d9d bcc98cfc 3c06df08 bc4961b6 bc869c88 bad07d29 bcee0f86 3d11a892 3d01230b 3d4b4ca8 3c85aa8a 3d0d0752 3c390d6c bc6cdcbb 3c8adecd bd2c00c1 bce168fa bcf663a2 bd090bfe bc5929d5 3bf80119 3a8958be 3d180628 3cb3b80c 3d0ff836 3be954ee bc334531 bc6c4d28 bcd20c38 bccfb5ec bbc82574 bbfa1a34 bcb0690e 3c95070b 3cd582dc bc714dc6 3c9fbc29 bc54c630 3bbbb600 3d18a734 3b2509e8 bd179e08 3c42a865 bcf182b8 bd038284 bd3dedcf 3cc34637 bc963f37 3c55dbc4 3d0ddc34 3bc4d81c 3cb89e1d baefe952 3d1fdc18 bcb6f6cd 3c74f829 3b8fe3b6 3c95d7e6 bcd33bad bb2ca5aa 3c8b694d bb279c91 bbdb7b2b 3c9bfbea bc6c2e10 bc255746 3c513407 3b479302 3c4f3546 bbea3351 ba59757c bd42a24a bd169edb bd6f864b ba58fd2f bc87910d 3b040dbd 3cbbbab7 3c93c2b8 3c060c15 bbbe3420 bced3a68 3bf5a436 bc658ab7 bd04fc8a 3cf767d5 bbab3f7e bc9975a5 bd0f2931 bd17cfcd 3b327b87 bcc07347 bcc540ac bce2baa9 3cebf0a1 ba694acc 3c11711d 3bf6dce7 bc57b2a2 3cd84c23 bcaef567 3c317f3c bb9d617c bd4f555a 3be1c84c 3d0ba698 bc109e47 3c8213ed bd0e9a0c bc2e4eb7 3d022c1a 3d068531 3c6fd951 bcb4e7e7 bcff207d bcf1cfa6 bc2c10d5 3c3946dc 3a497c0f bc54e6a7 3c0aa4ed 3bf11df3 bca9f139 bc8037aa bc5ef559 ba503669 bc077d5a bb8346cb 3c319ddf bbede325 3bbe25cc bb351a95 3d0db623 3d3d2866 3c71a353 bc0097a4 3c134689 bcc03675 3c87c3aa bc9cf42c 3cb4370e 3c4875ea bc2393de 3c943622 bc57d927 3aa61fff baabfd77 bb9403a8 bc38b264 bc9d7199 bcbbd77a 3c2af5d6 bb831272 bc7130b1 bb673fbc bcd543cd bbc84ba7 3cbfe630 3d339f15 bb82498c 3ca1738f 3cd4979b bc41662e bcd277af 3c1818c3 3a987331 bce4f0e0 bb18735b ba355776 bc61d405 bcf85f3e 3c8c81cb bbc043a0 3d02249c bcf2deab bcc4863d bc625854 bd1d5984 3c2c6622 3c3a243d 3c55fb1c bd607e08 3b2c95c5 3c957c29 bc8525b4 3c6f684e 3d196088 3d4d6e5b bc14f8df 3d391fae 3a276d55 3c5252df bd0c3380 bcedc55f bcc82016 3cc4f21f bc8dd18b 3c96f1a6 3c10ba64 3c468096 bc16ea1a bc4d3337 bc93c6eb bca84903 3cdba470 bc2b635f bce4c316 bd382984 bc56a5dc bd51e25f bbf3abc1 3ca4548e bcf3b14a 3cd425dd 3c455f41 3b2367b6 bc915c20 3c9cb9be bcd1b349 3c7be84d bb5e172a 3c61a7b4 bcec526b 3cdf7ebc bd14a318 bce29102 3c9c200f b9cd9342 bcab0eb2 bc0f0e0c bd03adf2 bd050632 bc26cdcc 3cc6fa79 3c1731fe 3bb17f29 bc7c44b9 3cfd4a18 3c39f607 3cd0c953 3c079cc5 3c9c38c5 3c97e6b3 3cdb1d03 3ca48425 bac75af1 3bf56135 bc273cd1 3cd3e78c 3c248de6 3cd10bdc bbf0f30d bcf6ea04 3bab6c96 3c4b8a1b 3cd6cead 3c40c479 3c36902e 3cd35d3f bc6c96aa 3cdc9682 3c633380 3c987c51 3cafedc2 bcf64724 3c87d384 3ce6c28a bcf9325a bc32ebda bcc2dad4 bc9e2555 bc3e8b84 3b8f804c bc413d55 bd117d72 3c8161ca 3c9487d1 bc015ff5 3ce41146 3ccc533f bc15ba7d b97436af 3b9350db bc07f55d bc2459e7 bc8becd6 bcacf726 3c7fa9e9 bc453dea bca04fd4 3cdfaedf 3b69c392 3cbe444d 3cf28292 bbe0b80e 3b47741c 3ceb5696 bce48841 bc5a420c 3b30e2ff bbc3ce04 3bcf7aef 3c84be28 bc83e1c7 3af1bc9d 3cf455ff bcac2b15 bccbc921 bce4c86d 3c9b94e0 bd053b40 bc9128d7 3cb60a96 bcb10995 3cdcdd24 bc8bda6c 3b917bad 3b6574ec baf18a1a 3ca73d87 3ce707b7 bcb80c26 3c951d2d 3c0492d9 bacb2aff bccd1a0f 3c16b925 3cc43f72 bcf9f3eb bd06264b bd0e9071 3be39285 bc323cbf bc3f5bca 3cfe17c7 bc200f10 bcbb0c08 3b092ec7 bca2c6b7 bc356c4e 3c8c98f6 3be3459d bcc975e9 3d01fa20 3cb64711 bcc8713d 3c65618a 3c575bde bcd24379 bcce2717 bcf42ad9 3c6af7ae 3b9e3ab1 3c6deb29 bc405ef6 3cd9b6fc 3b2f1b05 bceabcc6 bc20783c 3c828b7d 3bc52438 bbce46a6 bcccfa01 bcb76749 3ceabfeb bca98867 3cbf6974 bc4ced69 ba2b3e39 bd0d3e53 bc475d0e 3ce54813 bd02e769 3c83cd64 bcf3ed2f 3bbb6832 bcedaf5a bccd9f58 bcbb199b bb815290 3c3cfe82 bcb20f20 3c80966b 3ce7ffb0 3cdafd28 3ccc78aa 3c9c6027 bc6032e3 bbca9af8 3cec5844 3c833774 bc24232c 3ccc7649 bcfe5bec 3ce8df9e 3c9566cd bcd65e97 bced7142 3cdd9a43 3d0660d0 3b052bf3 bc5c5f3c 3ca87f23 3cb39f0c 3b91d385 3d2023f0 3d2d932c 3caff3e6 3c9d7462 bd0dc887 39fae4b9 3cb206c7 3ce043e5 3bd7aebd 3c6b8c99 3c1cf7d1 bd0ed7b0 3bece7ed bba6612b bcc1f6e6 39df2537 bc1aeb57 bc9dc10c bd0460da 3ce4a01f bcb2d653 3b65280b 3cdcd190 bb19416f bc95f14b bcee20c0 3c6a0ffa bb30d0e9 3cb58cfb 3d14840f 39c17eb9 3cc7a0f8 bc3dea6d b8e29db5 3a822289 3cca7799 bc856a45 3c470c69 bbcac9aa 3c9c3a7a bc9b8492 bc8c96c1 bbb5cb9a bcb61c46 3c3ec1fa bc5eb7d6 3c56bcbd 3c9b68d0 3ca2ea98 bbcfec90 3c95ace7 bc9bab98 bd065eb2 ba21e932 bc9d8078 bc90202f 3cb16786 3d234a8e 3b1eb538 3bdc7bf9 bc1600c6 3d57244b 3d28e48b 3c266d09 3ca0574f bcd2f9eb bbde4397 bca8b60d 3cb6ee06 3caa9671 3cf03f16 3cea78bc 3c42b46a bcdfd8ab bcc73a1d 3be83fe7 bcfecdc2 3cb69742 3c3bdefa 3b8166c6 bd147577 3c32f1f0 bbb8bdb2 3c646459 3d5cd507 3ce399cb 3b8522d3 3d1ad6fe ba95f7fb 3d6966e4 3d41e0e1 3d40497f 3ca05762 bd20c2b8 bcde75dc bd11e890 bcb49214 bd0969a7 3ca41105 3c859050 3c95d4a6 bc8539e1 3cceb75e bbb8a1ad bc19beb7 3c8e9d19 3c4f36d3 bd1ecbb2 3c0efc19 bce77d36 3c0c6987 bc3eb502 3c84d860 bca45b03 390f871e bbcbaa92 bc243a48 bca5dca4 bcee765f 3cd045ce 3b68cf3d bca9cbca 3bc562e7 3b556e6e ba184614 3baa4722 bbd51ea6 3c44add2 bcd38dda bc813f3c 3ccaf7e5 bcb5fddd 3c7243aa 3cc76782 bd4dc6f7 bd228638 3bbff7e8 bc80d46b 3bd750e9 3ccf8bbf 3d0e54b7 3b0bc86a 3ce64fd4 3d35c106 bb91bf96 bd360db6 bbfca0c9 bcbda27c bc38d493 3d07bebe 3bc07caa bc820d96 bbd9219b bafe5b51 bc02840b bbfc68ca bcc891ec 3cc3d6b9 3c89aa92 3bba0654 3baa0a04 bc3a6de0 bae37a31 bc649896 bbfd6ccf bcff3a67 3bf65f7b bcfcfc25 3c93f3a3 bc4f642d bb2c3e65 3d185d98 bc46054a 3ccad844 bcfcc0b8 3c7d864d 3b008e34 bc5db5e1 3c8f5676 bc710e9d bc69d56d bcaa263a 3bafb8b9 3b9860b5 bcf15843 3d03c86a ba8f6a1b bca81de8 bb9f4e64 bcf439d3 bc8506b7 3a43f91c bcc21c0d bc53ac2a 3b912961 bd220d91 bcc8d085 bc59ea24 bd3a251a bc1c395a bbad9270 bd0366a1 bcb09acc 3bd09aff 3bdecd3e bcc5858c 3d00ac90 bc99888a bc69a7f8 3c88177e 3cf86ce1 3d091804 3ced524c bca345fe 3bd9f202 bccf5f26 bb648fc2 3ca72b5a b98c23d1 bd370406 bd243e3e bd4f983f bc63c7cd bd575eb5 bd9f418e bd90d514 bd19da8f bb8a7726 3cbf5718 bb82b5ae bc601b4a bd1b7df3 bc9caeb4 bc273d73 3cefc423 3c0720be bcdf1563 bcf23803 bcf2ee65 bc637ae9 3b65cee8 3d0068cb bb93107a 3c2b1812 3c7fdf89 bcfdb9bd bd2c589c bbb5ac0c bc67e394 bd331d89 bcde29cc bda1011f bd8fc874 bd8cd948 bcfdb4c0 3b08f94e 3bef5e26 bc8e1d21 3c6e8eca bd06596f bd12c404 bd265e01 bd2321f2 3b8268c5 bcd8e756 bcfc65ff 3c432592 bccd4639 3a95ecb6 3c7b6716 bc09c743 3c880b2b 3bbe158c bd06302b ba2d1678 3c901350 bc008cc4 bbea6c0c bc88b82d bcba7d2b bbf0721b bcea543e 3d23feee 3caa7f72 b9ff267c bb9b8fc4 bd05dae8 3bd3b559 bc184401 bbd8c455 bd12aa88 bc7dc561 bcc4560e 3cc6c946 bcc54b97 3bcd5548 3cbe4640 bce2f809 bb196968 3c6e5eea 3c50864f 3b3fa6f0 3c324e09 bb9da6ad 3d7f46ef 3c2d6e97 3bf80aca 3c5581c8 3c56e01e 3d0ea5db 3d43ff70 3d51a888 bce9ed29 bc8a4182 bca71e87 3d82183d 3cc0241e bd2f22f2 bce1b082 3bd3d9c6 3c6cf66c bcfe0d20 3cc71bfa bb0501a1 bcf70982 3bbfa75c 3c6b8d3d 3c9c0ee4 bcb511a1 bc9b1449 bc241760 3d292585 3bded0c0 3cbeb173 bb8cd775 3c5c6303 bc758f78 bd2bfef7 3cacdf77 3d241f0f b9501de1 bcfa43ae 3ccc8594 bc2d89de bd117ff8 bcd32109 bd4898bb 3c1e6617 bc0938b5 3cb25945 bbfa9d24 bb4056bd 3c0bce98 bc37df7c bc55b1ec bd10c7d4 3cf0e56f 3d28dd71 bc6c8ccf 3ca13c09 b99a2247 bc04616b 3cfaacac 3c85cfef bd01e27f bbcabd32 3cbd600a 3ce9ae10 bce56587 3cb05b60 3c4b3a1b bc6ee589 bc9a67ce bc4cc854 bd4a8a3a bc01a9ea ba065fa4 bc73cbfd 3c7c140c 3d0945fe bba9db9a bc9e3047 bd0153ff bcd9f397 bc83160e bc7505d0 3bdc9368 3d46980a 3c6782fd 3d17182b 3d38c179 3bc9fee5 bc6fed78 3b75b873 bc8379b5 3cfcd553 3ad8d56a bc4ed832 b976109b bcd7f856 3acedcc1 3cb2daa0 3b33cfc1 bcfae4c8 bd003c7c bc1ce5b4 bc29532d bbaf7f8c bd0049f2 3c8e654f bd08ae98 bcc1539f 3cb94526 bcb64516 3cb82fe2 3d12a40e 3d2e3582 3c98216e 3bd4787d 3d444d9c bb089013 bc1b040b bbb74c50 3ae40fd4 3c17f719 3d0c4dfb 3c960573 bcfcbf34 bbf09908 3c0403f7 bc21474d bd49c441 3bf22ee7 bb448b60 bb9b9abb 3c76f3a3 3be9f29b 3b9e085a bc9171e1 3c7c07b1 3cc82376 3b5b83d4 3c773365 bcef118c 3c88579e bc0323e8 3c80aa49 3c80c698 bc4f3d46 bc90f029 3c4d194c 3c36c269 bcfbb6d1 3d533047 3cd3c3de bc37ac6f bcc08978 3c6cbf5f bc41add5 3ca0f609 bcf6ce5d 3c63eaf9 3bd5f750 3b81f808 3cbb3ed6 b9c66027 bcf4181b bca6a600 bc88678d 3b8d2f3d 3c94a1c4 bb924e32 bcb0abe4 3c0cfa18 bd0c8811 3c99c3ad bc78fa94 bade6abb 3c5f276a 390d6b55 3cf44c2b 3bdc0f8f 3c8494f8 3cbaa9a4 3be79877 3c5dd515 bada566a 3d049fa9 3c946767 3ced4c25 bcf2a63b 3d08c2d7 3c416fed 3c80bf79 3bda11ae 3cb4f180 3d01fffc 3a3fc8aa bcbac7d9 3d0708c2 3b52152d bcc81ceb 3c5826aa 3c9e9d36 3c2ac0f3 3c1d56ed 3aad13a5 3ce0e746 3c06a771 3cd464d0 3c93db8d 3ae9c938 3cd9b1ad bc92d2de 3ceea6ac bd0a2000 bcdd8eea bcde8ca9 3caf45fb 3b1bbfdc ba71a76d 3b927201 bc658f3d bc36d257 bcb63827 39d7349f bc4581c7 3c1e0da4 3d2b0267 bcd3ff57 3ba8bf9f bcf688bb bca46d00 3bc355e7 bb440abc 3c10753f bd1cf853 bcf392c2 bc6be07c 3cb7ff13 bc137db8 bc47c732 bbec1bf6 3b74f24a bc786631 bc7ede75 3cb602ca 3cf8b64c bc40d816 bcf9d6ec bc680ae9 3c4fbe30 3c1c7ea2 bbd492bc bcd3eca3 bbe034c1 bbd0c72f 3c7c2dd6 bce73f8f bbd19df3 bca140b0 bcc3e040 bd678a9b b952caf5 bd160a3e 3c089940 bcef3a20 bd087303 bcb1a547 bb6a6957 3b2c9b1d 3b9ab730 3d0dfe4c bce2892f 3c7500e0 3ce26a67 ba4bff09 bcb7d864 38d22ac7 3be08183 3c3f5cf4 bc5949ff bc606c86 bc95eee2 bd0e8056 3bcf7ed0 bd247bd6 bce718fb bc6e4db4 3c5cdf4d 3be33718 bd777668 bb65d4bb bb04c9e0 3bce9652 bba628f9 3c81a97f 3c344c61 bcd691d3 bc89f1a2 39bf8927 bcb98ca1 bc40bfe8 3cdcc5fb 3c75e684 3ced1aea ba40e8eb bc98655e 3cb3dcbd 3b16de2d 3baac348 bc75fc08 3c49378a bd06fdb0 3c95bd0e 3cf0e14f 3baf9802 3cbd94db 3c4b95cd bcbed5ca bd2ce228 bc141c82 3c8768a7 bbe2a6f2 3b0d8a32 3cce5058 3c77554b 3cd37bdb 3b8288e1 3b4a7342 bc13c4ae bbd6ea44 bc9ddfca 3cb41e63 3cf8b333 3c40ad72 b7b86664 bc4c071f bd10921c bbf90e2b bcd021d4 bcd81252 bbebb2b1 bb7808b9 3c0f2908 bcd2a14a 3cbb0268 bd0abfed bc8317e0 bc395400 3acb8b0d 3c8eca1f bba38eb1 3bbf95d3 bc178605 bc6f38c9 bbbe199d 3bc217b5 bd0cdb8e bccc3d3a 3cd3db0c 3c6e5b76 bafb7fa8 38b50a9b 3b758748 3be51c08 bcc87446 bc29cd72 bd053d56 bce56102 bbf1eeee bb9fa7ff 3cd6cc66 3ba2c747 bbd75ca6 bb05f72e 3c94fd26 bc3b1ad1 bbfb5897 bc070c9b bcec1d53 bbbd21db bd063434 bca09464 bcbb6296 3cc9a00c bd05cdfb 3d0397a8 3c42d5d3 bce4298d 3cc3869d bc47c63a bd0a345c bc19df56 3c4ac134 bd1bd5f5 bbebb723 3c198ee5 bc939805 bac2b498 bc943648 bce2b672 3cb73120 bced8014 bba471ef 3bdff2df bcc339da 3c44588d bd07d86e 3ce72e35 3c2f3b8e bc1b6538 bd080a83 bb691627 3bf85640 bcbeca1b bc1295d6 bd1f3fe7 bd1fb2c9 bc08d28b 3cc5d9fa bbcc5216 3bca07be bc946343 bc7ba5eb bc0582c0 bcb45d71 3c86f766 3c8c6b2a bcfea096 3bc3cfa0 bc9ec954 bcb85768 bb95af55 bc5d2169 bcc67f3e 3a3d4183 3c7b3745 bc20a6c3 bbe21cbc bb0332a0 bc9edf6b 3c5e94ca 3cde0ffe bbfe4251 bb156717 3cbd1de1 3cc0e2d2 bcf69359 bca80ad5 bd1cfdf4 3c87cd89 3cba6728 bc8b09af 3c037a7b 3bc5a286 bd091e04 3c2b4b2d 3c572101 bba2be7c 3aada78e 3c3982d9 3cc902e7 3cc08701 bb9155b2 3c163d58 bc5253c9 3c85deeb bc92faf3 bd06c1e9 3c3c92a0 3c0548b2 3b416306 3c240890 ba09c745 3be83dff 3c1e544b bcc02a0f bbd39045 3aa6bed8 bc1a3af6 bd0961c1 b8283ea0 3c6d7117 bcbedd7b 3d019864 3be3e1da 3c55ef4f bc824500 bcbb8dcf bbf1a56e 39b641e0 bcc835a7 3ce43b68 bc852c8c bc7c7bcb bbef2a45 3cf2aa8e bcb1db33 3cdb7b75 3c431160 bc213c2d 3c57b837 3c401e8d bcb5ef93 bc43407e 3ce52975 3c82ae89 bcac6f4d bc59b57b 3c7836db 3bdcc44c bac00bea bc458524 bc4cb389 3c2d8307 3c93f4d5 baf1cacd bd03fc6e bcb56b6b 3ceee7d1 bcab02dc bcca11b9 3cbda172 3d011fc3 bd230e8b bd23b3b2 bc868b7c 3cf5ffcf bcc5acec badbd7f4 3cc00ab2 bc8bbd06 bc7d7e3e bceafa95 bb2937fa 3cc1ccac 3b386347 3c83a57a b9fe8493 3b016bd6 3b359336 3cbc5201 3c3b72f3 bcb206c4 bc916482 3a75c9ef 3c26c1fe bc5dfdf4 bc9db147 bc4a34af bcd1062e 3bb641d1 3c90e2bb 3be5d182 3c09e5cc 3c95c656 3c9ac107 3c8260b2 3c6f47c1 3b9b223b 3c48f10b bd01702e bcea5863 3b175541 bbd27126 bd1558b0 bc7bdd99 bc62704a 3d193e14 3cb165f9 bc652b34 3c6919e3 bc5649ce 3cf15f47 bc9f91cd bc5c9858 bd1c1a09 3be4dbde bc6dac96 3b9cd5ab bbbed530 bcb3bfc9 bc5e72a6 bc8fc666 3c2ce0e1 bc967b56 3be71881 bb254625 bd04c221 bcee8a70 bcc5ef8b 3cdd6b43 3c565edd 3cd7c430 3cc69ba4 ba289ff3 3b2b58bf bc049760 bc594fa2 bc8ae8dc bc8a53e6 bbd25e50 3cb1b289 3c19604e 3bed442e bd069aed 3ca04b59 bc1b2f95 3c300ceb bc0e3448 3c6c1923 bd164eee 3be87447 3cbaf1a6 3c205a6a bd19d833 bc9c2e50 bc4014d3 3cac95f6 bbc6cde2 3c059b7f 3cd30fca 3d10e466 3d040a74 3be97711 3b542526 3d13818c 3c9703f7 3aa89ef0 3d89dbdc 3d4291bf bc325a0b bc6bae84 bcd41634 3bc5a878 ba15ebc9 bc400510 3c9de260 bc8973fb bcc0d7a3 bcee0c9c bcb50662 3cec0d4d bcaf2a74 bcb2fb40 3bc9bbd7 bcd0149f bca6cf91 3ce9987d 3b8e5ad0 bc4e5041 3c00da73 b9081af3 bb5755b5 3c5c74f4 bd04a618 3d086443 bc4c8288 3d117e4e 3cce055a 3a879893 3d33c97f bcf3bd60 3b294d61 3cc53bfe 3cf738dd bd014110 bac38b80 3cf0d892 bd1ccaab 3b54872a bcf87e2d bb995e25 bd11e3f8 3c550c8e 3b561751 3d13f47b 3c41f363 bc6c557a 3b22399f bd260788 bcc3d589 3caaa1ea bc6d7225 3caf4cce bc4792f1 3bf04975 3be2b95f bce1815f ba9ff93a bc10c1f3 bc8114fa b85606c6 3cbf0e78 3bc63c10 3cc35749 bba2472a bc83d60b 3caba62b bcd5a5cb bd35f6dc 3a7cb58c bb12b44a bc554f76 3cb05c82 bba22fd8 bcabf331 bcf4bd89 bc62bf72 bc10c6ca 3d6adf15 bc756d17 bc802657 bcb9e871 bcd67360 bcebffd4 bcc453d8 3c8f1925 bb9d1b20 3bb51ba1 3cc8987a bc9d1303 bc8fa212 3cdb8767 bcbab933 bc839a9f 3c97cc3b 3aa415d8 3c3d7a44 bd55c2e6 bca48e6a bcd56375 bd2b4ce0 bc698728 bcdbe5df 3d205ead 3c3623cc 3aa09f13 3d0262a2 bc304a12 bc0405d4 3d6a9930 3c926067 3a3a28a2 3b8c0039 3cdb7396 3ccfe848 3c6322ba 3c8a614a bc37b42d 3c6c0fb0 bb6131f9 3b651d45 bcdb6069 bc8f9703 3c9f885f bc832441 bc76beb7 bd80ad5e bd637538 bc150a3f 3bff77a5 3cbade29 3d003519 3dabb9d7 3d0826a9 b9f32334 bd0c1cbe 3ce80363 bb45eb36 bd1c5bae bd2cc8db bbcf7360 bbd9b1b6 3b0c7c51 3c248eb2 3d3710be 3d1c1173 3c888b4e 3cc69ec6 bbcef588 bc8ebec5 3afec21b 3c85b786 bcb77465 bd20d4f0 bc88324c bca44143 bb9f9a65 3d53ebfb 3d76b2e4 3d262671 3bb06531 3ac78480 bc266f6a bd14839e 3cc65f6a 3ccb137e 3b42f25f bd29fd09 bb45125a 3c2469c2 3ca36250 3c76b6ae bbc965dd bcd6971f 3c99abbf 3cdc34f9 bc75b794 bd123c70 3baf6e93 bce8276e bd14c2af bbbce77c bc272094 3c595f7d 3d6e7d44 3d48f29a 3d974ef7 3c8c6403 baabf4af bd1a6253 b9cca1cf 3b074da0 b9c9dd0d 3c06cb02 3cf12294 3c33438e 3cfb3655 bca8b0a0 3c8ae9db bd0b61c3 3d1544a8 3cc3c0f5 bada2860 bd158202 3cda4d2b 3c8c6d8c 3cdc8627 3c3102e3 3c12e537 bcb062cf bb147a5c 3d4c4cfe 3d77ac53 3db70da5 3d8d7001 3cb6c91f bd82b67f bd72cf16 bb65dd46 3cf03b46 3c9da5bb bbb248af bb9b345e bb498af0 3c00e1f8 3d0f27de 3c2ae7da bc7f3463 3c01ad20 38d93e02 bca504f9 3c73a121 bc17540b 3c3d80e7 3cb5f3bf 3ad606c7 3ce7cc92 bc7012fa 3d30d50b 3d3dba7d 3dc07640 3e0af4ac 3d0a03c0 3b7c5654 bd13bdcb bd84eca9 3a34c1f1 bd0bd370 bbba95d5 3c11eed6 bd33c80f bbcc5254 bc117cb8 3d1c09f4 3d10d976 3ce7bd53 3d330b23 3cb9ff29 3cff0352 bc04fbc3 3b8037f7 bc28ae1b bbbbf37d bc3f59a8 bb8a541d 3d00e882 3d431cf2 3d2057f6 3d1ecca1 3dcec7f0 bc2b4865 bd939f4a bddde94f bc34d0a1 3c7eec86 bd485387 bd4f2903 bd079ec8 3c11cc5a bd2e6f15 bc201c6e bca08bba 3b214ca5 3c55610c 3d13332e bc989f53 bbe6a27c 3cc88707 bcc15a86 3cb1f644 3c44fee8 bc85d90c 3c950d53 bc47535d 3d305f7b 3d5fda9d 3db053b4 3ce9dd42 bd2f746c bdd11fdc bdc84031 bcb81e0a bd254966 bc9aea6a bd0a0c81 bcf50568 bca4ed2f bd2d81bc bcd08eec bbe12d33 bc348467 3cbfda20 3c13dd1e bcdf702d 3cb9e4c7 3ca2cb21 bc74df84 38902c8b ba258555 bc28ad16 bc970fc7 3d2ac615 3d38b755 3ce7c6e2 3c14eca3 3d0a01ea bcb1f64e bd766313 bca5f51c bc5ed029 bc3d95bd 3c9ba8d5 bcc75924 bc8c2ba6 bd8366b3 bd2a3ce5 3bb68de1 3a0d52c0 3cae14e7 bc203c9d bc43d167 bc948ce7 3cb04cbb bbe12d17 bb85fe49 3ca88c5e 3cf27647 3ce0d4da bcf65bb2 bc844cf6 3c93ee1a 3d3cea4f 3d88594f 3d66d39b 3c895a1d b921e93b bcb42f45 3c096129 bb6b6bbf bd3c5bf9 bd09a94c bc186aba bd0f8edc bcdc472f bcdaca44 3c41a1ab bc07bcdc bcc1e2e4 bbcbed4d 3cc37299 3cc70065 3c7587bf bcfa3f19 3c75e363 3c5cea89 3bc0aeb6 bc0e0dd1 3b796be8 ba50e877 3d052b9b 3c7df880 3c9feddb 3c1da108 3d0c7f2e bd156323 bd3f9997 bcb49655 bd1fe77c 3d10dc42 3c48cafe bd185bfe baace2a4 bc83cfa6 3c1d32a2 39399bd5 bd009daa 383b7a93 bc58d4d9 bc83110b bb9b3743 bd1b6cff bcec3b5d b80362dc 3cdbc30b bcc60f82 3cabb996 3c0ea9eb 39dc8c29 3c01048b 3ca28b77 3ab9bf59 3c324c5a bcbb8b8b bd472424 3ad5531d bc9c885b 3c05eda4 bbf8bb96 bc760969 bcdf2019 bd102a40 3c6c1ddb 3a8997e5 3be97252 bd2fd4e2 bc720fdd 3cc6dc98 3c5c500b 3cc43da6 3cb74fe7 bc56e897 bcf47d47 bce02652 3be627d7 bc9629d9 3ba74656 3c9529ca 3cefa32e 3c71f772 3c14a784 bc86c7ac bbf50a57 bd3d9b2d bd0dda82 bccf6aa4 bd3c64b4 3c67ee20 bc2e689c bafcd6bc bc378e0b bc166412 bce0ebdd bbc8a0c3 bd0c03c2 bca7dec1 3cb2eec3 bd16fb4e 3a887276 3a602ad1 bd1a4364 3a92681a 3c041ee0 3c8e6e74 3ab2211b 3ced4061 3bcbb529 3c7d2b4d 3bbf3d25 bcdea5f4 bcc506e2 bd248ee9 3cd73a36 3c8f8d05 bcc3cb5a bc683a45 3b2d57a0 bd17f08e bb4cd5f0 3c62996f 3b31cf48 bbd276e2 3c9359ff 3c334753 bd101845 3c7fe173 bd0200ef 3c70cb32 3cc73f48 bb030f83 bcb28d9f bcea3755 bcc44db7 bc579c53 bca38957 3cd62154 bcc01e61 3c08a686 bd23c11b 3c22600b 3cf4e99c bcd69f96 bc903ff2 3b63b0bb bd0e49af bce17240 3bc859e4 3cddc826 bc773f3b bba2ca95 bd1adfb7 bd1a1cc3 3ccf21af 3cc932aa bc77537d bc953205 bbe038d8 3c39bc89 bd1b0320 bcc3bc8c bc8df46d bcaaabdb bbb9006b 3c9c3a6d 3a857210 bd1467d7 3cd7cb6c 3cb00337 3bb449d8 3c461b4b 3c165578 3cd1122c bd1e71c2 bcd7a4ed bc0f1580 bc3fe624 bce130db bd19fe24 bcfcef25 bc23228e 3cc945df 3cb684a8 3c19ed18 bcb1372e bc6b108c 3b374988 bd049df4 bb08a484 3bd4363c 3cfa7d52 bc1c502f 3d081a6a 3b083699 bcc7a110 3d02fec9 3ceffa23 bce2c7b9 bca79dbd 3c8275da bcb187a7 3cbb4a88 bc8a9df2 bc37478c bc2a2775 3d04444f bc46ef2a bbebf479 3ca63505 bcc4ef60 ba3288fb bcddc7ed bd041194 bc090f4c 3b575048 3cebf5e3 bd093c9b bc2adbc1 3c0b62b7 3c4c5e8b 3c9fb71d bce8f430 bc121308 3bf47845 bcf2680b 3c715a03 bd0bcd76 3ca995b7 3c34c38e bc1b07ac 3c3718ab 3cec7657 3ccb147c 3ca69fb6 bca830b6 3c196d49 3ccf2389 3bb5d09c 3cb6431c bcb2e48d 3cc1bd0e bad7c947 bd00916e bc1a80ab 3cf5057a bc4d500d bbd47def bc7a8d2f bcb3100d 3b14faae 3c7d1ae2 bb94cd29 bc3e8471 bc08c450 bd0c7701 bc9d95ff 3be7fcab bcbe5d66 3c8bb646 3bd1c092 3a52b1a2 bb12a257 3ce93c9a 3cfbcd92 3c854c87 3c87aa74 bc8cca72 3c5dd4bf bcc6be85 3c6a786b bcc5ea09 ba4d6bf0 3cc6385f 3caff9b5 3cddd611 3bd6aed1 3b9e541a bb855a68 3c0d9f51 ba41c5a9 38d04410 bcc414a2 bcb50105 bc040a04 3cc3c899 bc7e75b2 3cad2de3 3d26b0d7 3cef315e bcc2f750 3c435580 3cbb0f87 bcfdabbf 3cafcb1b bcb3b634 bccfe388 bc89446a bc623919 bc72f33f 3c18cfaf 3c3fd103 3c2b07ec 3c986207 bd014f24 bd33fa3e bd45fd5a bd49c191 bd1630ae 3a895c73 bcbd23cf bca59ad9 3c6af87b bc9c9050 3b895e3e bcfa723d 3cbe9b3e 3ce54ae1 bbee76a8 3cf5559b bc426210 3cbad237 3d0079e7 bcf1d6f3 3c4a4261 3cb7e551 3d0057aa 3cd02134 3baa9c73 baf95361 3a800c07 bcf512f5 bcab4273 bc306b8f bcf55a31 bc97545e bccc6bb3 bbc049a5 bc0c0136 bcb76b62 3d4e4aba 3c5fb2aa 3cff487b 3b323041 bcf1873c 3ce6babf 3c5c65cf 3cb0faa2 3cbe3ed5 3bb19eeb b987e61a 3ca3219b 3cdcc4ed bc1f18b6 bcf56ac6 bca130f7 3cbb41a2 ba87748a 3caf1f62 bcba285f bd4772ac 3b8772d7 bcd58834 bd203a44 3cb8588d 3c1ebad8 3c6ea16d 3d613491 3ce4aae4 bd060d39 b8b1174f 3d0c678a bc2334c9 bb0b7daf 3d3e3d39 baf40f50 3d1a5e87 3c3e0c7f 3a99d920 3bafd21a 3bd7bc7e 3c310e9f bce9a07e bb040ec2 3cae4bac 3cfc455a bc3343a1 bd13f589 babe5975 bd40b462 3bd4f08d bc93a826 bb90f0de 3c796561 3d0abe55 bc88b14b bd3047e0 bca9458a 3cd190e4 3c6becde bc41cbff 3ca99591 bbfa91c6 3c730cb1 bc741b21 3c1cf437 bbc0b68d 3b85311e 3c798ab7 bcb7d767 bc4269dd bcc5e323 3cd65562 bc684da6 3baf317f bbe9e271 bd58bd96 bd54cd5a bd5468a9 bd74ce57 3ca28261 3d1d4e0a 3c2ca3fb 3ac9ab3b 3bb26027 b9ef0fa0 bc7b2d15 3cf38104 3b7cb7b1 3a4b9ae0 3ce58d18 3c8d00ce 3d2375d8 3c59353f bc938b8e 3c522b14 3c58f3e1 bc824817 bbcf43e2 bba6d489 3c3983c3 3cba0b7b bc4dbf41 3bcf1340 38fa639c bd7a83a6 bc967b5d bd20ac11 3d2143fe 3d899019 bd002ce0 bd255826 3a1e6aca bb9519b0 3a1f2efa 3af58efc 3cc82a33 bcefc9d8 3c804f65 3d3c3166 bb12d376 3ca4cea3 3ae67935 bc39836a 3ae07f1b 3c41adf4 3c9fd3f2 bca14400 3cdebc88 bc843316 bcff70e0 bcd5d5e3 bd2effd0 bc900095 bd0f65d3 bc8f551c 3c39ef25 3d9fc260 3cae2819 bcd969cf bc5c2a7d bc949270 bcc291b3 3b64933f bcb58d9d 3ca5107e 3b9d59a0 bca9be1f 3ce5eefe bbb9a573 3a98fbe8 3b80d9c6 bb9627d4 3d03bd18 3c70fe21 3bc5b7e5 bc2dc3e6 3c2ee002 bcbecd87 bc5ffbe0 3bbbcb70 bd74cfc4 bd33d9a3 bbbb3c67 3d4d5bcc 3bed0fa3 3c832c23 bc86fc40 3cfdce0b bc7557ff bd00615a bd009069 3aad78b5 bc39b78a bba4a636 3c95f2fd 3c6f4962 bb32e473 bc99e713 bd08e756 3c832653 3cd57515 bc873eba bc845266 3c09465c bc19002f 3c7a8721 bb7232ab bbfd9952 bd769e51 bc8f542f 3c3c15af 3d2aac00 3d4dd951 3d0f317e bbba199a bb4b26f4 bc8deeb4 3d093fcc 3bac697b bd131587 3c0bb78e 3c2ca59e 3c2d525c 3c80dbd1 3c691884 bbd996da 3b3e2857 3ce10583 bc0422b9 3c164a90 bc6c23d0 3b09df10 3c7960bd 3c45a9a7 3c863312 3ccd5530 bc7910b7 3ca8dab5 3d61b952 3d246332 bd0d7a07 bbc761df bcacea80 3c6c5e7c 3ca0921e bd3060d8 bca570e6 bd103f37 bd744ba7 bc9de6a9 bc7b087a bca77d05 bcb6e95c 3c9ec8d0 bb839830 bbefb983 bc29f101 bb9b6030 bc609c2e bcd03021 3c0fd399 bc6ad49b bd03aecc bc83218a bc30b03d bcbcbb2e 3ccfa1a0 3cebda57 bd221303 bb4926bc 3cc37bbc bcba7a7d bd12cb80 bcdcbf2e bcb476ce bca0f56c bb05520b bd58423b bd0c5aa4 3ca59fde bcd6d0ec bba9be0f 3c7d3a1b bc9e0179 bcdea4f0 bcc0b4a8 bce653c1 bd06694c bc56c285 bd30323c bce68147 bc6eee2f 3c198551 3c4406a1 3ce81e6a bc8e7e18 3cec27d5 3c066d09 b9a110f6 3d4a723a 3c8c8242 bc99c966 3bc0bd7c bce05cb0 3bd0e06f 3bcc7688 bcb39f02 3cbbab50 3c312624 39fed437 358a9934 3cedde7b 39ed78aa 3c356a48 3ceb476c ba91cb94 3cae605f bcd7b935 bcbe86c5 bd1e9739 bc80369d bd018d6c 3d03390f bd0ace81 3c986731 39dbbc6c 3cada95c 3cd4b959 3a097480 bbba6b6e 3c4b3157 bce6e735 baa3b31b bcf6c3cf 3b36b2d1 bc00c796 bc218727 3c84914a bc436f69 bcb044ce bc2d508e 3c9cf539 3d3b9fd6 3d0aef9f 3ce130cd bc92998f 3c8f31d3 bbf501db ba8de6ca bcdddd45 bd29e4b3 bc4beec2 bcc9ea68 bc7b2815 bb9fadb2 3dabf2e8 3cf8e638 bc0f64de bc4a9e2c bc305b69 bd0cfde3 bc13288c 3ca8458b bc5f5f34 bd0014d6 bca9e143 3ca9ad0b 3c9013a7 3cc3999a bc07b16d bacee0d7 bcab6485 3cc063ab 3c206117 3d35c458 bc92936b bce22d06 3cf9c924 bc519a6c bc9a459f 3d0534b7 3d489cf5 bb476d22 3d2dfd7d ba90cba1 3b3f37f9 bd877a37 bb616d9b bd3b9401 bd2c4737 bcd42d42 bd21071a bb6414c8 3cdd15f3 bc24b74c bcdae61b bb34fc36 bcbf15f9 3d0ecfeb 3cde4377 3d38a114 3cb494ca 3d087f1a 3c5e660c 3d1010fe bbc840a6 bcc9f434 3c0513f2 3c595e78 3d45953d 3d27c9e8 3cf61da6 3c39ccf3 bc741b92 bb5596e4 bd3b7699 bb86328e bd06153d bb14f76c 3c5c3b26 bc4ace40 3cef21da 3cf691b7 3c21bdad bcde2d7e bb7217c5 3cc96d36 3c967568 3d3be29b 3b85216a 3b47cc85 3d4f50a8 3d11d5e4 3d2f6b7d bd236090 bcb63aca 3c318e7c bbe72793 3caab23f bc968457 bd474c9a bd2b4f0d bd35bf0e 3bbf51cd 3c8020c8 3c93df05 bb4d1116 bd0ec601 bc58313f 3bf46d18 bc207883 3c67ebb8 bc773478 3cb6e0c6 3c67035d 3cf29530 3c563cee bc551f9a 3ca01c2e 3c6c27bb 3cf9a0d5 3d1008e0 3d17707f 3ca8f647 bce4d05b bc0f85f0 bc778215 bbfce132 bd63c2d4 bce59741 3c007e8a 3bed5b73 bce699ad 3c952661 bcb6cafa 3cecc9f4 bbf899df 3d05bfca 3ca1698d bb5c060b 3cb19223 3ce56947 bd0d1ca6 bc07725a 3ca53e16 3b52b576 3d011230 3d75d49f 3d32b94f 3dab211d 3cee4020 3d30736e bca16a7c bc917edc bc89a2e0 bd6681d9 bcccf128 bcd28a45 bb242d2e bbeee61a bd06e18c bc5197f5 3b26690e 3c8f358b bca5b411 bcaf782f 3c755eea bcad4a02 bc6577c6 bd087d0a bb85d5da bd018fb3 ba849142 3ceb2078 3d022c12 bb5f67bf 3d9d89a6 3cb50cc2 3bc69d20 bc0b16eb bb84c05c bc137591 bd40cbe2 bd63b96a bd2e11a5 b95bc1bc bd1cac20 bcc08779 3caa472b bbdf3b9f 3c4de392 bce53351 3b955ef7 3cf9a3cf 3bbbef27 3bb5d507 bcb20e87 bcc57e4e 3c8e59f5 bcfac442 bb8580f4 bcf17c92 ba360030 bc895862 3c9531a6 3b56f82a bc14243a bc756633 bd021ebf bd2a1e01 bc91f0f5 bb433a4e bca6de1e 3bfb0064 bcdf695d 3d01136e bcabca71 3c6c70b6 bcc4d1a5 bcc4c521 bbb68763 bca4a9d6 bc260da1 bc7d7d22 bc25db39 bcddc8a5 3ced8327 3c792a1e bc92b45b 3c963db2 bce340fa bcc31847 3c64c37e bc724aeb 3c201802 bcb011eb bd169bca 3cc18617 3bda37bb 3c16173e bb39bbd5 bcd7ea73 3c40d76f 37a3d2ad bcbac1ed 3c9dec89 bd058ee2 bcb304bd bc0bcc78 bd0619eb bd00ecb0 bc31af2c bbe543d3 3cca5642 3c82ac24 3d0606ca 3c1dab36 3a8505e7 bc42c0ea bcaf76d5 bd14bc86 bd0dc68b 3c204942 bcc718ba bc8c065d 3c574791 bcbda8ad 3c3a9eca bb1e974f 3bdd1f17 bc847960 3cc9229e bcea6a41 bd05a05d 3cd786fb bcc27dfc 3d0519a1 3c71c703 3c50f6bb bb9c680a 3bc30649 3c0802f8 bc889d0e 3ccb414c 3ca9022f 3aa04a6a 3c1602db bb99bff1 bc53e4eb bcdd1939 bc60818b bd08c754 bc398377 3c8deab2 3d043d41 bd0385b3 bcee3597 3ce44cba bc4f3b71 b9f52c85 3cac835b 3cf542c1 3c4ce2cd 3c0316b4 bab03898 39b80878 3c242cbc bd143f59 bd181ca0 3c9e5af5 bd19aba4 3c68eb6f 3cac4f8a 3c9b36d7 3bd96546 b80a01c3 3c4506e0 3c88463f bb359b9a bcea1f2b 3c8fcc19 b7b89b72 3c8a1b6e bcdc4e78 bc4bf07f bcd47df7 baf6e411 3ccfca17 3b2fc6e0 3ccfdba4 3caf6166 bce14ca8 3ceed325 bafeb2a9 3ccc435c 3b37d2f7 bc1f4e0f 3ccf8b2e bceffbe6 bb4a0bc9 bc0a6a58 baf14b74 bc4bfac9 3cc3127d bbb2b7a2 3c2a8873 3c31aa18 3cdd210d 3bd93ac6 bd21f5c7 bcf66fde bd109b03 bd1abe40 bd058bd9 bb901fe2 3ce835f9 bcd91aca 3c2da05c bca013a1 3cbaa273 3c979f03 3c469ccc 3cd891fb bcf3feec bd0757d1 bcafcbfc 3b4c08f5 3cd9f4e6 3c9dc649 3bffabce bc01f81c bcaa1084 3d0cf97e bcf2327b bcba5af2 3ca5c809 3cd60397 3a4c577b bb92a3db bbf300c4 bb726e8b bce3b977 3ce951ff 3cf5a0b7 bc947204 3ca1ccc6 bc42c586 bceb4cc6 3b0658b8 bc2ac82c 3ccaa99c bac0b379 bc3cb5a9 bd003f41 3c98e2c4 3ca24dab 3b3ff4a3 bb8ba438 bc20369d 3c67cc1f 3d174073 3c355f09 3c932deb bcaef45c 3c735fe6 bcc78042 bc632237 bce17ef9 3cba7adc 3c28f0ec bcf78e47 bc825ab2 3b9f0535 3c117850 bca7fdad 3c25582c 3aeb9b3e 3c824a84 bcb7c1dc bcd56dce 3c406dd9 bbae88ee bc9798d8 3cd3c312 bb12d7d2 bc913891 3c1ed5df 3b969804 3c902306 bad8c1df 3d5db468 3d32d80c bd0f0020 ba876a8d 3b52ed0e bc7b396d bb287d93 bad44f09 bbd7d7eb 3c46a37a 3c955114 bc34af1e 3cd5622a bcc98b31 bb5e00a5 bd03a54c 3c4eb90f 3b44eaff bcca86f0 bcf6ec1c bbec0fd6 bc64f17f bc0b3d2c bc800b9f bc4acc49 3d10d4fe bc3c340b 3c6ac526 bad57210 bcb2be25 bc4d3ca4 3c918f22 3c993065 bcb0a8b6 3cb9e067 3bc71697 3b5397df 3d014324 bcff9b4d 3c9233d1 bcbd1cc8 bba21b79 bcbfbda6 3c9b7b56 bd010cee bc9c4a86 3b2d1dda bc7d620f 3ba9fa5d 3d0aa5e8 bcb0300d bc39710d bccdb6fa 3cea5d79 bc9ea498 bd42bd0b bd40ee97 3cb6fd4a 3d05ca88 bc1bd7e1 3ab6b4a8 bd57d813 bc03e576 bcd1eedc 3c849492 3c932a4b 3b9ee092 bca2b923 bbb122e1 3c40bf67 bcc60b8f bca2e697 bd19937d 3ca8a159 bca0affa 3cd52d4f bb7a14e4 bc2aea84 3c8ccbd4 3c184bfb bc97e7f2 bca8ec19 bd31b261 bcd3ed54 bcbb9944 3cbf031e 3bcdf463 bc900005 bc4e4736 bd4cec08 bd460a3b 3c8b3238 bc193006 bcd7984e 3bba3e1f 3ac8d56d bd27c1a6 3ceadfde 3cd70301 bceaca93 bd1cee62 bcfccc4b bc60d08a bba7991e 3bd7092a 3baf66c2 3ba93e4b bcdf5ddd 3b612736 bc81d6cf bba149ab bc0418bf bd344543 3aae17d2 bd3c7068 3c1643ce bd83dba0 3b9d32f5 3d112448 3a3e8df8 bc7b1124 3c6f7cc5 bcdb3b39 bd2329fd bd080112 3c8ceb13 bcd02027 bc908276 bc91d2ff 3ca6744f 3c15131f 3c86e867 bc84eea8 bcdbd2b5 3a9fe7d6 bb923ab6 bbc49ae1 bda2673c bd71bfae bc16c3c2 bc23aa35 bb1e7d20 bcfe90f5 3b1b91a7 bcb30ae7 bcf6abd1 bafceb96 3cf41911 3c924749 3be539b8 3acdd2e7 3bbe31b4 39faffde 3cc0c44d bca2c302 bccd52af bcd12efe bcdfcb1d 3ce8baae bca4e801 bcd7c4f9 3c93e634 3b3fb79d bd3f1aea bc82ce79 bcc4a130 bcbeed64 bcf56e3b bcd5d1a9 bd6eaa99 bc8bea7a bd360f99 bd6f7d53 3c98d47e 3d0adf14 bbefdea1 3ba40ce6 3b490fb8 bc713bd6 bd04c44f 3c3cb5b4 bd2ff4d6 bd00e163 3cc8cb6f bcd0e9a2 bc806162 bbd1bf80 bd256e26 bd29f601 bd13cf2d bcba0b0e bc4e1132 3d1e6d9b 3be93df7 3bf3a10b bd668a6a bd44a34a bcf74826 bc2e513d bd309233 3c02baa1 bc876238 3d0dcfbc bc88a181 3c90cada bba57a2c bccb6ec9 3c6e5519 bcad66dc bb71edea bc8ab6ee bc3d3fb6 bc4f579b 3c39e4c5 bc08cf29 3c73694a 3b31d966 bbb6bd2c 3b20494e bc3e412c bcc38b17 bd2baf71 bd238c05 bd61faea bc921b00 bcc6b594 bcf5fbc7 3c7c5d24 3d435875 3d1208c8 bb108493 b86661c5 3c4edffa bcef0058 3c0a0418 3ca0c669 3cbc654a 3b705e8f bc063a31 3c0ccff0 3b62695a bba9c6b0 3cbb522e 3cb4bc20 bcbee8cd 3cfd3024 bc4e04b2 3ace95a5 3d2c35de bcd1af67 bc561db9 bc69385b bb001058 3cacfb77 3d127061 3d228b85 3c045284 3cbd2485 bb6c58c0 3caf7b61 3c8a689f bb92a273 3cecba82 bba64c9e 3c31b7b8 ba0620df bb08d23d bbd14bdc bd10dbe6 ba4fb710 3cdf2e38 3bed529d bd00b049 3c851282 3ba7582c 3d0bf0d5 bbde78c9 3cef0aef bbb2b50a 3d00a3d2 3d6c6614 3d4ba66a 3d07150d 3d8ece54 3d371551 bb6822ca 3b073c15 bc348b2d bd3cd9a7 3c9155c9 3d02a546 3cc7cc73 bbd28013 bcebaec5 3cdf795b bcb55448 3aade8a0 bd0dd301 3c8d10cd 3c04edaf 3d01b984 3cd2622c bcbf4e41 3d1f4d0d bcbff806 bc6efa01 3d3a1582 3c837207 3d1e1577 3d296d03 3cffadff bba91c28 3d20837c 3b8523e9 3c666887 3c407856 bcfd34ac bce7f748 3c8a842f bd09a672 bc834fa0 bd01fcc6 bcc51201 3a568410 bc3f74b7 3bfecd8e 3cbd3984 3c332436 3ced3836 ba02832d 3d7063b7 3c517ed2 bc841eb7 b51c6bcd bd04c790 3cf5aa6b 3d49c7bc bbc75e78 bb96abac 3c42cc23 baba8a91 3aa27d28 3aae8f0a 3b3e0db0 bc76286f 3ceeb4d2 bc555c23 3c1b6772 3c06fe5f bc54e1ff bb62eac7 bc24f517 3cb75639 3caa52d0 bb623cfc bc3f665a bc94e999 bc6c8b28 3d51e961 3d04c826 38daa403 bd05cdee 3c9f42c4 ba1924c0 3cec0089 3cc5a724 3c3f9cb0 bc6e86ec 3cad9d9d 3c85c737 3d0ee159 3d13803c 3c3c388e bba48ba1 bc2b8df5 3cf389cd bcc8ef2d 3c17f307 3bf0c9e4 3c53eeb3 bccac840 bc2c10a3 bb8766ab 3b9d06f4 bca936c7 3cf04f11 bb92fffa 3bf87670 3baf0790 3d3352dc 3c927e5b bcbb4f12 3b9a4ec0 bb377bc7 bcceabc9 3cbc89c9 3d5a8baf 3d2314b3 3d268458 3c8db3c4 3c891092 3ba22e3b 3cafe1e9 bb9ba6d3 3d1852c9 3ae95c4e 3c9638ab 3cb21f92 bc3674c3 3cb5a511 bc7031ec 3c39f15c 3bdffe09 bbe75735 3b670b36 3c8e4e15 3c917242 bce03d82 bce65dc6 3c23c465 bd281658 bcb9d676 bca9e95f 3cc8840f 3bc40fde b984df7b 3c13505c 3c94552e bd01d4d9 3c9f3d18 3cf986eb bccffc63 3cd42a8b bd09c327 3c5b5bc9 bbbfd9f7 bbd84b4d bcae12d4 3cb3dc84 3b2fa85f 3ba9608e 3c37f9cf 3cbde314 3d440613 bcb03cc7 bd4a7bc7 bd315741 bce13391 bd47d5ab bcd382cc bcb2b319 3c3c27ef bb90d6db 3c98e4cb bafdf53f bc620964 bc85b943 bcd81599 bc1df6c4 bcd41b7f bb1907ed bc29e668 bcf59d46 bc9ec1bc 3c3718b8 bc5fdedc bd025ef9 3ce1e10a bc3aa998 3a8132e7 3cf6c41a 3d0adaeb baeeb69c 3cf6e50f bbfc5d6b 3c3759d4 3c7481eb ba0cef8d bba24531 bd3e743c bba7bdb3 3cd7ccfa bb8c2cd3 3be03f0e 3d08e360 bcd9c3b8 bd071870 3cd9bf4e 3c2019c8 bb55d20a 3cb9cb9e bb0d8f97 3cf31dae bcda76e2 bd00fce4 bbfe0453 3d0b071d bd047029 3bc7f929 3bd49021 ba3fa52f bc537a92 3d14d505 3cb20f3f bd092db2 bcad2bf1 bc9eb087 bd218c18 bd345d84 bc04d15f bbd8fc68 bc1a1b98 3c74faf6 bca981fa 3d0c8825 bc0c2151 bcd0708f bc46d3e4 bd03fe2c bd09a6df 3bc7ce01 bc59b7ef bcb273cd 3c81486c 3ce91758 ba28109d bcefd8f6 3b9c5bbb bc949112 bc917b9f bc2063c9 bcdf18a7 3b727335 bd28059e bd6f4e71 bd091c32 bc1b8cad bc29bd5c bcefc9ed bcf56530 bbf3622b 3c02ce92 bcfc74f4 3c0363af bc81e541 3c52e7d3 3bbedbcf bc190473 bbe3eca0 3bdc13c6 bcac17bd bc3cb043 3c25da7e bd2ca001 bcb44e6e bc1f80d3 bd051ac1 baab27d6 bb8b4ff9 bcc6dfe3 bd3313a6 bc7cedb5 bc9a5f32 bd3d6e03 3c75f9d8 3c9c7faf 3c903bb0 bccc6504 3d0212b1 bc84c0e2 bd060d3c 3c8aebf1 bceff2e4 3ce61f5f 3cf597f2 bcdcdb82 3c9af6af bc2a8a26 bc4f6679 39d05f90 3bc03473 bcf921a8 3cdacbc2 3c4e2f58 bd050724 3ac46cd3 bc4b862d 3b1f6376 bc38dfe4 3c3eac46 3c5c4426 3d165b04 bb64dbf9 3c9cfb04 bb4cb67c 3a890af9 bc5bd77e bc5873f2 bd06b082 3ce8d1c8 bcba706a 3c69a028 3b8a5186 3c9716f5 bd1509d0 bbe75b7f bd16b85a bcfd4547 3c08d447 bc655959 3c8ab358 3ca0d06c bc113722 bcb87c6e 3c154264 3c9c4b31 bb92f770 bd04fc2a 3bbebdae bc88057f bd31822d bbcb52db bc01d7ab bbd73a7d 3cd5d978 3c206eab 3c87ebb3 bb6e56b8 bc2ed92c 3c141bc9 bcf24ba5 3cea992f 39dc5fda bd12b8bf bcc236ca 3c508371 3b85bc38 3c5717f4 bd1b55dc bba1e9c4 3c817443 3c740423 bba17855 bd208087 3cd3d586 3c177be8 3c0c298a 3c86e0cf 3c7e61da bc0d2348 3c91512b 3c94c718 3b81c127 bcfb0680 3ca2cd6a bca98abd 3cd0a391 bccefccc bbcbe31a bc8c744d bcb1ce8d bc68f7ab 3c9df02c 3c0aefb5 bbc640c1 bcf9cca2 bcb39eb6 3c885f34 bc9b2880 bcf0c42a bcb21146 bc6b87f0 bc9462d6 3c7cc3ed bb56c362 3cf2499e bd0d6725 bca5019b 3c0bf6a0 3c951a22 bc8b3f65 3c32286c bcb2bd9e bcc22c24 3c82711b bba2f272 bce5b3db bb89ebcc 3ce04bda 3ba2e17b bc1fe770 bc15383d bcbf72a8 3c88ac5f bac260ef bc9cd77d 3ad90506 3c073b20 ba90cd8d bba4d3fb bd0a605d bb1a0b20 bc5176bb bb135601 bcb8431f 3c343789 bcc44e41 bc60602a bc9754d1 bca3ba35 bb0aa564 bc944e0d bc917fd8 3a4330a9 3c3d950d bc9d9a98 3c7d21d2 3befefa7 3cc1d9bf 39e9a472 3ccfc763 bd0a612f 3c013472 bcf77729 3c83c441 bc4eaf98 bbd25172 3cf0d93c 3cff79ae bc3cd66c bcb1cd90 3c80aa5c bc82810b bc8171a7 bcdd6e8c 3cf66c71 ba873bc9 3b8028fa bcbabd88 3c5b58f7 bd112a6c bc52c6f7 bc0542c2 3c8e2d0e bbc74ff5 3b06e888 3cbdf4bf 3c161da6 3cce5bdc bc67c301 3cafacee bbbaa957 3ad169bb 3c966196 3d231407 3bc39481 ba5c05af bbed1aa5 bca0793d 3c99a088 bb7f913b bc4b2680 3b2bf3b3 b94e3437 bc30ab79 3cb2965d 3c6510fa 3be212cc bc908610 bc8b57a2 3cdd4c40 3b8a4097 bd0ba4dc bbf600a2 3b865bd9 3bccd099 3cd89709 b9cad2d1 bba81f24 3cc76679 3b8f58c7 3d06b5c3 bc47bcf7 bb997d52 bce0cd37 bbd90e04 bcaa019f 3d2d2765 3b8ff13e bcfa258e bc700c6e bc761359 bca1c1ad 3c652ee8 b8f7c99d baa36861 3c687a0f bc6b548f 3a43bca6 3cf837e8 bc916d56 3c33ce95 3cd485f9 bbfa05e1 3cdfd933 bc81883f bc2b39b3 3c2c5c7d 3b953ee1 3c45afaa 3b918823 3c3320ad bd023c0d bd34cacc bca401da 3d37dc73 3c24524c bb9a6f6e bd7a0045 bcb6f513 bd2802cd bbf61386 3cd3324a 3ca55cbe bc8eaa56 bcb49078 bcf7cb89 bca27930 3c117abd bcbe5bca 3c837957 bc7708cf 3d0bb7d6 bbef8b8e bb30eebb 3d011331 3d11852c 3d030a0c 3cf32033 bcc7a0f2 3c2d2fc9 bc883112 3cec51d3 3c403868 bcb47f2d bc8ffb6f bc674df0 3a7281fb babcad49 ba514cde bc8e12a5 bbbef810 bb029b92 bcf71b15 3c095a47 bccef198 3c9b0a6d 3ce4956a 3ac8cdcf 3cd480b8 3be6bd6f 3cbdcb4c 3c998f53 b9e79a40 3b139ff1 bc34ae6b 3cc7b3ca bb491935 bc74b099 3b2b71b4 bc38944f bce6884b bcadd35c bc0a588c bbb8bb4b bd1c3678 bd684155 bd42ffaf bd11e299 3cabf971 bb61a7c0 bcc469b2 3b600301 bb2afd13 bcb7ab5f bd12b7ac 3ba2e722 baedf548 bc28236d bc908acf bb84bddd 3d3a16f6 bcebaf66 bd0b4c1e ba16c506 3d114f42 3b15bbfe 3c79fd81 bccf02db bc9374ea 3c89d593 bcbedc84 3cc49323 3ce8821e bbc30f03 3bda16e1 bcd85f61 3d0cb9ec bcdec50f 3c6b12e9 3c089794 b8a15f80 3bc57ca3 bd15baff 3ceea504 bbb3fbae 3cf6ee5e 3bd604ed bc174fe1 3ccc7815 3a622796 3a570048 3cf95f8b bd020624 bd248f09 bd2d8368 3b7495b4 bb77bbd8 3cafbf3f bcbcfb04 bcf6d10b bca3a61a bc9a6716 3bf498f3 bba67b16 3d089c70 bce8c24e 3c0877de bd0a02d7 3ce689f3 bc81e479 3c85e806 bb2e921e bc84e710 39f037b2 bbd0dfbb 3cdb516c 3c9c81c0 3d48f4ab 3c17fc4d 3cc1478b bafd64b6 bcc636c2 bcc9c03f bc8cc671 bc4ab753 3c2c1bab 3c1192aa 3a8510b4 bbee58cf bc7a9f4b bd284540 3b466483 3c27a829 bb3d4824 bc251e15 bb0f6f92 3bc6f972 bc9e85f0 bbb2e9fc 3c8301b6 bc0516bb 3c6327bb bcdbacad bce24bd5 bc21bc96 bb351022 3d2d1904 3c11598f bbb1f2d3 3c297254 bd9d51ef bb4e4c2d bb38bdea 3c537bbf bc971b8d 3d1d9230 3c867b1c bc35251a bcc52375 3b7e1c74 bd1a393e 3cf08617 3c9312da 3ce25c8b 3ce4c03f bcbd811b bc48b40b 3c8c9b2c 3ccb1d03 3d2b3d41 3af49a8f 3ca7d07a 3c1922d6 3c7fd44a bc4f0d85 3d27aa63 3d0d95a3 3d07ccae bcb63c4e bd68ef1a bc06d268 bca47b6b 3cc066a5 3c53f8ed 3c8402d7 bca91516 bcc650fd 3ccd9067 bb8901c3 bc8dda8e 3ce9afe2 3ca60fe2 bbd5b74c 3a8d56c4 3aa82fad 3cf8799d 3cab4d0e 3c56c47e 3c80b499 3d194736 bbfaad8c 3c3df32a bc0b52ea bc9da371 3d346455 3c8f46af bd35c873 bd476f4e 3cb11a00 bcbdcf7b bcca1b8d 3d5741e6 3c0af1f1 3d36cda6 3d0dc4c6 bb23b5ff 3cb6abe0 3cf37c39 bd0335dc bca8f07c 3ad189a8 3c01705e bcd81a32 bcfef921 3ce8b6e9 bc983ada bcb4cf18 3d51ff81 3c207c84 bc2a941a bd3f0507 3b3856a7 3d1374c9 3d776cb3 bcab7f88 bb19b177 bd3dd159 bbd1d8fc bc6cb5da 3c24027f 3d167902 3b3ac1b5 bc3fc4ca bc938946 3c756c6f ba973725 3ca269e0 bcf64916 bcd4e056 3cde0fce bc84a4d8 bd16480b 3c9bd793 bca2016f 398e87d2 3d125f1b 3d235592 bce79940 bc69e59b bbcc697f bb4780fb 3d2765a7 3d794b86 3d158da7 bd1c4e3a bc2f2edb bc893d8a 3c38f3ff 3b8fbaeb bc7f83f1 3b5c79dd bb85ad75 3d57ede4 bc916e0b 3c633099 bb4bcf8f bb414b1a bbea63ec 3c3f3dc6 bd047b06 3b44ecab bd0aa1ac 3ba64c77 3bf2634f 3cbbaf5a 3c8d2e0b bcb81739 bd148341 bc81d652 3d868b50 3cb94462 3d79cfd3 bc74dcac bceef994 bc243a5d bcb824b0 bc11352c 3c6ba722 3ccdd03c 3cd49fa2 3cb6ede4 3c215bf5 3c99b739 3c0c227f bca64e96 3cb37080 bbf51c65 bc86d9a3 bc77d99d bb1f1297 bcbb5fb7 bca56755 3cd4704b 3c8d70bf bd774f0c 3c02e201 bc39551a 3d90a1b8 3d9ed54f 39f7a92f bc13f523 bb701b21 bd3d56dc bd012470 bbd794d6 3caf3488 3d010651 3c81c540 3be5e348 3d14deb9 3cf90cf9 bcbc5617 3c89578e bc3067ab 3c068076 3a4ccfa8 3c31a3c5 bcb4bf69 bce9dad2 bd003a45 bcdf4262 bcffef9e bcc248ed bc43e7e4 3be9a2ff 3dc31e00 3d7b5d15 3d62b451 3d8d4e79 3b8b8acc bc8e6d2a bcfa0c5c 3cccac12 3cc43e24 bc986942 3d1bfa2e bbeb1c72 3d0bc027 3c9ed024 bcbb48ea 3be6f6d4 bc93b25c bca22dc6 3c03702a 3c4fae73 bcc0a6e5 bcecd5ee 3c0bc43a bcc5b1fc bd2a8c03 bd88a582 bb3e347f 3d254521 3db37999 3b5e2585 3cea9e34 3d248b0e 3c9aab33 3ce0d8ca bc642b74 bb01d01e 3bfc1926 39e61db5 3b5f4400 bc503391 bd16e71b 3ca00aa1 bcd48aeb 3babc14c bce564e5 3cb38e9f 3ccb910e bcb13848 3cde454d bca0fa8e bd37f73d bc77a413 bd2e9e62 bcdd3045 3bb99465 3ca22d14 3be31a6e 3d1286f9 3bcfd6ed 3d47c8ca bc2bc3ce 3d0f2177 3d00ff2c ba95afde 3cd09281 3c017797 bce2cd81 3cbab095 bca411ef 3c924763 bc3f97b0 3ca4c1a4 bc9f5cee bcdb4337 bcfd09f5 bca3c5ac bca3e8d4 3c22847b bcaf90fb bb3659fc bcd1ff7b bd092322 bc54c23c 3ceb31d5 bbac161c bc347c16 3ceac925 bb877e69 3d1ba43d 3cfbe587 3d2ff0de 3d851865 3b83127b bd07ffb5 bd00f6fb bd1664e4 bd112498 3c11b441 3c62ffb4 3c74bb84 bd0d588c 3c91ac66 3ce2fae2 3c390e99 bc79b422 bd04969f 3d0be1be 3b556fd1 b998f8e6 bcaa0935 bb1b21c0 bd52b9d9 3cb00027 bd16129a b90b7ebb bd3468f7 3a6810b5 3d564ec6 3d3f214c 3d00f915 bb269230 3c8b8ad6 bcb0e143 bc0af463 ba2b5c06 3cba8bbf bcfd828c bc86c555 bcd46395 bca92282 bcbbe15a bbfce24d 3c1e8b2f bc3c861b bacf3984 bca3bcce bd4d6a39 bcbcd7ac bc8b87aa bd55af99 bd3fb2e7 bc8e21fb bd4fcf1d bb3e58da 3c4e010a 3c244719 3c29c1a2 3d277379 bd05b704 bb5ff67d bbe323e4 bc8497a1 3be8c978 3cd6bc0b 3ccf6650 bca0a43f bc927bf7 3c307568 3c7f5324 bd00e28d bc9da483 bcb81866 bc4f73f8 bcbb3464 bd3a8e1b bcf175f1 bcfc0c2b bc1dd83e bc625995 bc7fa79f 3cfc3e05 bc43aa5f 3cdcb795 bc732a59 3a0b8833 3c633431 bba852be bd09dc8f 3cbde221 bc78349e bba26f4e bbf8904f 3cbf7caf 3bb26393 3c574b6d bc29b2fe 3d008316 3c290a7b 3c54d476 bc3f8410 bd0a64ad 3ca12250 bd1b5e6d bd3eca56 3a91fe5c bbd21704 bcf14631 3c857caf bbbc8dcc bc4667a2 3c9058e0 3cd2f570 bca39452 bbd9feb8 bd1a22be bcf8109b ba9f588f 3bab4500 bc8806e8 bc76d753 bd040f37 bcc5b5ba bba5f0d9 bad77305 3c86e21d 3ca3702a 3cdd4451 3b638dd1 bcef1de8 bc4b239d bd0502f8 bc10728e 3c4ee6e5 3af1fc2d 3c2f287a 3c9a7451 3ba4fe65 bca7b714 3c71110a 3c259d15 bcfaefd9 bb4f9ca0 3bd29493 3b1971b1 3ce82daf bcd0d667 3b008dde 3cf97f7c bcc839b8 bcaf477e 3ca7435e 3c6ca041 3cc612b7 bc11004c 3c8f5ef3 bd04cd7f bcb9ec97 3b2d6f49 bcdf5362 bb62c451 bc852a52 3cfade46 bc60cc36 3c14f01f 3b3ab942 3ceedd09 bb32dd09 3c8814de bcd815b6 bce66559 3c62d087 3c923d8c bca985d9 3cca0b33 3c0a9566 bcb7359d 3c607e5e 3d003b28 bc38198c 3cc6eb6a bc559673 bd0e17e5 bcf268e5 bc651f27 3cf68b01 3c450440 3cdeff92 3c75cbb5 bb3ede6b bccdf790 bd0a4703 bc67156c bc90092f 3ce9a63a bc2fc5c7 bbd794cc 3b79e00e 3cd35b6d bbc3581f 3c7fb18d bcd62b86 bd10169d bbfc4564 3c5a617a 3c9c9563 3c25afc4 3cc19e07 bcb9761c 3badefbb 3cd67df9 bcc22f6a 3caf0eb8 bcf7e8d0 3ca2e82a 3c809896 3ce19e7a bbd1f574 bb9c4323 bcc5c02c 3ce6fad7 bb91e989 bc3d5f2c 3afef7f8 3c83e8c0 bca4d6dc bcf5b5eb bc34b2b4 3bfc3ec6 3a869472 bc3d28ce 3b06352f bbab0250 3cc665ba bcb95b49 3cfbd9f3 bb096f0b 3cb1f4f9 3c3ae29a bce780d6 3cb6d6aa bc6d0a3f bcd21e09 3c544ff3 3bd180f0 bc85ad30 bc7c8f07 3d01c675 bcf873ce 3c15278c 3b3405dd bcc9eae6 3c903215 bd10a2aa bbd6c8af bc4b3aae 3c64eb13 bc3b0dab bd0daac4 bba62bb7 3cca25ce bcb61808 3cd97feb 3c88eacb bbcff962 bb6931a0 3cd53140 bacbe60e 3b04a9e0 3a25b4d0 38dd292c bd09e309 bc8e440e 3cff9e99 3ce8b9de 3c3da163 3d199d11 bc70469e 3c722cf7 bc7233da 3cad4f8f 3b857412 3b994a2b bc4d904b 3c989729 3c4b018a 3c20b5f0 bc801cc4 baec6695 bc2e0843 bcb85406 3bc1fe8d 3cde7346 3c902c8e bc4c618c 3c8118ec bb93940b 3d095de1 bcfae25d 3c83a950 bc5cbcc3 3d2c6ac8 3d2d4bc0 3d43776a 3bd0a61e 3c5baa93 3c9819e3 3bef3464 3d305692 3c059f81 3c187087 bc82d913 3c965011 bcdde60f bd0b70e3 bc52ebff bba15d47 3c9c506b 3c40716c 3c23569e bc52761e 3cc6a3ce 3cf7cc1e bd010354 3ce60f73 3b9e4f9b 3c40ef41 3c93a048 3cc19d79 3c554214 bae145ef 3afb0e4f bb7c4374 3ccdf1dd 3b78863a 3caa2ba7 bcf8a07f 3d035316 bce2a651 3d0f5dad 3b6f1daf bcfc465c 3c1211c1 bcbf2384 bcfa22c1 ba323a52 bc478c87 3bc69e80 3ccae2a5 bd0d11d3 3cf6b034 bcafae0c bc896be5 3c6240c2 bccc7416 bd20ce58 bd05f4ea 3bf6e10d 3c0645c7 3d00c122 3b409e44 bcc2801a bce51598 3ca8a77a 3be31417 ba9f6c42 3c0595c5 3bc2223a bd03c241 bc2372e2 3bec385a 3c2d0989 bba41973 3c794f10 3c21f3cc bd0e1691 bd107762 bab71f9a 3bd32a60 bcf8403f bd0bb284 bd4c91c2 bc906ff1 3aa3bef5 3c2e3556 bd0877b5 3d3e1927 bd1fb195 bd3ed56b 3c9481a7 3b9e718e 3c90f417 3beee82a 3bc5fe37 bc50d333 bbcd2be6 bcd0985c 3b5332ad bb950061 3b39bba3 3bb3d400 3b44038f 3bdff9d6 3c82129a bca27e44 3cd353bc bc6a0b5f bd189e56 3af9f9d2 bd2f17f4 bd7d3e28 bc8fc5a6 3d0c6155 bc269464 3c86d296 bd0eb500 bc3558a1 3c5363d3 bccea4a7 bcc2b687 bc1003df bd118a9a bd145a28 bd379d2c bb5d7e98 bb2f0efc bd106576 bba8685e bd214fcb 3c9f83df bba7e446 3cf38ab1 3cc710a3 bcb8c337 3cbc7cad bd249d5a bd5130e5 3a50adf2 bd0ab912 bd1f9a25 bca7040e bc570883 bce7378b ba0e3bf8 bd7e826f bce67f10 3b5cdd19 bd196445 3c2660a8 3bc40521 bd479eec bd09aba0 bd5a441c 3c6a387f bae6f96c bcbaba21 3bc7a13e bd007e0a bcc2f5f6 3cf4ccf4 bd15c9dd bbdcf931 bcda9394 bd45cbf2 bc918d2a bd0c0a2d bc73f52e bd00d78a 3c16df96 bc683a3c bd6ad8ae bc221a97 bd02a966 bd957576 bbfe204d bd2f36d3 bc270286 bd5d46bc bc8a0019 bd07b61b bc9233ff bbd06675 bc5f89bd bcbbdd28 3ccabf51 3ba0c39b 3c6ae3ed bcbadce3 3bbde155 3b9809b7 3c4af2d5 3c68fa5f bbcb59b6 3bffdd63 bd5aa362 bd45b1e7 bc0c72a7 bd131f3e bd2bdd53 bda56fdf bd703a82 bd3d49ca bcc90fc9 bcd11b29 bcf7a80a bc849eeb bcc88983 3ce4a076 bd0668eb bc301abd bcdade10 3c3ca926 bc4ea358 bcfaf435 bc0a25a4 bb1d80c0 3ca988a2 3c7f0a29 bd10514a bcf81bd8 bd327afb bd105d4e bcbe1f9d bca14280 3c92e138 bced150a bbdcbbad bd27385e bcb33e65 bc36dbb3 bd4dba88 bd1a7c72 bc40b90e bc4b0e08 bd3dc99b bcbd8617 bcb58028 3c309dc3 3c9359d9 bccdf8a7 3c6b7693 bced6f1e 3c41dd4b bd0df66d bc82d58c bb3ed349 bc0dee72 3c02775c bd079701 bcabe132 bc4de30c bb379a89 bd3aedc4 bc1979f2 3bf3e951 3c8d504e 3d247171 3bcaf3ad bd175a59 bd4082fe bd0b4c5c 3cb06231 bc761e3e bd43c445 bca9e0c2 3bc01a8c bc026ebb 3cc7adce bb431be6 3bace156 3cfefa70 bd06f919 3a80c66b bcf97aa7 bcc2bdf4 bd1636ef bb7129c5 bd057354 bc0efec5 ba8128c3 3ce53df5 3c50af92 3d16c3be 3cdad052 bc8b077c bbf888b9 bc901cfb bc6d72da bd0e229e bcd9812b bd4bb236 bd4f0bf8 bcfb3d54 3b72ce00 bc3ed429 bce7a593 3ca5595b 3ceecefb ba26a3f1 bbefa576 bc905cf5 3c11b92c 3ba68e98 bca2c108 3c04fa46 bae601ac 3c076448 3cc6289f bb339131 3d56243d 3cc2d9c7 bce90514 3d357173 bc5b4061 bcdec4ec bcf365c3 3bd6c5e9 bca192e0 bd1d15c1 bd233c73 bb46f96c bc329410 3c83fdf0 3d11e458 bc84bb97 bce4f288 bc4f3dae bba6adb4 bc653420 3cfde47f bca2a9f0 3c9400b3 3c5e3f76 3cff21ab bcf9b345 3cb1651a 3c925d52 3ced3fa5 3d086113 3cda8337 3d22b599 bb16c7a7 bbc98b5d bcbe5302 3bca1a04 bcb6d314 bc83baf4 3c218a99 3cf76514 3ccfe7be ba9c8e00 3baf6223 3c9a4df8 bc5ec418 3cefbec9 3c80d829 3c4c9738 3cf071ef bb83c9c8 3ce47c4f 3c438961 3d518958 bc6a4e59 bca0c75a 3d84d387 3d8346e9 3bf2ba10 3d20f680 3c62b3df 3cd14118 bc44f699 3c2d4b2a bc26b671 3bea2b95 bce68f76 3bd68bec 3c14b737 3c2d4914 3c2751ba 3ce5a3b5 3c9902f4 3c44c6bf bd1186dc bc9b325b 3c598ac2 3c0fd310 3c894f16 3cb95fce bc41ad24 3d018f42 3c2a6794 3cb25de5 3cfe6c19 3d3c8c9c 3d4817f5 3d427f2e 3c83cd5d 3c9de33d bcb21aa9 3c8bab5f bb67ec56 bd23232a 3cb7a6f7 bca448d5 3b82e235 3c9c2c94 3cf8571f 3d5475ed 3d3a5a8c bd02c2ef b9fba270 3bf5dbe4 bc1bc314 bca01635 3d0d01d1 bc577355 bcb0992a bc8759d7 3b965a67 3c22f29f 3d109461 3c3a22d8 3c0286ac 3d3d7e54 3b7097ee bb9dd5a5 b9965ef6 3ca6cf8e bb0de909 3cd4b696 3cfe9ee3 3884f227 3d1e50e6 3cf1975f 3c9e13c3 3d126b7f baf30d8f bbdff3f5 3c477e76 bce4c818 bc3c0340 bccab803 b9b8387a bc1e36ea bbef03fc 3c8e639f 3d5e5183 3cf5b425 bc93c759 bc05602d 3cd0fe0b 3c5a7207 b9ea70f3 3d311015 bc678402 3d749f42 3d5bd105 3b99e8d1 3afb6ab1 bba16eef 3c2a1b25 baf32dc1 bcadc804 3bed3c9b 3cd4dbdf bb68cc72 bcf49bba bccce467 3c2ae190 3c10d2d8 bc6f259a bcd5544d 3cf8a4c2 ba062568 bacdb517 3d37e643 3ba90c72 bc790951 3b58c2c9 3c5645bf bd6653fc bc6b0e88 bcbc8ffa bcec6e36 3d2dfb73 bc4a781a 3c614809 3d31ec20 3d33f870 bbf4a7c8 3d2dae8b 3c5e1b5e bcfdbb58 bd0a9742 bc96b85b bb2c8f60 3cd095ed bc891a36 bbff20d6 3cb1b270 bac90594 3c93f33a bb9b49bf bc6bb74f bd131c29 3c7a7248 bcf00727 bbaeeadf bc4fb7f1 bca595cf bcee218e bcd81e04 bcd95de4 3cefbb1c 3bbed4c0 3ca5cfac 3cc5de57 3c388195 bc307804 bca694b6 bc388ec7 3c0b0d32 3aa7f6fe 3cff7599 3caa6af8 bc968001 3ca64f7d bce42209 bc82cb7f 3c87878d bd237cd1 bceee106 bd57c279 bca9428e bc5ebfd2 bb399c2f bd5107d9 bd7c4023 bc101a98 bd6709a6 bd1cec6d bd079852 3ca88ef6 bc53f522 3ba5bb7f 3b0bf817 3b4b661d bc723f64 3d00515e bd08caae bbe2d561 bcb7dcf7 bcd38eac 3c8372d8 3cab3486 3c4a2d89 3b774ce5 3bff2416 bb54e9ac bd15bf48 bd42c10b bcb172b3 bc1afe07 bc5e5d83 bd1499c3 bb85273c bd6a3ab2 bcb5a45d bb3c80dc bc7d0281 3c387715 3c918128 bd0cc951 3cb39d69 3c5eac3a 3c8b7b81 3c80ee09 3c97b2fd 3c0c4f9f 3c8872f0 bd09a6a5 bd163596 3c82a8bf 3cfca996 bc65bc35 3cb5d4e4 bc1459e8 3c10ac6a bc995d7f 3b2a1e82 bccf4e4b bd15b10d 3c235dc0 bccbb769 3c7cb3e8 bb985fb8 bcc4ef8e 3caa4264 3c98b22c bcce7522 3c519ddf 3c06f130 bcc492da 3af06c39 bd03f717 3a1c749c bd040e51 3cdd030a 3c730efe 3ccb40e4 3b8b0af8 bc8bedc8 3c74407c 3c44c647 3c833aea bc0f3c39 3ce0b4be bcdb35fa bd0fc8af 3bb5262a 3cd90432 3971f2d4 bc63a376 bd08044c 3ca5d6ff bd155438 bc7d22c1 3c889a9b bcb2a613 bccae785 bca1ea03 3c652254 bc8bed42 bc280ceb bc2f2f0e 3c850b83 3ce38f8b b992529c bb14fbcf bbc2b112 3c647641 3cb74e9a 3bbb2470 3c9a153e bc597248 bb88e373 bcfea1a1 3c4dff3e bca5718f bbfe469d bd13cef3 39c3e051 3c084e63 3c95cd76 bc2369e3 ba522142 3cf4e22b bb011cce 3cb6d20b 3d00044c 3cdbd1dd 3c57d646 3ca00a71 3ce7d06b bbd3d0f0 3cc8b0e9 bc8d2a95 bc650461 3c4a60a5 bcc2fc3e bc853f5a baa258bf b9852563 bab0801e bbfc1b06 3c00ef0b 3cf76a84 bc6e7dda 3c81addd 3baec3c6 3c98e407 3ccc74b7 bbd0e82b bc27aa26 bc886169 bc4eab10 bc90ffb6 bc3dadc7 3c8b54ae 3bed01a7 bc9e2a52 3c8602d3 b67e6d98 bae246e6 3c26ef38 bcb711e9 bbdc53fe 3cc031c4 3ca1ae1f 3c85f66f bc010d00 3a0e7738 3ca04ae3 3b63b00f 3c85de83 3c6e9e1b 3c4764e8 3c5a1b9c bcd47224 bd07feb9 bd182bed 3cc37a66 bcb5f327 bcf6b0cb 3aac9439 bc1f10b9 3c00452b bc45b068 3cc0eff4 bd1234b9 bd176c4e 3cd94e92 bc93850b 3baef45c 3c1ac92f 3b2a3918 bcc36290 3a9efe71 bcd01632 3cd96521 3b5ab28d 3cc15613 3cba7f00 3c51beb5 3c21d9a8 3c8ce059 bcc824f6 3cbd965d bc28ed0e 3cc0f091 bbaf82fd 3c52dbcd 3cb6c801 3b61e293 bc1fcac5 3c332f36 bd1903f5 bbd8c526 bc254516 bcf0fb8b bb9a73d1 3ba0ddf9 bd14fc12 3cd1e9ae 3c8ff948 3d08df7e bc785c8a bcd2f5d6 3c962d93 3cfb6fc2 bcba6aa4 bcc75ccf bb3c0498 3ce58eca bbe0c526 bd10f733 bc827356 bcb738c6 3cba5ae4 bce7ec8e 3cb90117 3c1fe85e bbc9b10a bc3ff9e2 3c824cc5 bcb8c753 bc861862 3cdf3cc5 bc8613c6 39e73fb7 3ccb9db7 bcf5b7ba 3b428cb5 bb26ab82 bcaf2797 3cb5d54b 3c774fb3 bc8df273 bcd8ac1e 3c2cef80 bc2ce30d 3c9b71cb bcd399a9 bcfd52ba 3ca17c88 3c9a85c4 bd0874f0 bc3db57d 3c41d624 3c7dc253 3c8e63ec 3cac1f8a bc9a3467 3b8ae943 3cd8a5aa bd0038a3 3c9c8b62 3badb70c bb46ade5 3cdab24d bcb6d4de bc8252bf bceb28c0 3cd897f0 bcb47b66 3c9fca2d bcd5a9ac 3c9be878 bbb98148 3d010188 bd0a5f27 bd0bcbc1 bcb044e4 bd1720e1 3ca5f58a 3b8246d9 bccac41d bcf48ee7 bc732699 3b03a272 bc981bd4 3c8a61f1 bca39133 3bf2a911 3cadaae6 bceec147 bd15c85c bd313213 3a5a0a3e 3c7614c1 bd048263 3ccb2667 3d4a6134 3d2de1ae 3d6803b4 3d814f66 3d752d23 3cd404e2 3cbcfb8f bc9fc532 bc977940 bcfb3ee6 3b38900d bd50e5ec bcc08c48 bd288624 3b794deb bc35e473 bd003189 bcf10453 3bda48cb 3cb53b0c 3cc38a26 3c86f145 bd2d2126 3c8b27c8 3ca76ff1 3b428165 bc8038bd 3c70e0c0 3c06e286 3d3d46a2 3db35886 3d930eb8 3cc5bddf 3b18f7c4 bccfb7aa bd047588 bd1ce3ef bce25ef6 bd126f92 bc0f400d bccfa3e8 3caa1fe4 bd0ebb89 3cc99053 3ca4b9f8 bd0ac59a 3b9074c8 bc0d6f4a 3c2c9347 3c7b58e5 bd2602df bc938c08 bcd578df 3d11165e bc5b80bc bb6e771f 3d74d9e1 3d5172a7 3d2d0532 3d134652 bcfcf03e bc2c55fb bcb7f96a 3c7eb5b8 bc917098 bd260885 bae1872c bbaf5999 bd3628cd bd2b0b16 bca251a4 3bf0c637 3cf29b07 3c4b64bf 3c845e9f 3bad88c0 bc6de2ef bcb4197d 3c273afe 3c96d689 3c4b3b2d 3d049688 3d5e49ee 3d4e6b39 3c9b5fe7 bccc7b47 bd27e844 bd0dee42 3c165bcd 3c9d3563 bbb85dab 3d1d6e5b bc27c310 bccd489a bc51461b bd69ad16 bd11a804 bc512bbe bc7d13f2 3c64f8db bc3d99ef bd04ad1c bd0a01c1 3cdc9cdb 3c2732f1 bd517351 bd263ba3 3bbb9a01 3d424396 3d250a86 3d33ba22 3cdb04f0 bcdb2693 bc83e0c9 bd3e834c 3cf8225b 3c280f00 3cad6a81 3d3ccb73 3ca9c5ba 3bb4696c 3c0a5453 bd12bd69 bc840f1c 3c5032fb 3ada801f bb8efea9 3c1f6c83 bd0d86d0 bcd283fc bd09e1ad 3ce9ae1a bd1514cf 3c64a97e 3ca3a478 3c539bb0 3c048f43 3d51687b bc20eba3 bd624cd5 bd506a95 bb80bf89 3bdb8186 3aa511ed 3c91ca3c 3d0034e1 3d2fe9ac 3d36a96a 3c8bcd9b 3d053be9 3c403ead 3c5bd605 bc13192c 3ceaa6df bce7beea bc9ec19c bd13bea4 3a85176f bcf6a4a1 3ca0bee0 bcd0cdb0 3c5c5c98 3cf92541 3d4ed5cb 3cc68bfb 3cb9234d 3c9ea316 3bc06a64 bc979546 bc49d999 3d0484f3 bd2d6c31 3b94d57e bb508d90 3d26d06f 3c24a08a 3d2b3bb6 3cd78e46 bd02fccf 3c7a87ff bbf8134f bd0bb0b1 bcf21440 b94e9713 3cc1d74b bd11ee95 3bdb4d8d 3c1d714c bd0aff0b 3b6155c8 bca4fa4c 3c92e2e4 3bfba332 3ccd83f0 bc979ee4 3ce844a2 bc8b4a41 3be448cb bbf359db bd0fc45f bcf42f78 3cb6e8ee 3bcd3a07 bbaa027f 3d05629d bcb9090e bd029358 3787c9a7 bc28912f 3accf07e 3c919973 bc8d3e51 3bda0979 3cc754f6 3b1429f1 3cd1c172 3c3cf30b 3c983f9c 3c2c4476 3d12b7d9 3cc51b02 3c200648 bb70e9e9 bb0959e9 bc0639c2 bd112481 bb37b7bc 3b5dfc50 bb0e708a bc173ea4 3a919623 3ca3cd0b bd02102a bd0084c8 bcbe548b bd01edf2 3c260716 bd11b153 bcf8a2ef bc2159a8 ba0c6552 3c9ff396 3bd4ac54 bb8dabed bd169678 bccf334d bb1a354e bb6e99ce bca52609 3b5e4487 3c233be9 bc610d7d 3c277be0 3c669470 bad3bf54 3cea3645 3bb55a67 3c81933f 3be50972 bcf13c1d bc2c2c90 bbc16284 bc3118e7 bc9635b8 bc9ebe07 bd085e78 3a925ec6 3c282ab1 3c20b67b 3ce68822 bcc18cb7 3cde7fb8 bc2419f8 bc8aa823 bcc0efd3 bd00475a bad4057f bcafad54 bc53cdde bce31012 3c863417 3d1aa84f bc54d8a7 3cbba3ae bd0112ef bd15566a 3b5b30c8 3cf194cb bba198bc bb09ba05 bd0ec07b 3b986a7d bc135d27 bcaf89b7 3b50041e 3c2547a0 bcdfc872 bbef58e7 3bc26752 3cf8a1f9 bce62b9f 3cd56d0b bbbabaab 3b8c57e4 bd1e002b bd0703b8 bd143578 3b75f2dd 3cf9ab64 3d6b30f4 3cbf86c3 3d0ca77f bd1c72c3 bbe0b036 bd2f8005 bd4e1073 3b9dbd76 bcf5046f bcacbb3d bcd8029a bc760dc7 3c585918 3c58d589 bcef9367 b9c2fadb bd011d8f bd043984 bc3ffc63 bb90648b 3c6da9b5 3c25dcb0 3c365a86 3c9ba3b9 bc02d764 bb36f6f0 3d3a4821 3c938680 3d17413f bbc640d0 3c844ae8 bb0012fb bc41fe32 bd3ce4a1 bd5d82cf bbad1ab1 bbe20c2e 3cf5c04e bc33c298 bc5e7d3d 3b8a9ead bd003c04 bd016731 3c9b2940 3b9c3af0 3b72f199 bc07e634 3c88db09 bc882029 3bbc6858 3b7df5e5 3b009e8b bcdde34b bd01a109 bc7d5016 bd19afd8 bcb75ad2 bb015844 bcb181d9 bce7c9f9 bd1298a6 bd1e7cf0 bc7f5e04 3c61bc6b 3c56070d 3d002868 3ccd4818 3d00bed4 b9ea68e5 bcc7c9e0 3bf5b5c7 3cdbb0a0 bc7801b0 bb89468d bd0aaafc 3cc19210 bcf4a28c bc8f5ae9 bbc5790f bca87975 3b35e00c bce3a09b 3c46b2e8 bd5b5f4a bc924a6d bd488700 bc89daa8 bbbd0442 bca51e4e bc872e39 bb88a830 bb9f7b15 3c5ed9c3 3d18a3a3 3bf337f3 3cb01844 bcd732a3 bc9d7590 bce51381 3b9ef750 3b36e5c4 3cf9ce4b 3c0fd4fe bbddcb1a bc824e13 b9841362 bca9020b 3b7c3721 bc8c11a0 bd234ff3 bca49a14 bc752622 bcfea7e4 bcb4c7a3 bd616387 bcb8fc63 bccabee0 3cbe69e6 3ce8587a bd19b5df bc1750ef bc75e03b 3d04ce78 3c40894a bceae88b bc298cbd 3cb82766 bb60da02 bd0be466 3c10d7e1 3cfc6ddb 3ce4b453 3a3eb9e7 bc68ac1e bb981d20 3c6660dd bb9f5c67 bd592d49 bb8c525d bb049270 bd32d973 bd26137a 3c03c5ae 3ba84e4b bcb354ba 3b61cab1 3c90fd3c bc229dc8 3ce08f85 3c7811b9 3ca5b1ab 3ceaba00 bc293d9c ba30fb69 bc35a052 bc18ba3f 3c269edf bc866347 bba6c340 3ce06f55 3c0bbf07 3cf38b7b bc1b14d1 bcb3ac46 3ca2fb06 bd1936ae 3a6cb290 3cce02e3 bc0a5b96 bbdec44a 3ce87a14 bbc75611 bb8fb760 bbea69db bd0b9e21 bc2a77ad 3d0c1c4b 3b991b7d 3c1e1328 3c878bd5 3b0bf76b bbec7e21 bc627fef 3a979127 bba9a3ba bc035889 bc41df3f 3bf72710 bc807f64 bbad0a5b bc3574f9 3c9afcda 3c1cd511 3c9e5915 3c40f1cf bc058921 3cf30e9e bc8cb939 3c0bc63f 3d53114a 3d07bb88 3d612c04 bb8ce2ff 3d1e940c 3d16cfb3 3bd7971f bc95c81a bbc18c39 3c815c17 3cf11b0d bcfe0cc4 bc97f3b6 3c15d074 bc3ed34d bd0496c6 bc7f996f 3bb5e0c7 bd1b104a bc8a25d1 3c5804f0 3c20f23e bc4f6b55 3d3e2b70 3c2b18cd 3cff221d 3c8f81ed babd331e 3d5e984b bb073719 3d42a890 3b8eac0c 3c7aa14f 3d66c1e6 bc85bda9 ba407bd1 bc4b3fb9 3cbb393d bcf0608d bc25bf77 bc89aab3 3cb854da 3cc3ea43 bb1bce20 3c2f9985 3cff8984 bd01e014 ba6db25c 3ceeea97 bc1b60ac bccf7f25 3d096c67 3d2757f1 3d0846f0 3d2803cb 3c736790 bc433f92 bc52963d 3d0cf88b 3bac226a 3d12d56d 3c320194 3ce21839 39923725 bc2cb620 bc85319c bd04e2e3 bd15849f bc25ea95 bd06ee1a bd196865 3c66352c bc9520be bb47c34a bc43181d bced60d3 bc5eddda bcce9efd 3b35a10d 3cdb591d bc40bd16 3aca6bdd 3c7b6bd7 3c48bf60 3b266f01 bc5d19ab bc2d9649 bc13ff38 3d0049bb 3ad1150c 3c8cfefe 3c751195 3cceb383 3b3a83df bb235650 bc557f12 3c9ab9e8 3cdcf1cb 3ce5f9a0 bceefe14 3b78c1aa bca0ee6e bcae7bc8 bceabd5f bc40ee11 3d036b43 3ca8ca87 bcb79631 bbbcf996 3c869a58 3cb0575f 3cd71033 bc890f84 bc4d2744 3ca38354 3c1149d2 bc8633b4 bcca3e03 ba294d63 3cfa73d8 bc48dea9 bb60659c 3c6b3e1e bcdff816 bc4dc1e9 3bcc1de2 bc6af151 3ce7597a bb66669c 3c82746d bba41ab9 bb2d7123 3d05bd34 bcd4ffc3 bcb96682 bc3c7f22 3bff232d bc10b8ad 3c472ae7 bc7066fb 3c5ec5ac bcfd1ff4 3b23652b 3c9fc3f1 3beddffc bc623dcf bc3e9def 3c0e1acc bcb75e4a bccfa435 3a6e16d5 bce53f63 3c145897 bcaf08ab 3ca6aeab 3caf5ed3 3cee848f bca8212b 3b41c410 3d080175 bbf11852 3c6f3dd5 3cbdf170 3b97755a bc3728fa 3c54ea8e 3c3d5293 bcdad982 bc8586e8 bd03ed26 bd068e1b 3ca80925 3cada18f bcbdedd9 bd046670 bcdd363f 3c8fc776 3cf5438a bb7bfc1e bc2bedf9 bcd7aa28 38c0fbe7 3ca75433 3c9348d6 bc501d3c bc4f3800 3bf11ffe 3c91d51b 3cf690d8 3c2df6ff 3cf2f90c 3d2771a3 3ca3cc75 3c4b9f94 3d0a9a40 3c38162d 3ccf36da 3c89a696 39982d48 bd344a53 3c6849dc bc837bc5 bc0a1837 3c7fae2d 3c307fbe bc058751 ba1f8e2d bccc1845 bc564db3 bbee6cef 3acd74c3 bbea90d1 3ca68dbc ba73eb2f bcb7c3fc 3c58fab6 bb91296b 3d189ca2 3c9ea25e 3d69bcfd 3d9cda80 3db05fc5 3d0cad5e 3d28e321 3bf1020d 3bdb3a38 bcf03529 bd246a53 bd21c9eb bd2c0821 bc856475 bcfc544e 3cccc15b bced33e4 3cdf65c5 3c1201ff bcbff0a4 3cfb4a54 3c5142e2 bab6cf28 3cea61f7 bce2a1d6 3cc1422c 3b002140 3c33108c 3ca8d44d baf855d6 3cd75f21 3d66bed8 3d2f50cc 3c412413 3b085b82 bd2f813b bcf73f28 3c474af0 bc639884 3aeb566a 3bf13d51 bd17c422 bbaa3b86 3cd1406a bc1809c0 bd07b2ec bcf69d35 3bd522c2 bc1c9dad bcb091e7 3cf1a5c7 bc93241e bcc17ee8 3cb66c90 3d00d466 3c837ba2 3d0d4267 bbddf74a 3d04dce4 bcbaa92b bd7c7ec9 bd5a0b32 bd28492e 3c0a00c2 3ccfabe3 3cbc34fa 3b52cfa9 bbf9f150 bd17681c bca7963d bafedf17 3c809bf4 3ccbdcbc 3bf99034 bbbfd907 3ce02b79 3b3e30f4 3a28720b 3b68a779 bca35616 bc132b3f bd0ad277 bba1af04 bd13b145 3bda612e bcabb2bf bca7bf94 bd944c1f bd84f385 bc834188 3cfcda7c 3de52d3d 3c440e0a 3c40af3a 3c1c0327 bc745aa9 bcffe7f8 bd25feca bd035906 3babf742 3ab7cc1e bcc43272 3ce89f26 3cf00b2a 3c7a50b0 3d0f4161 3ccbb193 3bbaea8d 3cbb8d90 bcbab03d bc36e24e bceb7a4e bc91c15c bd86d7dd bcbf62db bd4d0dfb ba5ca3b7 3d87e03f 3d218d7b 3cebfa30 3d57d95b bd6976b9 3cae9ba9 bd069f53 3caa38ea bc4466f4 bd131b29 bcae4893 bcc00774 3ca5e50c 3cfe8742 3cb4fba8 3cd87d8d 3d0bbebe bcf0e0af 3c76a15a 3b06fe1b 3c8f5a15 3af90b91 bc66be46 bb3df538 bd6528ce bd3c7d34 bbf59844 3d57e77d 3cf04046 bd14effe bbb59ef9 bd0cfee8 bd877446 3b7bdee7 3cb7e2dd 3cc87c71 bc888399 bce69863 bd165dc6 3babc609 bcb94298 3cb60f86 bcf52255 bcbe0e4e 3bcb9d46 3c14e134 bb792da0 bc048e22 bca5ae91 bc8bb557 bc5f7d30 bd79b8c0 bd248499 bb9bd1c1 3d8f408a 3db9cd73 bcb5abce 3c610d1a ba478634 bb21c899 bd2c248d 3c602f50 bcc68890 bcee5278 bc0434d9 bc2d4fd0 bd0be54b 3cb6b8bc 3ca14e65 bcebe07c 3abab7a1 bce21240 bba38cc6 3b92b977 3cf72576 3cc6b30e 3c8526f2 baf18007 bd3a39e1 bd15f8f1 bc0bf23f 3c03f51d 3d22b202 3b2efc06 bb5fd969 3cac03d8 3bbd9193 3be10768 3ca6977d 3d48ba1a 394d6073 bb7db348 39c038d2 3b8334a1 bd099c2e bbeb0bc2 bc179e3e 3c1606ea bc0cb6f9 bcf5e612 3cf629d9 bc66834c bd00e752 bc355308 3bf27ca3 bc986df7 bd459502 bc9f2b80 bc16b17d 3c0405a7 bcd84b8c bc151ac8 bc2039cc 3c84dbd3 3ca7e325 3d4faa02 3c163e3d 3d0c1165 bd357925 bd55736b bc8cf641 3bd6e175 3c64caad bc500bd9 bb5012b6 bce59ae0 bcabb097 bbfd744d 3cb2aa01 3b538874 3ca20603 bccaba8e 3bbc806d bd0e9b88 bce742ed bbdc2498 bca091c1 bd1aedc4 bcf67339 bb7904dd 3c6a88e9 bc7083a3 3d198891 3c6c106f 3b337d6a 3bc8a99a bdafd7a5 bcb76aaf 3c185d32 bb96f181 3bc71c24 bc945c6d bd010d68 3d0fa3fb bd061953 bc4faafb 3d051313 bc7906fa bbaf5ee4 bc844a69 3bc812f0 bc82d5a4 ba4c94cb 3ae06ee9 bcf39fd8 bc0e5be0 bce78d75 bd0578e6 3cadda64 bcc85bc1 3d089115 3c08407a bc97a23d bd6c43e2 bd155152 bd61ba8b 3bd1cd60 3c00da8d bd05d4da 3c787aea bcd21584 3bd9f4f7 bc0ba2a0 3cc76ddf bce3134b bc1e9564 bc3e2f8b bb178966 3b04450d bcbbf655 bc1d6e96 bc61b52c bb9ca17e 3c554555 3c6b548c b9a0d549 3c6fedba bc7ff392 bcf3f67f 3d345149 bbe9c726 bcace48b bbcc280d bcca2246 bd30e7d7 bccaca7a bcf6c6b0 3cb91cee 3cba0717 bc52df27 bbc94088 bbbf125b bc4efd02 bcb5115c 3c114b36 bc62897d bcb154b5 3c53388f bc63162e 3b60ff1d 3ccd3103 3d16e2a4 3d4c0feb bcac0207 bb7aff77 3c97a41e bc61cdb9 bca6220e bc00ac04 bc074142 bb6b36ca bcfe150e 3ce7d02f bcefaf17 bcee9db9 3c0b9b69 bbd1bade bce72895 3ce91bb9 3bb4ec61 bc8c1f10 3c4fc084 3cc9b360 bb436ebe 3ce458ce 3cba144e 3c1b5251 bca03ef6 bc76e8ff 3c666ca9 3c5bc0ca 3b1007ee bbaab43c bcc4b781 babbbeed bd403b00 bd8f6645 bd328ed7 bcdf1a5e bc076290 3cb88885 3cba941e 3caa7691 3d26bd5b 3c54341f bc5958d7 bae83047 3be03e5b bc32d79b 3ce4e35b 3c9ff985 bc9bfe68 3c2dd99c 3c51f5f9 3c53b578 bcb13de6 3d219169 bc61395e 3bbefd8a bca07b13 3c35be9d bb7ee5fd bcd30e38 bd4b3f41 bc8bf244 bc9d63d7 3bddc20b bc2e3e46 3c3d59ae bb0c6991 3c8150f0 3d37f458 bca6bd84 3c847696 bca3edfc 3c42bcdf bbd55c67 3c63abb0 bcd6dbe4 3ce69050 3cc75a51 bcc72b37 bcee5fb6 3c229c78 bd38eeea bc0064b1 bd04fe13 bcf44fc8 bc88dc3e b9b43122 bc9511b6 3b7c5bd5 3b9a9a21 3c8667ed 3d029d3d 3c86d552 bc023215 bb2f68a1 3cce230a bccbe64f 3cec528c 3c95d01a 3c731ef5 3c4474cc bcdf405a 3c65d631 ba4be78e 38ce5acc bc97e75b 3c86f1da bc24a753 bb9c848c bd17f1c8 3cac063d bcd372ed 3cda7b9a 3bd1e6ce 3bcfaaf9 bc94614b bb82746f bc0605ee bd169af6 bc896590 bc1e9afa bc32e9d1 3cd17017 3cf689d3 bc6203cb 3c9d2981 3b690d22 3cd94301 bcea9012 bc809fd2 bbbd7bc9 3d0beb73 3ce31c4e bc9eab2c bcfdbe60 bcb8efee bbfd7a19 3c800826 3af60b8a 3cbd3ec5 3ba43244 3d095860 3bc20a62 3c425d44 3b74540b bc2d9417 3c08fc4d 3cf449af bc66de36 3d170eed 3ccaba8d 3d14f63b 3c4777a0 bb3ad9bc 3bc657d3 3b13e74b bcc4f052 bc255c56 3cddd36d 3c04850d 3c339481 ba93c460 ba7e02ba bd051dca bc43f23c bb08c4c9 3c0d0025 bc39e229 bbbc5007 bc8eecb4 3c89d997 3ab47026 bd094d51 bcb03b80 bd149a51 3ccc835a bc478ae9 3cf00a57 bcbff128 3b87e192 b7d3b8c9 bcdf50e5 3b4b7edf bcc72403 3c5d6e99 3cbb5630 bb845fcf 3be07d0a bc8d0533 3c5980ab bd1a5d86 3ccd0ede ba80ac1f bc21ed17 3c61a8fc bd7c4dc7 bd479a29 bc751b6e bcad6a16 3c38cd6f bc2bbad8 bd0af988 bcc607f8 bd0b0b97 3bb1e4d1 3d131410 3d25ae7f bcd79fbd 3c6e7215 bccd5fb1 3c5c13b1 3ca61e08 bd00a2dd bcc034e2 bcf1762b bb07ebc3 3c6c8022 bc9b07a7 b98ed1a4 bc84b22b 3cf470ed bd354f0f bd0211ff bcaa7404 bd40a313 3cb1a1c3 bcee3014 bc21a49d bcac696c ba3145eb bcd5ac9f 3ca76af2 bcf9bcb3 bc7aa306 bc3e3519 bcff9667 bd05d00e 3c5dc9ae 3d0a4351 bb7fcfdf bc446258 3c8638ca 3cb10fde bcf3d992 bc80fcb7 3d05388a 3c6cecea bd0f6bb7 3b0a931f bce383c5 bd00fb8a bca06a9a 3cf2ec85 ba765672 3d45e9b3 bba2a808 3ca2d0d0 3d3bb3a1 bbace186 bc183089 bc581a88 bcbb899c 3c458f2e bcc4b72e bca835f3 3cfffaa7 3cdce511 bc88315b 3b0841c0 bc012fc2 3ce18120 bcf171e2 bceb4858 3caf0ea1 3bb7c39e bc139851 3ca4e9b7 3ccace23 bc648523 3cb26ee4 3cb0944d 3bb556fb 3b01896c 3cfc81ea 3d00e2c4 bcd25010 bcd452e9 b72b5e2c bcd8704c bc714062 3ce91f78 3bf3e12a 3cb35b39 3c1abb90 3d0f3eb0 3c7f5317 3c3c0c55 3ce04d21 bc498f88 3cfc8be6 3b97acda 3d067bbc bc9d0d59 bcb54a22 3cd74245 bc96a93c 3c0ff4da 3d0ee980 3c180330 bcb676a0 bc7aa605 bc8c7d1a bcb1548d 3ca71565 3c11b61c badcd0af 3c332707 3caeb120 3b8988c0 3cc1bfd2 bb560d14 3c6fc3ad 3c0e98fd 3ad84af1 3cd8a22b 3d0dcdf8 3cee64ae bbef11a6 bc1f7529 3cf38eb8 bc6883c5 3ba7ae06 bc942450 bbf62f48 bc3af640 3cbb8bd2 bc636044 bc66a8b3 3c831d89 b9f70d13 3b9b7b72 bcc6e9fe bc6077e8 3c993c3f 3c8d18c2 bcf681a9 bcb7dcd7 3c3b1898 bcd176f1 bc8954a8 bc939ac1 bccb41b8 bc7bc00e 3cd154b9 bcf76510 3cc65747 bce868a8 bc007d83 bc21ffa9 3cc0bf71 bcd07a99 bc7f1c57 bd0695c1 bc103d84 3c6468fd 3d07136d 3cfc7d6b bbe7bb6c bc6948dc 3c25040f 3cc22ded 3d02de76 3cca4495 3935d8c0 bce08121 bc9efba6 3cb7656c bce40f72 bcc293d6 bca797b4 bbffc56b 3c8f0868 3cceef3a 3ce6d147 3c8f3866 3c16fd4f bc01c0d0 bca0851a bc749c60 39528dd5 3cfa841d bc65a163 bc0fd2a3 bc26733c bc9db03d bc8c5171 3c323734 bcc71f11 bbad64c2 bc1a4df6 3bf4fed1 bb991470 bc91a8f6 bc199ec6 bbe8e40d 3c83ce7d 3c180319 bc176080 3ce87676 3b92db72 3ca58f77 bc338d92 bce1719f bd07de65 bc53e39c 3ca34bc5 3cb96d94 3c64d297 3bee3aee bcd2abdc bcaec9b8 bc46ad83 bd40b8cc bd39ab2b bd1fb0c5 3b8c564d bc1f8af0 bc210c48 3c990fa3 bcca0c70 bcb2f522 bc06725f 3caf155a 3bdeaacb bce77227 3cd3069e bc97de32 3ce77c80 3c65fada 3c29a052 3ced4c1b 3c1b4ea7 bd1985d4 3b528888 3cb825ce bc8cb049 3c968065 3c861e2a bcdd3f4e bd06aeab bd30176e 396fd4c9 bbeeab59 3c43082d bd2475f4 bcac5368 bcf98411 3bf81fb9 bc9579ce 3b7c1a3c 3c82ca3d bc032669 3bae360e bcc4ce4f bb262a57 3be50c9c 3cd4b5d2 3c7c1696 3c40979b 3c8be51b 3cbbbb26 bc53d064 3c844abf bd016bbe bc5a1e5d bd071b84 bca06260 bd9ee7bf bd375990 bd976908 bd18c6c8 bd0922b6 bcc9150f bcea1a1d bd18fba6 bd0ba24b bc9bceb2 3c67accb bc6841b3 bcc3ca62 bc0872f9 bcde2730 b9e46992 3cf31ca6 bd05eab1 3caf3447 3d026f61 3cdf994d bc9fae9a 3a3fcf46 3c619440 bd19011d bac4933e bd12e8f4 bd9e7e76 bd362a3e bd7231c8 bdaa5eaa bd57c7e8 bcf5fd97 bc2d286e bc1dc09f bd6dc2a4 bc3f34e6 bbcff017 3c554965 3c338da5 3cb215a3 3c38e97b baf5b149 bc8fffba bc50c9ed 3c4edaf7 ba6d1392 3d3418a7 bc52d1e5 3d1e8a82 3d17ee82 3cb99e3c 3cfc31e4 bc9ccc86 bb398f67 bd583ce5 bd21e949 bdb11cab bd6b70fd bda6b2dc bda64787 bda50f63 bd45d61e bd034b71 bc469615 bcf43208 bb5dfbb7 bbb494a9 bc9263cc 3c8a919a bcbe8285 bc864bb1 3c251124 bc10a62d 3b257af7 3a156f9c 3d0707ba 3d100dd4 3ce12b6a 3bc96a00 bcb0617e 3c929beb 3bcc3398 3c8fe539 bc8eb11a bbce8d2b bd8c639e bd572c26 bcecb854 bd6aec7a bd26f5a4 bcb3dade bd17b3a0 bd1d0bc0 bae347a0 bd1b2737 3cb5bcb0 3cfca7ef 3b4d4238 3be6d3da bc82ac0d 3c21e527 bcb30c66 3bbfca9f 3d496532 3c5db456 3cd315e4 3cd1026c 3d35555f 3d6a16fb 3d1ff033 3d8be531 3de17339 3dc17ce1 3d3d6fed bd1933bb bba375ae bcf7df7c bc8f6e3d 3c4b602c bd2a298b bd39685e 3c147841 bcfb41e0 3c894b38 3cc2fda0 3cfa7caf 3b190256 bbfda364 3b92c136 bbe43f1c bcb4cb48 3cd7c49b 3b9e7066 3d1e0ad6 bbc21db1 3d13852f 3cf3c9c7 3de38307 3dc21b36 3dc85e8e 3da2d766 3d0d97db 3d82155e bc15b09b 3d3572b7 3baf90f8 3c9a839b bcf53a84 3bc64f02 3baf15dc bc8e1acd 3d0b4f94 bc65ed0e bca618f3 3ced9383 bcf77db7 3c158d98 3cc17e11 bb8e0410 bced4818 bc9319ac bc1538ac ba9d228b 3d2cbf51 3d782fc1 3d161b3a 3bf864a6 3ca03b26 3d8ae223 3da985bf 3d12e0ba 3c92b8f3 3c214a08 bcb58398 3cf407dc bbf3420c 3cf80df0 bcb98a0e bb503068 bb1c66f1 3c3b96b5 bbd561df bc96566a 3cf49d65 3cd75b4b 3cddabe7 3c434f1e 3caad325 bd0db014 bacbe726 bc7828c2 bc715dde bd3ae0c2 bc7a88ea bd10cac7 3cdbf184 3cfdd621 3cebefd3 3c8b51a5 3be75ad6 bbe3ff98 bcd48ed1 bc1d3ea3 bd11ea86 bc970af6 3cf6ce64 bc5d2d6c 3d250614 3c4a68ba b95eef3a 3ce5a703 bccec988 3c98a03c 3c61804d 3c9ba71d bcf804cc bbadd2c5 bc940462 bd63c484 bc63c23e bd662b47 3992d2b9 bd289c51 bcb35749 3ca5973c bbb98d5a 3c96d92c 3c9b2ff3 3d44c442 bca9ec49 3bf3c497 3d0bc84c 3c92a796 3c5c2e37 3d837139 bc22ff6b bc679420 bcd300b4 3c22cdfd 3c216177 bcea42bf 3c7ce5f0 bb6e9450 3c7c024a bd16172a bd52f195 bd274771 bcb19997 bcc80cb5 3ccdcb0b bc6fda40 bce1a214 3c7f904b bafa36e0 bc677ef9 bc2fac82 3ce23d76 bc8c8dd4 bc708b78 3d248426 3bdd6f77 3d94c123 3d73f47f 3d03a2cf 3d1383b5 3cfe9381 3ca2d943 b9d8f1de bbebd93f bd0bf873 3c1e3d0f 3b955c37 3c9d3bd4 bcb2db5d 3c988d01 3c8a3b55 3d0a84f8 3c834ea9 3b09bd85 3b8b3ac7 3c2cdefe bd2deddf bc3aa5f1 3cd6a786 3c53d7df 3b64d85a 3ce1d40b 3d20b152 3d03f510 3c8f6cf4 3c79c495 bd184b0b ba9e6cab bcf3f999 3c166cb3 3bbefe36 3d0b3304 bc0b8cc5 3b3daddf 3bcdac1c bb779336 bc627d3f bb685084 3c48215e 3ce21fc9 3b59883f bbf952da 3cbd83dc bc3cbd43 3bfa646a bd2f6eca 3bf524a2 bc086d4d 3c3f04b3 bbc994ad 3c97eb4c 3a873050 bc20c763 3d07a3ec 3c860d15 3d05e969 3cc5e16c bb84129f 3c8e0f58 bc69f233 bccc637a 3a733af4 ba94b668 3d4e3eff bce7e09f 3cab12bc 3c98de9e 3cd008e8 3d0c2bce bc99500c bc294125 3c40aaf6 bb46221b bbe1a130 3ca42cd1 bc87add9 3ccf5f71 3bc47d96 3cbe44e0 3cadd0d7 bc761e8d 3b9db066 3c96e930 bc97265e 3d0ce75b bc9259ef 3ca53530 3bb2927f bc88a6ae 3d0430d9 3add115e 3b6a2e21 bab6a49c bc605dd4 3d244b29 bace3e62 3caeef6c bb7cf385 3c11820e 3c08f6f9 3d0dfc1b bca8e338 3bae1249 bcc0fe2f 3c4b87bd b9e68160 3b73baa4 bc956e56 bcbdf5aa bcdc04c9 3cb15632 3cbe00c8 bcecca06 bce6bd45 3cffeeb4 3c7e0084 bca99606 3a36b8fe 3cd75fe8 3bdf2a3b bc8b603b bc8218d3 bc72c381 baa01153 bc77fb8d bc8b736e 3d0c5128 3c660b46 3c83e132 bcbecbcd 3b6bcf36 3c70fd27 bb1a1744 bc99257f bc93ddd6 3d074c3b bc8c3266 bc859838 ba264e1b bbf5116a 389c8e35 bbda5261 bc970751 3b0c6298 3c8c84af bceb3c14 3c858e27 bc27b070 bd31cccd 3bcf2d68 bc00d439 bc4d84cd bcc14474 3b9d8d09 b9554946 bce22344 bd053345 bc6cf71c bd80c4a4 bbed15ff bc803677 bcd7dcd5 bc0ca5b2 bcc5564e bb8cf822 bcb9a336 3c27bb55 3c958290 bc16b6b1 3ca3475c 3cd37b19 bcf038b1 bca3c4a1 3bfd2ba7 bc62e591 3c8838d7 3c31084a bd4a082b bcb7ebde bca04760 3c9ad819 bd1bc05a bcc2fceb bd61ffc4 bd684d85 3c9e0546 bb818bde bd5ee9a6 3c8a7b18 bd2d47f4 3c108d21 bc17a539 bc557231 3b96b22b bb8b7b34 3adfd53c bcb5b54b 3c96b050 bcb73e2e 3b7a0a8d bcbf8b3a bc81794a 3bbf78a2 3b8bc456 bd23fe8c bc6903fc bc1b9c14 bd322ded bc2b7b0f bca1d836 bd187d36 ba92c8e8 3ca8b715 bb361767 bccaed3a 3bcea652 bcae4291 bd37a78f bae416c4 bd1944ff 3cbe6e4e 3c1d8b5c 3c2b0607 bcebe98d 3c2c3507 bae274e8 bbc537c9 3c3754e7 bcf16c5a bcb7160f bce67f1c bc724dfc 3b50b1ec ba1ba105 bc79009a bd11c267 bc5ed079 3c4a5793 bc0323da bb8e82b2 bb020c53 bcc359fa 3b980658 bc3995ff bc6414fe 3abacbf8 bd25b719 bce9cb72 bcd40fbd bb2fd0ae bcbae2a6 b83527bb bc6abae5 3c45188e bce33c12 bc87dfa9 3cd13c04 3ce0d9d4 3badba86 bca9e482 bd30d927 3ace02c0 bce63e55 bcacbbd1 bca845e6 bca8a0ec 3c549099 bb2c9d74 3c22d7e8 3c01806e bbe96039 3c5eb3f2 3c982365 bcf14366 baf4fa36 bc248a6f bcb6b671 bc4adb20 3cfbdf6d 3cb33a00 3d0a2be1 3d0a23ab 3c1d99b6 bc1b7b10 3c94fd5f bc8692c4 3ccd6fff 3cdf24c7 3cb11726 3c4d03e0 bcfb615c bcd11ee9 bd01e3da bd06372a 3cdc0f79 bc53419f 3c024753 3c3d2bd0 3cd247fc bc7a4789 3ca49c81 3d039f64 bc6c38ed 3b5f0bf6 3c85fcd2 3cfbeab3 bd00ac1c bc5c3781 bcc2840f bcbfbeb5 bc98655c 3c4ef77c 3ce56760 3b4e3c9d b8c233f4 bbd89fb1 bd06966f 3d072783 3c252791 bd104d10 3a9022a0 3ced6518 3cff6c23 3d030263 3d0527d1 3cba755f bc051f36 3ca87a85 3cf57829 bca8434c 3c720575 bc9f452d 3d0e2fd8 3ccc2f64 3d043008 3cfad3ef 3d059b5b bd045774 bce2929a bce42a18 3cebda11 bc88b645 3cc9ca12 3c7ab164 3d1b10e6 bc59d10f 3bfdb217 bcc8c3c5 bcdee07a bd092677 3ca3db73 bc1a52fb bb09bbcf 3cc1cab3 3c9bb4ed 3c76f069 bc87d0ad 3cb4b10b 3d13cdf4 bcf364c7 bbc3b7e1 bccb8911 bbeb4c81 3c10ded1 bcfd83c3 bccd5c0f 3c437d08 3cda3794 bc728ca9 3c8fcccf bce643e9 bc70c93c 3cca33e8 bbb5aae0 3c5a76a8 bcb27e39 3c251746 bc0dbdb2 bade7168 3c3d8ac6 3bfa12c2 3cb9595d bb4e4b62 bc3f68c0 3cc87af7 bad0bd6a bcf63439 bcc53c2c 3ca49c51 3c7bcfe0 bc8e32f7 3cc085dc 3c7f1701 3c646d52 3a32401d 3c793ea7 bc12b259 bcfabccf bc240e49 3bc0989b bc9629a7 3c50247f 3cf9ef5e 3c5aa8a0 3cb49ee2 bb31c06f ba55a830 bc192f50 3cff30a5 bce3b247 3c6c6251 3c69c6ff 3d042df4 bb84848f bc5eb718 3d0e3be0 bcce60b6 ba40718d bcb5fdf8 3cc097cd 3cb25a85 bc9f1e96 bb69acd6 babf0722 bd08076a 3cfa9d10 3c596aef ba85df1c 3ce67cb7 3c7a4b9e 3c44355b 3c4cb322 bc42d828 bcde4e25 3c561760 baeafc0c 3ccbc1cd bc9f28e6 3c166e21 3d242718 3c9b6afb bc92945f 3c865954 3d20f3dc bc15b022 bbdadc2e 3c9b92a6 3cacc88a 3c3b7385 3bba854a 3cc8608e 3cfd8ba3 bd0212ae 3cab7ede 3ccc5656 3c937ce1 3c438ca4 3be49277 3c8b638d bbeb3e55 3c5af525 bcd22392 bc1d930b bbf8dddc bcdf3403 3b97c253 3cf48fe9 3d3012f7 3c1696eb bc2a9347 3cebd43c 3cef38e3 bcdbc4b4 b8909967 ba983b9f bc06d683 3c9c0637 3ce8649c bc575421 3c4bf2cf 3cc74c4d bb817bf5 3c872715 3cf52200 bc0d9591 bd410015 bd4f3c77 ba6c84ed bd83521a bc781619 bcb19c28 bd469f17 3cb90317 3c9e6bc2 bbf63192 3c10bd15 b99b403e 