20
stage1.conv.weight 150 bd04c982 3da625d6 be1a0552 bdac7d7e 3bccfe55 3d62a1b7 bc72ca61 3e0432ac bcc440a3 3d80728a bc618dae bcc35509 be4f6a88 be10a615 bd9923f7 3cee8a04 3dc91143 3e0d6ec2 be017833 bdba18c6 bb5a60d8 3e2c57ea 3d5c29fc 3e50493f bcb6b2c9 3c945b7c 3e461123 bdcf32f5 bc35ca60 bd2d7b8d be0ede3d 3de5b1e1 be30573b bdf3cd10 be75aed1 be77d140 be4caead 3daab003 3d74bd9f 3cf07bf4 3bb9f39d bdf7bbca 3c1b09bf be10216f bdfbdbb1 bdc6325c 3dffbfb2 3dec2934 bd38ead4 3d33627f 3d696ea7 3e1c75d6 3d52b601 3cab1018 3e427369 be138fc7 3d2ebec8 bddc521c bda1e948 3bc81a1b 3d3e4d55 3d93d783 bdcd454a 3dc57c2f 3e396449 bd84db7a bcb912ce 3cb7ef75 3e11fb59 3e456e31 be30d467 bdae75bf 3d83dfbd 3e4907f9 3e5fa237 3e1f0b72 3d38e72d be1626ee 3d131b1a be0895b1 be1c948f 3e5e6ff5 3e30bf38 be4b992f bc61d2e7 3c83c553 3cba39e6 bdaffb13 3d39e68d be3a76c7 3dcb2b7b 3de1835c 3dc33527 3ceb085f be5da0fb bd828af3 3e0e0cd5 3cca0134 be26e2c7 bd9a9dd8 3e29d054 3e12ccc0 bda7dbba bd967f34 be30b0e1 bcd07e07 be252a38 be301082 bd16cc48 3d5d051f bda0762e 3e012a90 bdf050c0 3e2c0f69 3e1cc7e7 be187e7f bc5f70e2 3d342fa3 3d259a38 3d42a66a 3d8ac2cd 3d26cb36 bd5f9230 3dd6a80f be446251 be01f9db bdb12fe2 bdd3a20e bd4242c1 be1c0949 bd215731 3c603c78 bdea639b 3d205269 3e27ad94 3bd6417e bc0677d2 3c024ed0 3db26c90 3e22f66d 3e61f008 3dfbf366 3e609f44 3d2051e0 bdeeff15 bd82bc21 3e0a2049 3cc865f1 bd1c7619 bdc7bb44
stage1.conv.bias 6 be39c54a be2a9433 bd25ca37 3dd87edc 3dd86b78 be4cc3d4
stage1.bn.weight 6 3f7d6899 3f852660 3f777b47 3f839d24 3f7a02bf 3f683230
stage1.bn.bias 6 bcf8c839 3bf28b19 3da8807b bb5470cd bcc3bde1 bb9e368e
stage1.bn.running_mean 6 be35b9c9 beaba89b 3dff56bc 3d89af17 3d9e2115 be224d05
stage1.bn.running_var 6 3c63ea5a 3d8b4599 3db946a8 3d27e9fd 3c4e6037 3d15ffb2
stage1.bn.num_batches_tracked 1 46929000
stage2.conv.weight 2400 3d576ba9 bdda5709 3a643122 bbd8d935 bce9faf6 3c076989 bd9b12a4 bd264c3c 3b802817 3c071ba3 bd444e02 3bd11013 bd861491 bb97d034 3d359c5b bd92e6ed 3be07c3a 3d00110c bd64edba 3d26bbdb 3c8c9de5 bcfab4b1 3d9f4afe bd278775 3cefbc35 3cd35e00 3da46c6a 3d4bedb8 3d35f097 3d8b7bb3 bb5d55b8 bc89e758 bd6fe6b6 bc8f9480 3d2a7b22 3ca86c4f bde044c2 bce1ac2c bdabc41d bcf48a22 bd8ab38b bc02a7ad bd2103d6 bc835ba4 bd4592b8 3d18fe5c bd9a3618 bd4d68f9 bd29d430 3d2f45c1 bd034575 3d6361ad 3cadc364 bbd88aca 3c5682a4 bbc5ef5e 3d381030 bbcb5b24 bbc3f79e 3cdf13e6 bce40a79 bae4449c 3d88e23b bd5f6f97 3c8123e3 3dbb2b5d 3d6075e7 3d03b2dc bd29ca64 3d2642c6 bc2feb78 bc144e3b 3c2ec0af 3ce2eb79 bb92c8ff 3dae860f 3c35a123 3e013c4a 3dc328af bcf2f28a 3d8251a9 bbe06d0a 3d02a449 3d8ab8e0 3d3ff2e7 3d980515 3ce1229d 3d6407c6 3d4618d6 bd43d45d 3d73b1ba bd8c94dd 3cce7c07 3c4534d3 baac9ef6 3cbb99c7 3d74ce8a bd0d7a5c bcb6a0b0 3cfc92f8 bdb565c7 3ab9e2e3 bd9dfcd6 bdae0dec bd9d6b64 bc95dc24 3c300bbb 3d5fb22e bbf594c7 bd9475fd bd841724 3c1a3aba 3cb21fc5 3d3cd831 39daa654 bd337fd5 bd701c27 bc008663 bc921ed3 bd60a346 3c479c82 bd861ce5 bcecaf09 3d04bbcd bad5051f bd3745f1 bdc377cd 3c93507b bcaa3058 3d395880 bc94b137 bc8d52fa bd253f4e bbd51f0e bd6963a9 3d308197 3d020b2e bbeacd39 bd0cf28e bd49704e 3d908b4a bdbc2f14 bc95f953 bc414a13 bbdff90a 3c7e5221 bd39dfc6 bba894c2 3d38bf6c bcedd661 3d2bcd8f 3d1680db 3d4be49b 3c8699da bd5eb4db 3bd5a055 3cdb8e88 bcdb3b82 3cc95ab9 3c34d6ce bc9f9470 3c2a36ff 3c9536f9 3c0eeb17 bb540c09 bc586cb3 bd7f5785 bc62d15a 3d93a5e8 3da9a683 3d2d7cab 3c936fa7 3c821eae bce30e0a bd5210f8 bd0666f3 3dd842d9 3d9d0d20 bcde905a 3ca8e6f4 3d5853ae 3d786538 3d81143d 3dcfbdef bc1f2729 3c0a6c81 3dda34dc 3e0db8b0 3d6927dd 3e0ba9df 3d8bb67b 3dac1826 3c839ffe 3dc35363 3d3f68bb 3db435b8 3cba60dc 3d3f3c6d 3c8a8f03 3cbc66eb bcd3e5d2 3dafca1b bb30fdd7 3d34140a 3bfc6ff0 bdb55575 bd74f37a 3d8dac49 3cd1715e 3d7aae30 3d501cf6 bdd51c0c bd736208 bd00125b bd479cc0 3d4b8397 bd776c39 bcb4decc bd8711c8 bd13ff7b 3d7fe6c1 3da1858c 3d6973cb 3d992184 3d877fb5 3c88d747 3d080c79 3df8d833 3daffb6b 3da742e2 3d17d4a3 3cdc1b8e bd01a80f 3d6c9740 bbca63a8 bd834727 bd995bdc bd9990fc bd98bd8c 3c63f014 3ba1e2eb bd127efd bdab642d 3d209d8c 3c9fe968 bbb0d36a bca7a584 3d903497 3d54af8a bda794c2 3c938107 3db9e016 3d0e2be8 3dc1db0d 3ca3b381 bb8d6e2c 3d22ddf6 3cb6ba8c 3d075f12 3d24023d bc64e78f bcd5cc27 3d2c9937 3d619840 bc9635a6 bd0e1cfc bd3f96f1 3d5c8223 3d121a8b bce6e444 3ad93a81 bd32907c bb86dd09 3c00695c bdb0992a bb526ab7 3d4dadf7 3c9a71e0 bcdf4ca3 3c6f188a 3c8a7d26 bd5e88a9 3d49cf2e bd0dd085 bce6efa2 bd02d527 3c9cdc0b 3d61149d bd86e9c9 3c5111b5 3b4042d2 3d581308 bb1151a3 bd6a6725 3d89d0eb 3d13bcd0 3db84358 3cd13deb bd5d0ac8 3d997fad bca630b7 3d389349 bda3bc14 bd5b3445 bd8e917f bd5f5d8c bc60781e bd9ccfac 3c5b5a9e 3c520d8b 3ba81d80 bd71a489 bd594e40 bc943902 3cff2600 3d748207 bbe459d2 bd368c60 3bfb2938 bd431f7f bd33be33 bbc7f8fd bd57ab6b 3d0cc5e0 bd787304 bc93230f bd021530 3cb8c666 bd7c538a 3d68e019 3d41bb27 3d5403c2 bd0ea2cc bd692448 3c5b2938 3ca0603e 3c9332ce bd30e96c 3d9f1d5c 3d525ccb bdc4de2d bdb5d3be 3d9795c1 3d4264f1 bd33d7ae 3cb50f19 3cfca54a 3c885ac6 3d152bb8 bd74e086 3c6e8ed2 3d147c47 bcbb4c34 3d38df05 bcd30f5a 3d2f4d35 bca6f327 bd15c6ed 3c12b20c bb74a891 bcce951f bbc93c24 3ca3d3c4 bd0946d4 3ba98004 3b199811 3d6a1289 bd3d6b73 bc81ba0e bd21bc65 3e044026 3ca91b30 3d5cfbcb bcc15126 3d27ca77 3db56a4c bba4292e bd5d02bd bd891fb9 3ca2d3df bc6914ca bc030cdc bcb99f2b bc6e6e02 bd1fe5ef 3d554cd6 3cec8008 bbe8630f 3beb2cc8 3d5abeb8 3c51bf9a 3d4c2f93 3c4216ee 3dc51564 bd1d91c1 3b695dbe 3dcdbf99 bcceb800 3d0c4cd4 3d6dcd93 bbd3a47b bc331da2 3cbe4333 3cc8f696 bd3d9557 bd844329 bd64d94f 3d5480f3 3cd34683 3e0752a9 bd3be2f3 bca3eb89 3dd58d80 3d9ba2c9 3d917256 bba884b3 3c1e4992 bcd5eb96 3d1ec374 3d62c92e bbf70149 bc871d9b 3d6f097f 3dc82052 bda96d91 bd4e9859 bd9474a3 3cd41954 3c4c45e0 bc746904 bc628667 bb18fce4 3d8d86c0 3dac9eae bb46a6a1 bd937e0f bd978d95 3df9a933 3d07eb53 3c399a39 bd573ddd 3d934311 3dcb1854 3d3cc65f bd6f4ab5 bd3aa45d bd91cc9e 3d11d3c6 bd2b3dd8 bc8f7a88 3d721515 bc3bca58 bcb56623 bc65a8a0 3cc7f670 bdd054a4 3d92a8f4 bc4d2633 3d552e7e 3dbe3e78 3d53f4de 3da3ff04 3dff3141 3d36ef2a 3cd849ec 3dbaa9cd 3d74e393 bce3041f 3c1fb5c3 bbfeab6e 3d387c90 bd3a22be bd9bca20 bbe18a27 3d0d5bf2 3c6dc007 3d50ddd1 3c781d5b 3d386644 bb2824e3 bd80aaec bd40fb7b bdcf53c7 3d0b2bcb bc1bb84b 3ca45b0a 3d80c254 bd2051db bd95fcac 3d481200 bd512794 3cca5995 bdcbe19f bd0386df bb83f0ba bc1efa59 3da48f75 bcc373a4 bd6e2b5e bd283fa6 bc0b15e5 3d42e67a bd3748ae 3ca1a9ce bd8166a5 bd19ec75 3d6d5287 bd5eedae 3c80524d 3d29c625 bd216dda 3d553645 bcca9d8f 3d412efc bda86982 bd5ed71e bd133306 3b4e41cc 3cc04b54 3d2b680b bd6d361d bd45dc79 bc2559a1 bd888300 3c8c29bf bc1d2e5a 3d2a637a bcc47d8a 3c8c165a 3d8fe9d5 bcf8f182 bcc8a0d9 3bb5d861 3a3b5456 3d295a0a bdce81cc 3d843096 3d5d8509 bc2621a1 bda3ef79 bc11b7a0 bd8d5c23 bcab8998 bd1ee4a8 bd82a598 bcc4a1e4 bd9fe2a8 bb5a8059 bdd9ceb6 bcf31248 3befe3bf 3d95b37b 3ca04c3f 3d914f19 3c49af7d bcf0e199 3c1653ab bd56d207 3d57824e bd029e2d 3c72d153 3c540584 3c6e8504 3bee36da 3d59974b bd3baa59 bd05e561 bd5e1fc6 bd92bf2c 3d8063e6 3c9da8b8 bd87f6a6 3cf7d40c bd72f670 bcf347cb 3da2bc80 3cd09db5 3cf7019e bd59cddb 3d84819d 3c290463 bcd76d53 3d12fede bd1d77b3 bd861ff2 bd03a45d 3d5ef52f bcbdb83f 3c7edb7b 3d04ccb8 3c7da065 bd50debf bc9af9a2 bd40335e bd90e06e bcd162fc 3d21949f 3d801b1c ba7c408a 3c063dd7 bda0b90f 3d2d6875 bc9505c5 bc1eedb6 3d4f77cb 3ceb6b4f bddb72dd 3dd8174a 3d7a7b04 bcf51306 3b5c66ca 3dde676d bd142046 bd127879 3bc9c3ed bdc6fcbd 3d6eaac8 3d19461d bc3f5d78 bd54ba07 3d35c556 bd40dd5b 3da3ce52 bdda6599 bd13e4b3 3c3c84ed bcfa4bb5 bc59203b bd94dab9 bd144ce6 bcfd6f4c bda0d636 3ba4d407 3c0e8634 bbd97765 3c36c72d 3d8e3273 3d673e65 b9d89610 bcf953be 3a22d6a5 bd87ca34 bd94557f bd5aae41 3d2ac167 bc81cbce 3d9952b8 bd7c1509 3c1a667c 3d7fc7df 3d70d922 bd601e3a 3cc6edf5 3c8cb0fd bd595101 bd5fbbea 3c20e82f bd7dd813 bd0b4728 3c13a60a bc975fb5 3ce0d564 bcc974ce 3d2cbe78 3d812cf1 bb64a5d9 3d402ddb bcad6c2e 3a9ede26 bd135b4b bcb92e48 bd00d6fb 3c90be49 bc9256fc 3c9f171f bd4a8626 bc943e1a bd0c2277 bc3d850e 3d59bd1c 3c21cb65 bd7a4fad bd086d26 3c928b4e 3c03a76d 3d8a08e1 3b7e93ce 3ce1cb87 3cac3f5a 3bdb427e 3d16a6a0 3d970a64 bcd57832 bbfcbe43 3cbd1b00 3d0877ed b9e97113 bdabdc0f 3ae55c96 bcef25db 3d3c549f bd1649f7 3c61318a bcfc81a2 3d4b4224 3d854894 3d3ee4dd 3c3c05bd 3d44d7d6 bd8d0d2c 3c837637 3c42aea9 bd24cdaf bd30d8aa 3bc40e33 bba19859 bddc6d38 3c11800f 3cb0516c bc830e25 3c845f64 3d99a2cc 3c7d44e3 3ca32430 3d4e15bb bc92af30 bd3269e1 3d313b88 3c01ff66 3cb95062 3d62c897 bde9a379 bcb8e9a5 3d5a8d60 bd80d889 3c8424b5 3bab6878 bbafd9b9 bd820fc8 3cf01567 be175151 3c6c1c25 3d40d39b 3d0cc127 3dbac2ad bd1b24a2 3bfc20e4 3d6c54b0 3da812f4 bb8dbe11 bc99fa1e bb2f4531 3c5c743d bd1b995d 3d431d41 3bb16749 3b69b9f0 3ce1d025 3d79f151 bb3c8b0b bdc4f03f bd5eeed7 3ccacc59 3cca9e8e 3cc0e7e8 bd3deee9 3c292d8f 3c73c0bd 3d9c27c6 bcd1ca30 3c78277c bd98a610 3d0a0e28 3c53eab8 3db613ac bd1ef8f5 bd9706c2 3caa8f5b 3c7a1c49 3c8cc111 3d3a7d78 bddd6451 3cdb7529 bdba83e7 3cbd0856 bdbc33b8 bd6880ab 3c90525c bd949032 bce4a773 bd59a444 bd8ddf32 3d104f09 3c44a332 bd7c204b bd62aa61 bde97341 bdcd6d3a 3dfbe446 3d409f7b 3bf438d8 bd3abe28 3cb0442e 3cc7b1b7 bd3a8f0b 3b15046b 3d8423aa bd9db732 bda3a255 3b07cbbb 3d83986a bda43c0d 3ce838b5 3d6900c1 3d19b9e0 3d23316d 3d88734b 3d721837 bc887adf bae67398 3ce46ff3 3cc6175a bdaa15aa 3ca198a8 bd46ab02 bd5da705 b9d8ce26 bdab4b86 bd581a8a bd718676 bc8ee91a bc6cebac bd1e8c3d 3c5b94ab bc995b82 3de006ce ba2c06f0 bd4c8f22 3d3a987e bd11a0bb 3d156954 bc97aa31 bd3804e2 bb94ea0a bb770b57 bd912ae3 bc43131b be1b55bc 3a93a153 3d412015 bcc4b5ee bd0fa3cf bcd3c283 bc5193c5 bd158777 bc520c60 3c297ccb bd3dbda4 3d854e04 b8cabfc1 3d9a4b39 3cc95899 3aa7c1a6 bae471d1 3c400a69 3d06b49c bdaaf7e7 bc4e65d8 3c45e15c bd48fbbe 3aef0e82 bc877f5d bd821b1f 3da3e3da 3d84bfd0 3c46a0f5 3ccb9dbf 3acc2c46 3c54e495 3cf6c30b bc8b5d09 bcf76823 bcd5a578 3d75dd04 bdc6b34e 3d82d246 bd0f1dc4 bdc1477d 3c49a01d bcbce979 3d26e342 3d0965e2 bddb1a42 3d64f3e3 3c095818 bd260cfb 3d25813c 3d2791b2 bd94b7db bc1ebf20 3db2efb1 3cf4e4c2 3ce8d247 bc5e9a31 bc8446d8 3d90abf5 3d4c66b9 3d918c47 bce8edd3 bc814f24 bd13a35b bc8a7aab 3d805b32 3db6b4f7 3d0ba789 bd495713 3d3e5c2b bd0759e2 3de96b6d 3a33031b bd7acaba 3d28753f 3dfc948c 3d09c2d9 3d91952d bd87cd36 3b27163d bd87e961 3c12d16a 3b35b33c 3d844e7e 3d9a4dc1 3d8b67fc 3c781a6c 3bd46b19 3d9d78f9 3c41c2b9 3df65f89 3d85a6c0 3d46970d 3cd5f2b9 bd4963e1 bd196af3 3a50b255 3d173094 bcfc18cd 3d315d6d 3d146efa bd6c9b80 3c17581a bd2092c5 bcc1593f 3d455e08 3c39af66 bb4f9ddd bd97c8ad bd445471 bb31703e bdcd8b4d bdb924d5 3c17c8a7 bd29829a bd4b8936 bcefe695 bd2a3298 bd57a8f7 bcb99ca6 3d2416f7 bd28975a ba913f56 bbb0aefc bc6f9fe9 3d450b71 bc28c9da 3917d16f bbf1588f bd76e974 bcca2998 3c3236d3 3b3685d5 bd836d7d bd85ac4d bd5e42ed bde4ca95 3b983348 3b995172 bd838364 bdde1612 bc446a2d bdb0f436 3d3f8036 bcd64d2a bc03241e bdf1a038 3cc879b4 ba5af8fd bc83ac89 bc5ac4fe 3c1949a2 bd7cb69e bd524bcd 3cffea6c 3b6b3cca 3cef559f 3d17503c bd9b2a4e bdaf59f1 bc9e69bf bc6c9a82 3d176d0f bd324b5d bda0b984 bdea12fd bd9643f0 bd7197a2 3d6ec545 bc659872 bd6a8646 bd8bea59 bd557ae2 3b8df7a5 bbbc9515 bc634812 bd9c019c bd555162 bd2490f6 3d55993f bd87515c bced256c bcec7cfd 3b8297fe 3d8fd52a 3c7fcb5a bdc2be9d 3cdd849b 3d99bb80 3d0a3624 3d720c11 3c639910 bc9d95d2 3d658df7 bc8d2d4e 3d855308 3c439621 3d86358b 3d527403 3d929e01 bd48fe14 bd43937d bb4f246e bd3b1df6 3d205746 bd4ba5e1 bd13e325 bd0a4345 bc737a0c 3bcbc16b bda97b69 bd7aaf22 bda821d4 3d34ba5a 3c484fab bdbc315d bb9bf8ed 3d56aeb1 3d43378e bca93cd3 3a3fec79 3c3d9c23 3d98f8db bd9445f3 3c251d9e 3cf23efd bc3f5283 3dd9c9c0 3db2f797 bcb1ccf3 3d25de01 3db06825 bd389aa7 3d23cff4 3c849b00 3d5697de bd6f4d2a bd8c3310 3d5f8648 3d082198 bdcb07d6 bd96ac53 bdae8310 bd51fde0 bd342ab2 3da1de17 bb82f35c 3d6826e4 3db0e440 3bf4ae60 bd8581f3 3d34a77e 3c4a6919 3cc5652e bdcaf3f5 3be18d3f 3c25944a bde6be00 3aa1a251 3d967339 bd8b7fb2 bc1e4393 baf48401 3cb209c0 3dbd7f0e 3d98e314 3d62d4cd bca9bf0c 3db29d5d bd1234ec bc28abb6 bc879f22 bc24c057 3d850841 3d28f4b3 3d3339c1 3d232107 bd07fa5f 3d4fecf6 3c44afd1 3d0374e4 3d8258cd bd53bda2 3c93f527 3d19ba60 bd0b6ebc bd0c4dfd bb0f5c55 3db25f59 bd0467b1 bd448f3a bd3f25cf bdd6b729 3d6ea807 bcfd78bf 3d2350cd bd0208d3 bcbf5ed1 3c995efd 3d1e16b7 3d2a7fdb 3d90004c 3d854f93 bc897d15 bc0bed1c 3d02bd64 3da0920b 3e0a0cc6 bc0e5060 3cfb11f5 3c37bbd5 3d93e0b2 3d831ea7 bcd38e5c bd657610 3ca76204 3dbfe209 3d11ab61 bcc98018 bd4e5fb7 bb924981 bd4521aa 3d6c44d3 bd0457a2 bd957079 bd907ef7 bdeeb09f bd408a35 bda77d70 3ca1a1c9 ba59627a 3c10e9a6 3b2858b4 3c88161b bd190b1c 3cb4b463 3d5b92d9 bb7f6222 3d1727d1 bbbcd6ee 3d703930 bce2391d 3aa35542 3d58b92c bd9fa073 bc8863ad 3d54a6b1 bd252f12 3ca8d016 3cf1586a 3c07691f bdaa0999 3d58453e bc7c001e bb40506c 3ca7c70b 3b067acc 3d05bd9c 3d9d7479 ba907326 3d7bd687 3bb2522e 3a61560c 3d3aef34 3cf8e85d 3ce14eb4 3e0f1a85 bd4f0520 3d331d74 bd9f80b7 3ca4ce16 3c8c4ded bce00f2b 3ba5bc8c 3aeb7929 bc8d6885 3beca3b5 3d9c546a bc899723 3cc00617 3c0c6e7f 3d1e9308 3d44f5e8 bc90f641 bd81926d bd9056cd 3b6cbacf bcc87ff1 3da27e88 3cb84e40 3cec29ec 3d05dc10 bd406483 3d80b9e1 3a615513 3d9823f1 bc883d61 3d88937f 3c510184 bccbccd2 3dc997ea 3d099c84 3d5c0816 3d49b4b8 bcbb1971 3d7dca29 bb34801b 3d372c96 bb6e4ddb 3d8d9232 3de6b4bc 3dd97db4 3c90454c 3d1813cf bd9a3fc1 bd55b1ce bc1f72d1 bd045a8a bd8fdd9c bd9b1233 bda28856 bdcbc085 bca1b07f 3ce52476 bc72669e bd4da09e bd1221e3 bd2885a7 3c6cb5b4 3d6e1bc2 bd2d4c3e bd1dc527 bd33f3a9 3c16dbe7 bcb91c6f bc976b1a 3db10fe2 bd42436f bd0f6c7f 3cc12e3d bc5bef45 bcdc507e 3bac6079 bd9d23a5 bc3745e0 3cc7e023 bddb7526 3bd6d24f 3ccbe68f 3d133a2b bce90882 3d143932 bd9ec16b bc929d01 bcda1f4c bbe2af07 bccac383 bd539ffd bc5bbcf9 bcd41ab9 bd734808 3c6259fc 3c4514b1 bca3f9b9 bcb906b2 3bd96f42 bd299419 bb0d4334 3c614e2d 3d65c97a 3d527b30 bd6ebc2f bd180a3e bd89ccaf bd6f6719 3dcc49e4 3da0f1a7 3db736d8 3d07eb40 bc2d9258 bd941261 3d05cba4 3d02e38c 3c8a9a49 bccee841 3d814775 3bc4c249 3dc3259e 3c754fb0 3b3f3aeb bd9e7f72 bd63bfe1 3d942067 bd62c070 bda461ed 3d5149ed 3b71f2e7 3ddd5861 bcbc7978 3cdb10d3 3c1391ce 3c2b71e6 3cebeb27 bdebc706 bbff990c bd0f01d4 3cff0178 bcbd1cd8 3b730665 bbcfbc7d bddf5c00 bd60a872 bce7b6b7 bd7a1905 bc5f9935 bd5c7635 bd87b818 3d6225b9 bb01cabe bd925245 bd9b0481 3d12b45a 3d6eeb58 bdb1c14f 3cc0baa5 3c92411d bc1ab40a 3c2413a2 bcd6ebe9 3d57ee0a bc2ac033 bc0befc3 bbaf90ff 3c4ec6e1 3d3675ea 3c77cc9d 3d868346 3dfa5bce bd3c3a0f 3c8ce56c 3dbe8db7 3cd52ac6 3d7eceec 3a8644bb bc85c86b 3c17a07e 3c899764 bd25e8e6 3ca9c314 3deb7285 3cc73a42 bd2f5c86 3c068b96 3c9c27bf bcca25df 3bab8013 bd6b9833 b8f97764 3d8fc413 bc8a092f bcffdd15 3d68de33 bcb518ac 3d13e8fb bd90f69a bd2e1d4b 3d6cdcb3 bc3e6048 bca0b8b8 3d5b5961 bd1d05c5 bcfcb449 3d04309d 3daa7c9f bc0f220d 3ca15ad3 3cee7a92 3c0f1f26 3cbe3eef 3a836b06 3dec23b1 3d80eee7 bcc9c234 bcaf3daf 3d83de19 3d4fcb2f bbda80d5 3c9af2b7 3cd585c3 bcef78d5 bd0155f8 3da17a90 bd4fbedb bd9f5acb bc27432e 3ce52d0a 3ba44a96 bd780564 3d53a518 3da733d7 3d333679 3d811261 bd0651be 3d0397cc bc0785f1 bd92e817 3cc8c34e bd06198b bd23cd8b bdf31e28 3cedea95 bbf173d5 3d11e6d9 bca8484b bd3a53ca 3c4286be 3d10e065 3d0166a0 bd3526c9 bd00f0e3 3ddce714 3d7c8374 3d7ff6d6 3c903683 3d8e1876 3d98a595 3d2eabe4 bc82e6e2 bd2f5041 3d0e1545 bbf33e39 bcc07109 bd49e320 3c3c41d0 3d2f07b5 3d31b7f9 3bb296d5 3cf19f82 bd7827f7 3c352aa5 bce1fc0b 3d886613 3d39eb80 bd007ca2 3d0fc683 bc56c7fa bcb2435b 3d3c185b 3d275595 bd0c4027 bcc4a4a0 3d458f63 3ceba03a bc93c9c5 bd049616 bc179d05 3bc02f08 bcd17a08 bdc144c0 3ca84f06 3c9fefb9 bcd174c5 3d38690c bb8a7b2e 3e08480e 3dcfbe34 3cc1dadf 3d41a1b5 3ccdefd3 bcb6917c 3c89d046 3b8eb324 bb9e38f5 3c4b4c4a bc8d26b4 bd30ab9c bd47416c bdcc01f3 3db7ea27 bbcf04f6 bcc70248 bb6c9611 bcf531b1 bd534280 3cd51e81 bd541589 3cddaca9 3d8ec157 bd15cfc6 3bd16915 bd55c525 3d0689e6 3dade8d3 bc9cc20f bb51cc5f bdc02db5 bd183a72 3d456bbe bd04c988 bc2c8238 bcd47b19 bd50adff bcf5abff 3ccc2516 bd699bab bd0c483a 3b9594e5 3cca310d 3d1122a8 bcad0f49 bd2e54f2 3cec07e1 3c97f439 3d9bc059 3d60af1f 3d81dce8 bd3a43d7 3cbf4b03 bb3c7684 3cdb5eb0 3c942287 3c2ecc5f 3b8104eb 3d57bc4e bda70815 bc835aac bde4c080 bca6dede 3d81b127 3d0bd2c5 3c9b93c6 3d5d23c5 3d2fa9ee 3ca93d61 bd54d40f 3cabed8e 3cac1730 bca194f1 3d41b2ff bd87438d bd0365e3 bcf8dc14 bc8b4a68 bcc8ac4e bdcbdb27 bde37687 bd82dd7f baa22935 3c4f744d 3c89f766 bd704157 bcc91b3c bd20dd97 bb81b2cf 3c7e1a45 bbf5dae7 3cc91141 bc75895f 3d1c4a6b 3d1d06af bd5f0637 3cdd1c2b bcd362c6 bd67ea9d 3d05cc7e bcfd9521 bcc20be2 bd505ab5 bd5f190c bd4fb575 3d21bdca 3cd2e501 3d9363c2 bd4a2689 bd872429 bbfc833f 3d999a20 3d6c7460 bc94e19e 3ce36289 bbd8640d 3ca564d4 bd943f26 3d1178ac 3af698f1 bd322019 3d2bbf80 3c4b195c 3d760c43 3d43759e 3d4978cc 3ca6b11d 3bd35a22 3c8bc8e6 3d1f413e 3d6b12bf 3d2616f4 3d137e03 bda9821e bdbe7d50 3d07e168 bd4d40ac 3c6bd11d bd3e6cc2 bb9cf3cc bd22f25e 3cc601ee bd963aa9 3ca588f4 3d8ad6b0 3dca2ba4 3d3936ea 3d210e91 3d75295c 3d56ca11 3d9733ae bd5e7f81 bd23eacf bbfd003a 3d01f466 3adcedff bcffced8 3c841d26 3d6b0809 3dce16a4 bd2a55fa 3d53e455 bd2315b8 bd904795 bd995546 bd28deac bc159cb0 bd8e5a9a 3d0074f0 3d0112f1 bd5460cd 3d697696 3cbed83d bcb709d1 bcd0a5dd bccee45e bdeac864 bd5abc85 3d9aa78d bccdc457 3da40238 bced3c86 3d42d40c 3ce92d1f 3d954353 3d8080fe 3da9493e 3cfbeb0b 3d8e70d5 3d236a7f bae74696 3d6ce436 bd814824 3da3abe7 3dad2645 3d82e824 bd5d0e36 bd508b5d 3b87ba4c 3d10cf18 3cf5112d 3c09d473 3d6cd75b bd5f82f8 bd844d96 bbe48852 3c72ca66 bd6bcf20 bc16db66 bda69646 bd21d871 bd1637ac 3ce44b68 bca6a324 bb6e00df bdb340ba bc95b749 bd95fb35 3d1c9ad8 bd188fc5 bdaa6d34 bd8d6aa3 bbaaa003 3d41435a 3d8546e7 bc357a18 bda9ec3d bd0331bb bd9c6fb3 bd80c9d9 bc0c1f9e 3d04111b 3d87f16c b9ca253b bd3c019e bcabbcc4 3cd7b902 3c8aeba9 bb92ab80 3d064f0a bc7814ae 3dcde9d0 3bdebdd1 bd63a7b6 3d53b9a2 bce16633 3ca93cda 3dc2d73f bc6e9693 3d0ca762 3b83c9e4 b9e4d065 bcdeedbd bdb6b535 bd1bef13 bc322e85 bc2fc98d 3d2a9501 bb45ba64 bbae249d 3c3e5b75 3c52cfcd bd8f3138 bd853e44 3c6f1c17 3ce27eed 3d983cde 3cc20aa1 3b9a883a bb821112 bd1e9886 bcd82991 bcd357b4 bd7fa5a2 bdb37881 bc042a4a 3c294ef7 3d5f1192 bd76fdb7 bb803c0f 3cba9e95 bd3d0a07 3bbdf687 bd467ca9 3d1593cb bc4acfde 3c790121 3c69e3cc 3d9771ca bc2ea6da bca193fe 3d31fdb0 3da2ace9 3cc89de6 bc04fd58 3dd78fcf 3cb7442a 3c9c8af6 bc907619 3cd9bb4b bc94455a bb508425 3a11686d bc824a99 3c96c691 bd2bbafc bca1d1ae bd062ea0 bac8a108 3c2c17b0 bcbf980a bd1a678d bd9cb10f 3d085ff8 3d6e07dc 3c41459a bc3f420d 3b887e1e 3df9cd4f bc9a3220 3cada06b 3ca16907 bda8d223 bc995b1a 3d191039 bca32bed bd0dfc9c bc47af95 bc047082 bd10158b bd289510 3c1357ea 3c165999 3c4a4b7d bd1a29da 3c5728c7 bc7df7fa bd859ad2 bd0d11ad 3c4c8e8f bb118055 3dcfd7a7 bd01f054 3cbd8bb5 bd2e45b0 3d1ba359 3d81f421 3cdb0ac7 3c11ddb1 3d9e5201 bd35ae14 bd740816 bd19dfbd bc28a139 3d7acaaa bd0c746d 3c498aaa 3cc5b5df 3da60b2d 3c7c035e 3cbf08bd 3dc78349 bca6cc3c 3dde2ac1 bca92628 3c8330bd bce63067 3c0ced7d 3d6e4794 bad563c3 3d073687 3b9e00ce bd4ebd14 3d8ae21f 3dcc08ef 3d8155bf 3cbabcc5 bb6dbd92 3dd334ad bcb48ca0 bcc0a7a9 bd0c1aef bca32811 3d880dca bb6e83fb bb89fa24 3c18933f 3d6c597b 3cf7c6f8 bcc505bf bdd6af6a 3d306e2f 3d012037 bc86a5e4 bd924a31 bccc3731 bc94606d 3d9e44d1 bd95c6a1 bdacf454 bdddfad1 bd579370 bc43ca57 3cbaa129 bd993805 3c8e74bd bc3ae84a bafd9a97 bbb59266 bd123f78 bd7b3d18 bd10a683 3bc02ceb bd588056 bdf6d5b5 3cb43d1b 39f8ecb1 bcb09fb2 bd572968 3ce05942 bd5e39c8 bd69590d bd8b6452 bd8975c3 3d843e5d bd8019b1 bca2c0fa baecee28 3c278ae1 3b87796a bc3722dc 3d73617f bcc2355b bcd1684e bd3a2bf2 bd25ad57 3d607492 3da82938 bc68a79c 384c6cca 3d6aa146 3cdce13f 3c40d9d7 bd5d9e8b 3c851191 3dc5a57e 3d86251d ba2ff099 bc0108f3 3c1ae42f 3d385456 3d3c8973 3d3fe4cb bb01a7cf bd9db1ca bca27d61 bd709faf 3d545744 3c77e762 bc84dd12 3cbb819e bd51c6f7 bbeb1368 366bffff bd7cf8f6 bc27aa74 bd53886b 3afa51cb 3d5885b8 bd5ba807 3da3bc3e 3ddb5eaa 3ba80399 3d835435 bd8d492f bd2f31b7 bd0a6f92 3c614e51 3c53434c bc239bda bd976fe0 bd0310b0 3d75c5e7 3d89fbfb 3d315bdd 3c9bbb1a 3c8a618d bca2a4c5 3d1da184 bda23153 bd2897f8 bd37e3fe 3d82ad0c bc97fc33 bd2954ab 3cf731a0 bdb3d25c bc49a972 3c9edc0b bcda46f4 3b6d23fe 3da8c119 bcb71f27 bd600ee9 3d53c0d9 3c817bf7 3c34c4a0 3d2370a4 3c5cdaca bd328851 bcc38dad 3a0d9a45 3d17ba06 bd4ff66a 3cbf7a64 bdf3276e bd9d024f 3d48d3e9 bc227a60 3bee0536 3bdd5e82 bcbbfa95 bd34fada 3c3bd726 bc967a26 bc10bedc 3cdf228e 3ca1310a bceda740 bd8cc385 3cc157eb bb784ac7 3d8faffc bd80a5f3 3d343145 3d4a6c90 bc69d2a9 3ddfc776 bd19a97c 3c48547b bd4224c8 bd708977 bd02dcd5 3b053695 3ce060e1 bd476744 3cd79aa1 bb97e56b 3ddbba39 3c5e3b65 bd36dc3f bd9eb7a5 3cbbee23 bb8bb4a4 bb9c2c04 bccabec5 3bfc90a0 bd4d5858 3dbf0f59 bbeff1c6 3dbc00ec bd242e55 bd0f673f 3cda0b3b 3d5df3ba 3bf108ad bda4e8b6 3cdd000e 3d69d41e 3d1edb6f 3d973933 3d0e8cd7 bd2fc77c bd5adf15 bd979f58 bd7f7c4f bc88c234 3d910543 3c000bec 3c593e43 bac7a1c8 bdc7ab0f 3bc7f690 3da3ac43 3d23afe5 3d1e0038 bcdec52e bc80444d 3ccf6a99 bbb240da bb1fd109 3dac5a2a 3d0e6f4b bc9c926a 3da01627 bc02cc00 3c7495c5 bd8bc2cc 3b2d4813 3c8402b3 bd90bddf bdc2592d 3cab116c bbfc4546 bd16951d bd77b3e4 bcf7cc25 3cdcfbd7 bc94b427 bccba0cd 3c31ca89 3cefba78 3d2d6591 3c3ec2a6 3ae11668 3ae9c1e4 3d6d2e3b bcedfa37 bd6e31e5 3d896910 bd9956a2 bc45b5aa bc82d4ac bc9489fa 3cdf9782 bd8c1d72 bd2aa7b3 bde6354e bb57c535 bcfae70e bd64472a bdf7c26e bd453015 bd72a5df bc7ce150 3b1c38fe bce43def bc76028f 3bd42b90 bdc7c9f7 3bea50d7 bb7ec7d4 bb7492f7 3cceae85 bda4e2e5 3d4c18f9 3d27a896 bbc7b3e8 3c180944 bc93755e 3c897214 bc8c0fb9 bc51877e 3d813b33 3db49f3f 3d1b6c14 bdb942f5 bcdffcdf 3c78660a 3c95d67f 3b3b0b8a 3bfbe9e3 bcb0fcd7 bca97c56 bc82b434 bd1e925c 3d2b83ad 3d299d77 3c36c38f 3dba3d35 3caf068b 3ce5d9bc 3bf298b2 3c0767e9 3c392e80 3d890c1c 3d5e725c 3d44c499 bc92874a bd7ae78c 3cb66365 bcee7326 bd34e6bf bc8c3d31 3d36e9f9 bdcad849 bd0422b3 bd887253 3d834324 baec973f bd3ebc9c 3d3b5785 bd249e8a 3d482792 3e012045 bdba6d48 bc8e2ab8 3d060791 3ce44e25 bc8cdcbf 3db31934 3cfcf7f3 3d13968b bd12b0fe 3da3bea9 3d6cf2c0 3c70e1ee 3d8717a0 3d452f14 bc0f1a39 3d9eaf85 3d022696 3d49db95 3b3da161 bd1268be bd1fc933 3c344fc2 bd2aa5d2 bc3d4d07 bd9c45e4 bd27b0c8 3c24e3d7 bc93e276 3c29ac91 bd9f2061 3d41cf4e 3b2b3b05 bdd9163a 3d4855d1 3ce653f2 bc5f329f bda53a09 3d889162 3d2dada6 3b9d2f64 bac8d23f bd324b55 bbad7ab4 bd85c7d5 bd994253 bd60b6ee bd76a0bf bd3e38a1 3c9d870a bd0d7c98 bcb3b3cb 3c8e0549 bca538fe bd40aa53 bb824e6e bd9bd2a0 3d83823e 3d6d1d4e bdaeb93c bdaf7c3c 3d21e5dc 3d923b67 bb2ea40a bc5fa0f0 3bb5dfcc 3d2fde14 3ccae38b 3b18518f 3d0a9fd2 3d5d17e9 3d3b3f10 3d926a02 3da823cf 3d82cfb0 bd792095 bd4bdb92 bcd59c37 3d1175b0 3d1287fe bd4f29be bd9487f1 bdee003b 3d80a9cd bc6c18f7 bd93eeff bd1a406a bdd156f4 bc5f6eba 3c55b459 bdc98d28 bbf7f581 3d88b0f8 bc033a42 bd573ea3 bc5f44a3 3d57b517 3c89786b 3c3f8794 3a90a57b 3da5a96f bcc48eb4 3d913994 3c9158ac 3c894cdf 3d5031cb bd563069 3d99dc10 3cf17dec bd654403 bd27d9dc bd093c93 3d7da4d1 bd1da398 3da5d85e bd138420 be092312 3c2f2c7b bd813e37 bd34221f bb70f2fa bc8e032b bda2d3cd bd511325 3d0e688b 3cc288c9 bc2c6f2c 3d120249 3c26d426 3d766ef9 3d513edb 3ddb3f9b bd03ef6a 3d97a87c 3da5e934 3d91084a bcd5ae5b 3db21565 3dec7832 3d523b15 bd81d338 3d8e856c bc4c9b45 bc8fc5dc 3d26462f 3cd698b5 bd6b24c3 3d0d4975 3d1d5796 3d726440 3d38b429 bae3cf57 bc1052b3 3c8fcead 3d7ecd64 3c03485f 3d217cc6 3c886ea4 bc543cf3 3d13a5dd bcb81040 bb85998e 3d335523 bd890a3f 3d2b033d bdb1b55b bd6ad5a4 bc6fea96 3d05cb32 bcdd6974 3cdf5d82 3d32f37d 3d40ae2c bd50920c bd15de8c 3d17c746 3c9d2cd3 bcb5674c bc5f0ec0 bd39a6f7 bd3c3c0c bca42c3f bcfffaf5 bd43e96c bcde1bcc 3b1d0652 bd195c68 bb94d1b2 3c16c783 3bd127b6 bd53e66c 3c0cfa7b 3d0f6d4c 3c8c0184
stage2.conv.bias 16 bd85fd62 bd13c2ee 396a27f8 bd06ea44 bd62101b bd4149e2 3d83d919 bcfd884c ba841649 3d0b844e bd474c49 3c567f2f 3d505fcf bd4f1164 3ca4c37c 3ba15d91
stage2.bn.weight 16 3f93b40a 3f923e4d 3f955b24 3f8e237f 3f8de9e8 3f9227b3 3f94906a 3f93ea25 3f94fd61 3f90dae7 3f9b50a2 3f961acb 3f96bfaa 3f96749c 3f95820b 3f966b0a
stage2.bn.bias 16 3d835201 3d094c25 3dd57717 3d3ac0cb 3d89f9b9 3d4c9cf4 3c38b6a5 3c9712ea 3d1ade1f 3d293fde 3d51b022 3d9c8262 3d22f60b 3d3e6a28 3d21b7a1 3d7f1601
stage2.bn.running_mean 16 be762dc1 3f852600 3e98c912 be85a92b bdc33e8e befcbab7 bf1738ff 3e79fda4 3e3ee79e 3ece560c bd9c70fc bd989311 3cd0c945 3cd47382 bd0e93cf 3d946f0a
stage2.bn.running_var 16 3e494a5e 3de18200 3e6d1dcc 3e104415 3e027bcb 3dcff091 3ecd79cd 3e3e389c 3de904de 3e6e3721 3e8afe7e 3e1202ef 3e20371d 3e620975 3e025124 3e0c1eaf
stage2.bn.num_batches_tracked 1 46929000
stage3.conv.weight 48000 3bb779fc bcf22e4f 3cb046ae bced3afc bd41469b 3d0f287e 3d1b5f28 bcd564b0 bd08c7f3 3d2518da 3d2ffaac 3dd985d3 3d4c0ffb 3d9f3b26 3d930be8 3d81f44d 3d277080 3d49fba8 3cdc7ada 3c7d53fc bcc78fb1 3c95d882 bd7e2af2 3d0b1c1a 3d58b16e 3cbb827c 3c1d8fc2 bb514e87 3d3df364 bd37b1fb bd8033d2 bde58323 bd990f6e bd7793ae bd3f773c bdd353e2 bd503641 bd310406 bd1e3a87 bd7d8fb2 bd9599ef bcd83bca bd47172a bd19fd92 bd1c3709 bdae8238 3d6df938 3d9985ad bbebd81d 3d88b2f6 3c94c2d4 37ce4968 bc63087f bc18d6ea 3d25de2f bc42c9a9 3d29d2dd 3d23f8ac bd9eb7d6 bd44a269 3b91db36 3ceca342 bd333feb 3d3fe1a4 3be0d773 3dac7d59 3c762f53 ba3acf2c 3bf4ab58 bd274a39 3cf58123 3d19b599 3d3b8447 3d7c7757 bd1a30f5 3c222661 3d5b309d 3cc4902b 3d6549d3 3cb581f3 bb9c70b7 bd5fdfe1 3cb8b886 3c0208a3 3d79a8ce bcaee756 bc9b00d3 bbadc5c1 bd6ff729 3cddfe62 3d6cbe6d 3d1286f4 bc81363c bac3b066 3af6b020 3b250656 ba92055c 3b621c0e bd3821ec bd007440 3c10bc1f 3bef107d 3c765da7 3d249029 3d720635 3ce94382 bd00426e 3ccaeed0 bcf30835 3c2db877 bcda66d0 3cf1da56 bca1c7af 3c384173 be020de2 3cad2e2d 3b57a487 bcc2a22d 3d7ccd41 bcc308a4 bd18cc47 3bb5095e 3d82533e bd81b395 bdd03c71 bd042223 3b9df24a 3d219631 3d40eafa 3c1bbeb6 3d3803c3 bcb2be0d bd600da8 3c51e4cc 3cf572e2 3d67c222 3d2f5d8f 3b3f98ac bd84972c bd4ab32a bccda68f 3d81f613 bde0c9b8 bdef1cb7 bdd37cb3 ba4b4d19 bd0e1318 bd814c81 bdc05282 bcf57713 3cb3ba79 3d95bf3b 3c90391f 3cca3356 3c72a5cf bc8de757 bdc91e2b bc4e0288 bcc48f8c bdab27b2 bd2de914 bd5594ff bd053118 be1b5571 be0a1554 bdf08c1f 3cb0467c 3d294406 bd2fb5ed bdb572a3 bbdfe5b4 bc7283ac 3d934790 bceb0606 3c86f7a6 3c23cb8c 3cdc7f8a 3cb2577c 3cd3a24a 3d3f3b52 3d0ca50d 3ce2a0e6 bda633ad bb8d3bbe bd099423 3d93be3d bb48df9d bd421e87 bd31f453 bdcb7983 3d834e58 bd0fd33d 3cc57449 bd43b6df bd602543 3d9ae36a 3d3e4dd4 3c958a5a bd3276c4 bcba7946 bd2f9565 3d224079 3bfd388c 3d702204 3c9d8cd3 bc640287 3b626b63 3d55094b 3cdc4b76 3d931041 bda37f91 bc2d0d6d bc0e904c 3cd5ef48 3c34d0ef 3d31a787 bd4d46f6 bc731d54 3c9238b1 bca3c580 bd47f011 bd488185 bd386118 bc9afb8a bdfecd3b 3d58be1a 3d4810d1 bb7cbc39 bd2f763b bd83471a 3c4334f4 bc5e2885 bd475411 bd38f5da baacede3 bca1f147 3ce4b21f 3d79421c 3b1d1865 3ad72183 bd1aadbb 3d901df6 3cc1c5a7 bc1e95cf 3c3e02c1 bda049ba bc037178 3b69d56a bb90da17 3d8041af bc71ed2b 3d2ed4ae 3d7ea014 bc7a8e06 bbc148fd bd5cd856 bcbd0a1f bd0b424b bd47fbb7 bd26c64e 3a93524d 3cbf05fe bb4db125 bd4d16d9 bd8c76de 3d118bc7 3c8eef71 3cd02172 3d1a6ab1 bd920033 bc5a2dd0 3cbccec0 bc40b2c4 bd593aad bdc479a3 3ca60f0e 3cad6d1c 3c7b210c bc2fca13 3b66930c bda917ab bc8948df 3ce5047c 3d539012 3d89d11c bd82c19d bd15db88 3cb44de3 bbd2962a 3d6bd6f7 baa58c81 3c67cdeb bbf0a6df bd025d6f bc8a3a0c bc142f31 3aac39d7 bd0ef946 bdd3de61 bde8856a bd0ad941 3b8c5e1d bda57bfa bdb4651c bbf94871 bc1cfbe6 3bf7e14c bc99c229 3d166e28 3cc2d8b0 3d5a1f53 3cd0017d 3d946a6f 3d80cb65 bce32ad5 3d22921d 3ce0f6f0 39ab2db7 3c9c2ca0 3d3d426e 3a73ed0b 3d630a35 3cc44b4f 3d44447e 3ced8bea bd3bc73a 3d85c45b 3d7da318 3d88b065 3d43a3bc 3d386ecd 3d463abc 3cd1396a 3bc0fe9a 3dba2363 bd10962f bd53fd37 bd98e7c9 bd2dde93 bd329cfe 3d3fc157 bd96969d bc55c6ea bbc16f0a bdc4b509 3c85a2f0 bd43f4b0 bd083b5f bc9bbafe bdf613ce bcde9f33 bd29656a bcf329e7 bd541329 bc8b9791 3d184e9c 3d4fa736 3be7fe51 3bf2ae1c 3b17b988 3db786bd 3db988c8 bc6c5ac7 b9c6e5ae 3dbf38bb 3dd8f82a 3dae9370 3d0fe938 bcc2a25c 3d07fccb 3d2c1dbb 3dcdad12 3b66cb84 bc727115 3c5ddd8e bd457b51 bccb90d2 bcadaad4 bd4d7ff8 3c290aa1 3d3ff27c 3c156e09 3d989bf5 3da5c495 bbf54e4c 3d42d959 3d6c0217 3cf876b9 3d4bba45 bc221dd1 3d381cd4 bd267087 3c3569b5 3d6cbaef 3d1c7aac 3d46b8c4 3ce7dc8c 3c8c54b5 3cdfc901 3d2ef8ab bd5c42d4 bdd05fa9 bdde7ccd bd0ad886 bbef6b8b bce0d1d7 bbd2c4bd bbc9dd98 3d4abebb 3c88fdf3 bd0c3a98 bbee152b bc9c92b9 3d0eeb7b bc75101e bda4bc3c 3d282f53 3d002ac7 3d3855d9 bc1959b3 3d163d55 bd5fbc63 bb9fe275 bc51dda4 3d789634 3b8794a1 3c100ce1 bc825bbb 3ced2b15 3d3b93b8 bc57aedb bc0a2158 3b35aa1d bd7f4957 3a54f83b 3dcb5d99 3d884b93 bc4258ca 3d1efdcd bb389cdc 3d389619 3d8852f6 bd8fe027 3c9bdd92 3ced564d 3cd095e2 3db6b426 3e15c2a6 3d14b66e bc7ee3a5 3d2125fa bd1988bb bcb2e751 bd73c0af bc6a50f7 bcdba96c 3cb4a2af 3c66f143 bc72ba25 bd22fbec 3d5406b9 bc0803d4 bc0a685c bc111824 3cb3fe92 bd0b4bb5 3d036eaa bced0b2c baf5cbba bcc94cd0 bcf167c3 bcb30a66 3c051372 3cb4f2a0 3d620c10 3d7823f5 bc898a5e bd17239b 3cdfdfdd 3d8cdef2 bd0e4e8c bc7af974 3d3da4e3 3b06112b 3ce2eb5a 3cd61a6d bcd8c91c bcfcdaca 3d513859 3c9630b8 bc9acb74 bd1fba35 bd548968 3cf9f350 3c6039b6 bd0779a9 3cec96aa bc03ef8a bc915ad6 bc8709a3 3d3e52be 3d185d81 3c9b8dae 3d5f2c7c 3c5fe23d bbb1602e 3cbbbf09 3abee350 bba0669e 3d5265a1 3d2b19b5 3d49075b 3c5f639f 3d2f5bde 3d4e3cad ba39bbb0 bc2e7222 3d8aabc9 3d274bfd 3dbc5c0f 3d9c00b4 3d6cc8a3 3c8286bc 3d525be7 3cb0f0f4 3d46160c 3d3768d3 3d672320 bcba3195 bcd0be6d 3ce5fc18 3cdce219 3d1d569c 3cb601b4 bd4ec473 3cc7e3b9 3cba6279 3d1629b6 bbdd98a7 bbe6575e bce93493 3ca4e2b0 3d7e5c55 bd089de2 bba6346d 3d14d06f 3d8c7a4e 3bdddccd 3d7d8391 bdd3550e bbb76685 3c658d16 3d67f109 bc0ef279 3d2507c5 bd04cc0c 3d53c10c 3d31dfc1 3a0797b4 bba7f744 3d1b1761 bd6cce28 3d72fb8a 3da6c9f8 3d03b70d 3c972241 bc1f6cba 3cf90300 3ccebae6 3d3affe7 3cba5fd7 bca6b490 bd4d8e17 bd387ec0 bcf370a4 3d549581 bd32375f bd313a3d bba9244e 3cdf575a bd6a84c8 bd19796d bc213a50 bca867f9 3d4af3c8 bb1a03d1 bd826fa6 bd44d4a0 3d4f310e 3d1dc7bc bd3cd517 3ca6d517 3d671559 3cb2e8f6 3bd3d679 bd02954f bc94fe5f 3d801cf7 bbab0708 bd85c12b 3cbbfa55 3aef0195 3d9add8c bc5aa6ae bb9f2197 3d47d5b0 3d3e36f1 bc81eccf 3c4af8e2 3d7644b2 3c23b6e5 3cf1b46b 3cc2db90 3dcd7f79 bc355a13 bc7d3c47 bd3098ee bc303975 3d3033a0 bd062bcd 3d8b964f 3d7d3733 3cd75412 3cd53642 bd3c890f 3ca1e50d 3ab5c18f bd74618c bd421e1b bd09d80c 3c08941f bcac3059 bd2dc92b bc89a99f bc231122 bd31957b 3d2e6ba0 3d8d2155 bc02ee88 3d040710 bcabecd8 3c89d53b 3cc30b9e 3ae918fb 3d66a19b 3d246f2a 3d9b5d0c 3daecc13 3ce13e46 3d8a5040 3db3fdf9 3d3d1e6e 3c84e238 3c285579 3d50ae6a bbabb871 3ca32207 3d53788e 3d4c6908 bbb3cb86 bc9245f9 bc8b502c bc0b8a52 bd9257ea bceedab5 bc2e12a0 3ba6e6e8 bc8da1b2 bd306f8a bda42e96 3d106680 3d9e51a5 3d31a5fe bd7793c4 bd853db7 3d8e2a9a 3d24ffd9 3dc4b646 3d9c490a bcab62de 3c46e15a bd44bed0 3d7b5a2b 3dd9d5e4 3cea81cb bd57b946 bd2bd0ff 3b4d8392 3d6d5d12 bbb746d3 bd0374f0 bd5c1c11 3d87ae6e bc1952f5 bd9462ff bce15eda bba44668 3c494a02 bd5a9255 bda23fed 3c9f3052 bdb57491 bdb8199c bdc38122 bc6535ad 3b71e076 bd92885a bcfeef24 bd24e79a 3d676168 bc8657bc 3d6ad215 3d0ea9c3 bd3ab4cf 3c99b65a bc30a5f3 3d67e135 3b4bab48 3d35c2f3 3d81bead 3c98c0f7 3c8de402 3d4b126d 3cf595bc bcc04172 bccadf91 bca1932d 3d9c3557 3bc697fe 3d1af762 3ab6853a 3c470b52 3ce0345c 3d5251b9 3cd4eb50 3d0743ff 3d31ac2e 3d676cc0 3d1467cc 3e011abb 3da62bc6 3d996a6c 3c832fc1 3a489875 3d09d45e 3c9c084a bc3d7b53 bcfde728 3d1ff9e7 bd56e6ae bba919a0 bc09b328 bcf81b9a 3863d5a1 3cacdca8 bd045743 bd7fcb57 bc94708a 3c71624e 3d2c4894 ba919fc5 bc8f59cc bd42040b bbc27f95 3ccf2352 bc51d727 3ce4d6fa bc86ae1e 3d97f183 3ca26a40 bd05090b 3c74ca14 3cb36065 3d5d7b48 3d231d9f 3b1dc03a bd94aab9 bd461367 bd9ac10d bd5cc225 3b4c9b31 3d55373a 3cb3a6ac 3cd4d209 bd59f408 3cfce0e6 bc6a9ecd 3d7f623d bcfd6dae bd731449 bd891baa bd848b8b bc9ef440 39a1b23c baac2bab bcb3fd77 bcdeea5f bdb8eca6 bd2215e5 bcc880a2 bd03afd7 3bfdc2e2 3d4fd40b 3d034774 3cd35813 3cacebb4 bb7ff484 3cb3433f 3c424d4b 3ccbb814 3cf9aecd 3d39705f 3d150661 3cc9213c 3d2162a1 3b18f5fd 3dc9ff14 3d8b3a26 bc2a8d02 bbe93c48 bbfcddfe 3dcc8389 3d671c0b bcdcf698 bd4f2417 3d14fb49 3c7102a6 3d25f746 3c80e338 bda09658 bd3bf123 bda0b2df 3b782a47 3abff01a bc904442 3d0d4491 3c9cdbbe 3cac047b 3d15ed16 3c6421a9 3d13932e 3e0f8bfc 3d4f2813 3d56d60f 3d932153 bd38917c bc3b0ab9 3d59674f 3c83b288 3b9be1d0 3cf9de99 bca7bb5c 3d98becf 3b9551d4 3cb842ba 3d768821 3d740572 3d6eab5d bda52b1c 3bb0ee8b 3bdadc3f 3dd3e4fb ba1dc9c7 bd08e0b6 3c4745e8 ba2cb50b 3c5c1fbf ba6d492d 3d65ab50 3d8fe80b 3d09d052 3d049316 3d56a951 3dd3b9d1 3cc547d4 bc5c8302 bd008585 3d17688d bca33e42 bd05973d bd880b33 bd421ae4 3ca9df07 3d36196b bc608083 bddef654 bdfe94a0 bd7a1c9d bd9bf361 bd0701e5 bde3d430 bdb4b6be bdaf765a bdbbf557 bd57ed6f bd33ea97 3cd4b12f 3d1a1777 bd283761 bc3f5d2a 3c402c63 bd066bce bca142dd 3afbcf1e 3c903ece bc6af9c7 3ca2ad17 bd1affb2 bc997d91 bd2f625c b7faf5e4 bddaec92 bd2d30f4 bdbae7fb bcae27bc bd8da8bd bd97f718 3c076f4e bd182506 3d5e7e7d bd05bfd8 bca70f92 bd13825e 3c9617d4 3d13dc10 bc2c108f bc1872bc 3b3da42c 3cfdb157 bb48bf75 bb9009eb bd4034cf bd9b6041 3d2b934d 3cb3d00c bc67cd91 bd0d7b4b bd3196d4 bd5c3ea3 3c8398b8 bd1fb8ee bbda24cb bc080129 bbfe8cd1 bd2efad1 3d62f888 3db2f695 3da7860f 3dd6a0bb 3be3fe76 bd199657 ba55011e 3d13b847 3d4c4bb2 3c4b1b5e 3b601e6f 3c8bad9b 3d837442 3da1e00a 3b81dacc bc90c01b 3d63e430 3ddaa6b7 3cc7ece0 bd04a4f3 3cc8b525 3a467e7e babe5455 3c6b4dd6 3d484f3c bcbcc589 bc089403 3d19d0c6 3d340b15 3c55328d 3d606742 3cca0112 3d2d5d2b 3db80fef 3d5b5a9a 3c6a99d5 3a77a298 bd8dabab bd3c1f11 3d4ef4d0 bcefccab bbca405b bda50270 bce79de4 bd9dcf5a 3d5d018e 3de93445 3d6b4d02 3d76dbdb bc70ed2e 3d8e2b7a 3d96f58e 3d5225d1 b9fa4cb1 bb7204f3 3ca694b5 3d7abf13 bd1bde62 3bad1213 3d142ae4 3a246d16 3d87ee08 3ca98747 bd3c0db2 3d4c93e8 bcd1029e bdafe9a0 bd92e31a bdf50744 3ce1ba29 be11dc71 be0b094c bd97a031 3cbb804a bbfcfd96 3b990a5f 3c79d928 3d0fc92d 3d0dd5f8 3b21a3f9 3ce6d3ce bc8bf220 3d1009ca bd193d8a bd993351 bccada06 3d89360c 3da08dc9 bbd7183c 3c9b47f9 3d0e6ad9 3bda8af8 3d89a165 3c251a41 3a72e8e4 3d937b4a 3d2353e3 3d824d66 3da02f3e 3c9a0e9b 3d0c8825 3d83ac45 3e134547 3cced9a3 bb9c2f97 3d311118 bc2a74bc 3d11dc96 bd292457 bc56a96d bd0bcf92 bd7d0885 bd7861a7 bd529ca9 bdaa1258 bcf992cb bdac61f5 bdb7396f bd622318 3c9ad28b bddd2ac5 bdd378a5 bd58139b bce6c7d9 3c91f9e7 bd6da7d2 3d6b7919 3e075757 3d82cc35 3d97890b ba52602f bc8b64bd 3a2a4b25 3b523374 bd8655a9 3d84dbc2 bcd1084b bd999b94 bd1aa04e 3d9d40ed bbfb07e4 bc0d1283 bd0ebd3c bd4a9fc0 3cccb59a be0d36db bd9f5894 be2b0cb5 bd277d12 3d92e8d6 3c64a0f6 bd10d3c0 3d520c34 3db7828c 3d2a6e74 3cf0a6ce 3d5ae565 bccc0c1e 3d0ee653 3c99e002 3d4ba198 3cf0a76e bc60c4c0 3d3e0b80 ba532859 bca114ad bd49fda9 3e10b7f1 3daec403 3d50531c 3d1bbaff 3cc62d54 3d85eafa 3d24ab27 bd4def0b bd49226f 3a981b21 3bb8c982 3d0a3e7e bd676463 bc0cf4b1 bcf18e97 bc84b508 3c47c2e7 bd08d88b bd37c7ae bd8d36d5 3c971413 ba4d8353 3d06a4ac bc75e85a be03be5e bd12d373 bcaae232 3c966ce0 bc1dad24 be0747db bd829280 bd12c1d9 bc838aca bc0f17ad bda6d8ae bd8008e7 3cc29eef 3d52e6c7 3c2bff20 3a7943c6 bd7f0ac9 bd903bc5 bcbf9e81 3c707823 3c8da881 bcb6b28c 3c891693 3d2f2806 bd697bd6 bc972dae b9a2ef38 ba5c8742 3d20c841 3c9dc1ff 3dbcb20b 3d3abf4b 3d9e6cce 3cd9c46c 3d234f30 3d4a4b47 bbbb0795 bd21f997 bcc982ed bc62ed98 3d39a68b ba726d67 3d4d92be 3b2f44b8 3d719140 3d198c46 bce4c5c3 3cf4646a 3d8a4849 3cfb3d40 3c9ef742 3d0624aa 3cdce065 3dae97c7 3d22a83c 3d2dfb35 3d10661e 3d40e9cd 3abdeb40 3d2735c3 3d8339e5 bd3fbffa bce934e8 bc0e9926 bc73123d bd871a09 bc230a52 bcdd988c bd2bdf6b 3d3396ea 3c0cb3b9 bc979173 bd844c39 3d185468 3d33cc21 3d8316fd bd93ab25 bd608172 bcb387ae 3bba2d28 3ce30f45 3c87e301 3d75177f bc4ac19c 3d12131c bc5e61b5 bd15181d 3c885f5c 3d0eaa01 3d6622fb bc00c304 3daa2287 bc59c412 3da8309b bd7cd6ac bd58a081 bb1ecbf7 3d899485 3cf218c4 3cef92da 3c99ccc1 3d7d82a1 bbdcb4a8 bc2a2bda bcf75316 bd699b7d 3bda465e bd02069a bd2c47dd bbf7639b 3cc79d6d bc993844 bc15726c 3d664846 3cb42360 3cb9296f bd3280d2 bcea1758 bd9c3013 3d9f0267 bc30dc2f 3d56f48a 3c98dd8e bbbaa96a bd171195 3da26662 bc2dd372 bc362538 3cadb385 bd556051 bc29a36c 3ba93c47 bceb368d bd27734e bd3f2448 3d9233f6 3d12f3a9 3c9afdec 3cf02748 3d566fc7 3cd4ed59 3cf38c24 bca1f4bd 3d704bb8 3b497287 3d0a20be b9feaaa9 bbb8a392 3d193b88 3c9247b9 3ca3d2f7 3cc584c3 3d994694 3c5b4fdf 3ca24358 3c91f7f8 3cae2040 3d43d938 3c297da4 3c8aa52d 3d17a636 bd1872ea 3ce3da7a 396306db 3d320c53 3d591df1 bc6d073c 3d7fb22a 3d81e011 bd10d06e bc170460 bc56d8db 3c5027db 3c909420 bd2a5d2d bbbcbe48 bcc1a252 3d71c256 3d046007 bd44a489 3d8b8e28 3d8125b5 3cedd71a bd2df766 3d9b83ec 3c54aa02 3d1dd5c3 3d69318c bd6a5dec 3cf77a9d bcc24f90 bccb4df7 3d7b323b 3cb7e612 3d13a4fc 3d6ca625 bb30e6ce 3cd3029c 3d83b74f bd3c0e9a 3d0a7b58 3cc91549 3cbe10ba 3d662b45 3ccdfca3 3d2625da 3ce8cb80 3cc5a146 bc9ad745 bcf77be7 bd1fe6d1 3bb86c19 bd8fa513 bd82aaab 3ca73ee1 bca63eac 3d29f701 bc430585 3ca2e100 bcc51dc4 bdc523d1 bd0118c5 3d76d66e bab520f1 bcaefb59 bd0dd3fe bca67248 bcec7f7c 3d0d49d0 3cc886ba bd064b47 bc7f7ede bd976e08 3bf2a158 bc055353 bd3f886c bb62f59e bd158b32 bd31d4b1 3b7df80d bd86002b bcdd745a 3c98a026 3cd3bac7 bcb74e7d 3d947e44 3d69755e bcce447e 3d395718 3d124dbc 3cb54b40 bc63dac4 bd2cc56e 3d2ebe29 bd44a26b 3ceb4999 bbd07667 3b374c12 bc970989 bd86730d 3b4f293e 3c25fad8 3c71df81 bc949024 bd1908a1 bccb0a64 3d8ae182 bbbd6f12 3d903b3f bd9d734a bc671764 bc97ba2d bbe23a90 3d89881b bd29f577 3d1bc99f bd497a34 3d341294 bccfb3ca 3ce39f1d bcbb142c bd04710d bc7a1e6b bd996f83 3d9a748e 3d775dfb 3d413f4e 3aa55563 bcd75424 bc7676e3 3bda4a81 3d8f14c9 3d37ecee bc1e861c 3cc23fca 3cacff65 3db8d19f 3d2ceeba bd011644 bd610bbc 3d019a96 3daeabe4 bc24e966 bcf03ef7 bb94483f 3ce397da bcf736af 3cdf08c6 3d9691c5 3d3a39f3 3d527b50 bd543389 3d62872b 3d0d8508 3ce99e60 3c624fe1 3d772535 3d26233f bd1b664a bcd306d9 bbab0531 3bc03ef4 3d13d0e4 3a849453 bccb54c1 bcdf0ba4 3dcea544 bcfac099 bd03bf0c 3d8a73de 3d1902f7 3b881678 bd337956 bce086c2 bb2d5389 3d18d1ff 3c130054 bd1c46f5 3cfdcfea 3c8d316d bc49f940 bcc53313 3c687eb5 3cda1f67 3c04f680 bc9bf8f6 3d8840f4 3b9d6015 bbaf098b bc6e1133 bca59d1b 3d211915 bcaf0093 bd198bde 3d816675 3dd55006 3d5b8e24 3c8c2379 bdbb8177 bd1db14a 3d36df30 bb54ba5d bcd68d33 bd4c1694 3d11230e bd40d728 bce79ba9 bd8e3dc7 3c7c0ed2 bd359575 3c3ef3dc 3d4ae337 bdb1d7ed bc801576 bcafd72a 3dae3e95 3d15f8c5 bb73cb96 3d558d82 3da3b3ae 3c875230 bca3674c 3cf18c42 bcce2780 3db524b1 3d4c085d bad9f7a4 bc8dd570 3d237f6d bd804bec bd99d24a 3c45dbe5 3a51b7c0 3c9081df bd29e636 bdafa21a 3daceca9 3db81453 3d91ce87 3d1f35d9 bdbb76aa bc3db359 bb204dce 3d627de2 bb0f32b7 3d70930f 3d2ac6e5 3d7669e6 3cc416fb 3d28d1ff 3c30879e 3d8774c6 3cccf985 bbc82d16 3c8a7ce6 3cd784c8 3c3d3383 3d0692f9 bda55741 3d3d13df 3c0abdc0 bbd9a1ce bce754b1 bd46e7cf 3d3d5e0b bc69c5ce 3d064218 3c1039ec bd0201b8 3cfa0d9a 3b8ef347 3c87ab87 3d06da7c 3d52338d bc4891db bcd663de 3cc59fc5 3d54c816 bc0f91dc 3ce448f0 3cf556f9 bd410210 bc9c3163 3d2dd8cd 3cd22b6f bbcd7f32 3d2f9c09 3cd06243 bd8c4b10 3cf72763 3ca8fcdf 3cdd8503 bcff7572 bcf4523e bc8143a1 bcf7838a 3c94530a 3c5ba909 bd9023bc bd1fd3d6 bc9c9aa9 bd20f098 bd2f73a1 bd842629 3dd4c78e 3daf1a5a bb6adba7 bbada21f bc6243c1 3d96f6c8 3d812ffb ba48c5d6 bd5bed7d bd2754f4 bd3e5f5c 3c554832 bd8aeca4 bcd59d47 3c3ce6d8 bcd77ba3 3d8499ea bc4f63f7 3da1938e 3c857b95 bcaf8864 3d78a271 bd2c0a17 bce33c35 bd64bca3 bd1475fe bcb97d2e bd58871c 3d9557e9 3d382e35 bcb2cab8 3c0f0f56 3c9fec2f 3d8f845b 3d7140c0 3cadc1c5 3d215135 3d9824bd bc747180 3bbb9cd3 bd240220 bd075ba0 3b26a507 39a33a20 bd0e3b7c 3c207384 3d1ee1c7 3c9fbb0c 3c13db9e 3d127c3a bd2098e8 3ca40f99 3d329894 3d45b1ad 3d1cce01 3d0153c1 3c2d7113 3da77d45 bcdb6655 bd45beb6 3d636eaf 3d8d338b bbaf81f3 bd6af066 bd878b3f 3d3653bf 3ca6adc8 bd0ebd09 bcd38681 3cf4f67b bb78bf8d 3d09961d 3c5d2aae 3c4e85ca bcaa415c bd1a6aa4 bc4f764e 3d34fc77 3caa1d8b 3d5a03c4 bdb3263e bd9d27d7 3ae18b94 3d0f1b34 3d9d1978 3bdaef5b 3c1ec8ba 3d16455d bd6ba426 bd7308c9 3d705584 3d584084 bce090d6 bc881566 bd888d35 b9bdd8e3 3d51523a 3c942338 bab7135e 3b64e59e bd72ff99 3c8b254f bd4490b7 bc9d1c8a bcc136d5 bd56d2d1 3cc89ec5 bd3043f5 bd44a1fa 3c78a86a bd11d06c 3c6fbe65 bc0cf470 3c3b52b1 3d279267 3bb87b3b bcca121d 3c279271 3d2a63d7 3b5b9d08 bd04030e 3b7fd680 3bb208f1 3d2d7213 bccebe24 3c101a35 3ca4c1aa bcf209eb 3b68afd9 bd9b8e9b 3cfd33fd 3d400bea bbf3bd67 bd200b7a 3ce3228c 3cc7b0ff 3d9ef85b bbd091af 3d017606 3d835937 bc4b1cd5 3d3de390 3d70cbab 3d29d14a 3c132b8d bc70e360 bd0edc85 3d43f54a 3be59414 3d23c87f bc44b088 bd2fd288 bce7096a 3d39da02 3d59fbd4 bd551163 3b5a126e 3c75ca07 3d9b14a1 3da195eb bd126c25 bc205b9f 3e223125 3de177e2 bc46633d 3c644e86 bd65c680 bcb3684d 3d46d6a5 3d41bce9 3ca28502 bd6f41b0 bd286dcd bd26cd7a 3d165030 3c5d9923 3c999b8e bc335fde bcf6b13d bc3de100 3ab437ee 3d78ffa4 3d754911 bd09d5da 3c376620 bd0035fa bc3997bc 3b3b5b25 3d15ca16 ba7b09dd 3d1adf33 3d56d854 3d9b928c 3ca81683 bb33b93f 3c11886e 3c87fe3a 3cd54d86 bd47b99e 3cf2fb9a 3cad142a bcda1206 3c3e7fbf 3d002542 3d875b88 3b7a37e4 3c0e218c 3ca2c2aa 3d10a229 3d04433c 3c93cee7 bd973bf6 3b8862b6 bd15cd05 bc733ef8 bc47a99d bd0f3069 bd460185 bc2a38f1 3c6a5f7e 3c11c796 3d25125a 3d6d6ac9 3b915ec1 bb81303a bd02aab8 bc3bb3bd 3bc416ce 3cdcfc4b 3cec60c9 3d432002 3d6980a2 3d78c223 3d57453b bd413bf6 bc3f07cf bc14f378 3b291e43 bc9e5181 3c3fcb40 bd883556 bd030ecf bcc166e3 b94a42be 3d719985 3b65774f bd1de355 bc39e4ea 3c3b092a bd1cba3a bddc66f9 bd847235 3d95721a 3a8c1b67 3ba7439a b9b70a58 bcea0977 3c8f1a60 3b2f9f71 3d2cab86 3d04c63d 3c6f84d5 3d36a908 bce9e5c2 bcf6d262 3c907e78 3d15d556 3d7ebd8e 3cd54ed3 3ced9c7f bc2fd206 3c7ae89b 3d363e85 3d041c8f bcb0bd73 bc1acb92 ba8fe62c 3ce79d85 3d2ce836 3d457e5a 3b5dd475 3ba7ae43 3d8a37be 3da483e1 3d8768d8 3c7d53f8 bd22b142 3bd1b59d bcc9317f 3ced357f 3cd4c355 3ce3c5a3 39520058 3cda9b85 3d7a7ccc bd12b38b 3d941553 3dbf7234 3d50f8c4 bbf6e7af 3d4ed1f2 bc96cb69 3c588524 bddcd019 3bc4c1f7 3c494455 3d11d626 3d32c91a bd8069de bd2c89ec bcc4df38 bcafb57a 3bd2b762 3d342ee4 3cc62496 bc9e796f baa81731 bd3573a9 3d84381f 3cb899fd 3d175f06 3d2e6872 3cc92209 3cc9ca2d bd062fe1 bc93a404 bd570135 bd103b7c 3c4664ab bcd6b14d 3d050a82 bd054e40 3c8d49ef bd0660db 3d54ea2a 3d319b5b 3d3597e7 3d3ccac8 3d368e91 3d95ee93 3d2a2e79 3b134c52 3d5d950c 3ca71d6c bc618e93 bc205fe1 b939b489 3b8cd528 386bd234 3acd131a 3db87018 3d10831a 3d214cc6 bc1b9d01 bdc22364 3d8710c7 bce6c554 3c195fec bdb15094 be086b14 bcbbe549 3d61fe7f 3d68eef6 3bf46bd4 3d09bcaa bb947001 3c379f8d bca94b94 3c898dec bd06fe87 3b5c2c5f 3d82861d b9ca1af6 3d0c40ec bd2b16e5 3d0ae72b 3d8d075a 3cfc6943 3d9c84ad bd2b6c9c 3be2ef0d 3bc1e508 3d36e9a1 3c8e847c bce8affe bc835beb bcc369eb bd23c9e9 3b8843e9 3d318fba 3d803892 bd168fec bd83f8e9 3cef6e52 bc98c2a0 3d9f9842 3c62799c bd66deba bd98bd8d bddee75b bc9343f2 bd9146b0 3d058c54 3d65d05f 3cfaac55 bdb8a276 3bd2fcd2 3c8a9286 3d91d434 3cc8d227 bd805c40 bd5edb92 3cf7943c 3c822a8b 3ccbcbe8 3d17b657 bd17435c 3d21eda0 3caa9fcf 3c27750c 3ad103b2 3cba189e 3d005422 3c3678cf bcdf3b68 bc74b6be bca531c6 bd64be29 3ca31e72 bdc8f97c 3cf4e774 3d408cda 3d0f5b02 3cad5e86 bd96c37b 3dc8f28f 3ddf762b 3d57fea0 3c8ed42a 3d4e35cc 3db0779b 3c98eb25 3bbf92c7 3d2b95cf 3c8b2d4e bca54b12 3d8d4113 3d4cf056 3d3579c2 3cc5d13d bcd3c7fe 3d36ca97 3d10a572 bc6d23c2 bd140aa5 3d3a5b7c bcaadb9e 3d5fae10 3cdd06d8 ba2eedb6 3da95446 3d7ea594 3b6d1500 bd4626d5 3cf431ef 3d2a004c bbaf784a 3d0a1ea9 3d0a1053 3d450c63 3d712e6a 3d58894b 3d018e3f 3ccb6b0a 3c581c55 bd289d16 3cae0fdb 3d3f1569 3c7377e5 bdaaf794 bd685a05 bdf9ba15 bd29c7e7 bcbd3f00 bdaca3ff bdb139c7 bd21d9af 3b352938 bd007935 3cfa47db bde93be1 bd829b09 bc38c14e 3c1c9be8 3cd7ff3a 3c3ae93c 37f8425f 3c662314 bd117a4c 398c141e 3d7c5c97 bbc6d3b0 bd23995e 3c6cf503 bbd4ed6d 3c2bf19f 3cae6709 bbd4a3fa bca5fea0 bdae0a26 3c5f0f16 bd1e190c bd9308a4 bd5e7d2d 3999e950 3d3f9960 3ca17c26 3c87b3e8 bcdccc8e 3d1899ca bb73d173 bc4ccdcb bd4a19f5 bd59be69 3c119879 bd36005b bd5a2c1e 3b4f3214 3d9ce943 bc9f78e5 bcbcf697 bd45890c bd29174b 3d665d60 b9dca4e2 bd946ea6 bd465492 3c647d8f bd38d3f1 bccfee77 3d53ed2a bca1ebd4 3bb99143 bb2f80ad bcd62519 3d9ae293 bbfb1710 3d14332f 3d6f82f5 bd1d279e 3d2a2d3f bd454023 3d73ac2e 3d10f50b 3c3f4d03 bc9582a5 3dac44e9 3d80e958 bca2e9a0 bc8bf0b3 3bfeb099 3c553818 3d14d0e5 3d1cf519 bc464515 3d5bd4f4 3d26e963 bc483626 3ade5dd9 bcf4ce9a 3d1f430a 3d603bec bbcf5128 3d11abaa 3abe0a39 bd380293 3c3b2d65 bba98981 3c4e224f 3d4575e6 3a46b3a3 bd07d075 bcd01575 bc325fc8 bd454681 3d5dfd37 3d47b38d 3c39121b 3aa585bb 3c6c556d 3dd01b6c bc840e80 3b4596f5 bcc7c2b6 3cfc5c27 3d9fa0dc 3b76b907 3d13fccf 3cbd9bbb bd7adcd6 3d9471f8 3dad9e2e 3d20b6f7 bcd66aca bd850a18 3de881b0 3d9a9af2 bc183030 bc1bc890 bd3d2b93 3cb58625 bd7d39e6 bd981429 bd7d7e9c 3caf301a bad5d125 3cb50a10 39e62622 3d087d9b 3d7d2577 bc74ebd3 3d0cefd7 3d558007 3d69a9ae 3c0d3513 3c8a4eaa 3d0b4737 bd3ae470 3ba5f36d bcbdedfc 3d67faae 3bafbdb1 bce5858a 3cb516eb 3d5fea5b 3c80be70 3de81c5a bc8ddbb9 3ce0d426 3cb2c4b3 3db20ada bbd398c6 3dca07c2 3da833be ba1b3422 3d4ea047 3d684b33 b8ba6dd2 3aaf952b 3d4da380 3ddbffcc 3b5be176 bd31c9be 3c4e38cf bcb191c0 3c959a8f bd47ff3e bdbe2c7d bcb42d25 bc71a2f1 bd62a920 bd961a4b bd486e7b 3da258c4 3b21a131 bd8fc3d2 3c23293e 3cfb6f48 bd0292a2 3bce4e5a bc934d5f 3d449f93 bba14706 3d31261e 3d5e0d35 3c3e5de7 3cbe15f9 bca0a9ad bc408e72 bd7e42ca 3cec9125 bc1f4b69 bd8a1f23 bd169068 bd5c8cfd bc749a88 bd88cce5 bdad63e9 bccf73f6 3becffc6 3c8a3180 bd54b16b bd64196c bb95f669 bc462707 3cfcda39 3c99ad0a 3cfe7def 3d31965d 3d6e4686 3d5b4247 3d8302a3 bc198077 3d82da5a 3d7d0f48 bc23780e bd75b6b7 bcb931bc 3d74fc3a bbc23b51 bdab8c8d bdaaaa80 3dc2c45d 3dbc40a7 bc3ff172 3b676145 bbca1352 3d63657b bd2f8437 bd393be6 bcf0dede 3d220b23 3c37d80e 3c85d494 3c357090 bd426f9d 3c646b40 3d0a9613 3d8ad440 bc6c01ca bbe286a8 bbc90501 bda20079 bd264146 bd4aba64 3bc4db10 bc848612 bd21b048 bd4411c9 bdf0bd29 bd0cdfdc bda31c71 bd8c31a9 bd9f7d00 bd7264ea bd020a1c 3cef6717 bc7158b8 3b8ffa2c bce11d81 bccab3d1 3c89a527 3d17302a 3d470be8 3d8eb89c be111ed6 bc9b13ab 3d7a5722 3d870f7a 3c3d91ec bdace7e5 bd20cec4 3d1221fc 3c6c4191 3d0a14c5 bd5f9785 bbd3f6eb 3cb04594 bc65fedc bc4e77f9 3cd262c8 3cdf0059 bcc5dba6 3a845c96 bc42ae9e bd8e5c29 bd63aae4 bcc6070a 3cda351d bc05b98c bca6d3aa 3d3db3c5 bc783ceb 39195ffe 3ccfbf4e bd71626e 3d8e70b7 3c528e14 3caf7904 3d9d95aa bc88e9ab 3c22ebb5 3d813594 3c3dece0 3ca4ac4f bc8b1735 bc071fec 3cb66c80 3d32f33d 3ca666c3 3e0cce89 bc88889a 3d9849ae bb3c4469 3c0c502e 3dd8c0b7 bcc8521f 3d0660bc 3c6297e9 3d362d0f bbe5aeef 3cfc4d3c 3da8bdb7 bd732cdb 39b6a994 bba4ecdc 3d38bf28 bd193441 3d2fa638 bc92d583 3d26cf4b b7bf3411 bc9072b8 bc1da733 bda9ad1a 3b137f5d 3ca052e7 bcb72232 3d8fcbbe 3c3e8071 bc3c99e9 3ccfcae5 bd1f587d 3c9075db bcb3ce58 bc88afa6 3d2d2d17 3d067d95 3b1cf06e 3cd04e0d 3da56fa2 3d6b4c21 3d33e920 bc1cbc03 bd6e63ff 3dbb2dac 3de0337d 3d3cb039 3d4ab4d6 ba7a04eb bc44f057 bd6be5d4 bc409d94 bbab801d 3da7d696 3c867ad4 3d8f156e 3d8e0f41 bdbdbc8b bd7e9336 3c63295e 3d8bc283 bb7e9ba8 bd855f81 3c243088 bd651a48 bd8f3e59 3d1f385e bd02526c bc5e47de 3d408026 3c83f6e7 3d83d513 bcb4669b 3d615061 bb8dc626 bd7f727f bd78f572 bdad7b39 3d8f265e bd944a7b be09caee 3c93452d 3c895580 3d6e6809 3cd48f6f 3bcb1c12 3d2ddb25 3d390ea2 3d8bb59e bbfcd20d 3c49c2b7 3b15c336 bd26d970 3bd47f69 3c8db090 3ccfb7c5 bd185afa bd9a0704 3bb8f869 bb1a14b4 3b48950d bd461f54 bd3a0df9 bc2929ba 3d0546cb 3bcf745a bd5900e2 3c283bd3 bb4925d0 bd02b946 bdba18ce bcc535f6 bcd225f6 bc876f98 bceebc13 3c8b3f7b 3c3990bc 3c3b540f 39af2a1e 3d870296 3cfe8d82 3d15366b 3dc81b3f bd79c1c3 3c053722 bc1e9499 3cb2ac8a 3b1e42bf bd3063f9 3d14c354 3c8cfb13 bd2c8622 3d584249 3c9fe14b bd0a24d1 bc49f609 3db0037c 3d5c7398 3c6788b1 3cfcb6da 3d0397bc 3d93fa8b bd2a8bdc bc7d2469 3d5322ec 3d08bb27 3d285b7f bd3d7af2 be0adf3e 3d804c8c 3dc042a5 3bdbc9ff bcfae329 3cc29489 bd1f276e bc84be92 3d13ec91 3d93aa5b 3ce8d609 3d4fccbc 3c706d85 3e009fb5 3d617dc0 3d830063 3d89fae5 3e0d2b96 3dd2dc48 3d68e6a4 3c89ad8f 3d926e56 3d85e8f6 3d822d51 bc32fd39 3d60f5b5 bdcdd3ed 3cdcee35 3d4ebb1a 3d83ca75 bcfd1cbe 3cac0469 3d5d78e7 3d64f9cb 3cdf3b85 3d6b82ba bb579a62 3cc63430 3c36dda2 3c34a748 3cd64cfd 3c83f577 3d315a23 bcdf391b bd2431b3 bd602818 3ba4689c 3d8a087b bced9d8a bd1531e9 be01e488 3bf81889 3ce65693 bc09f556 bcc8728a 3d47f2f3 bc524692 bce9e665 3d3b2932 bbd62001 3d82b5f7 3d408c4d bc8dba59 3c90f5ce bc608a20 3d5120ae 3cc306f9 3b391b8f 3d7e368c bd0e814e 3d54053d 3db11eb0 3c5e5427 3d7d7b91 bc85af69 bb98bef3 3cde94a3 bbf92f82 3dbb3b88 3da76d80 3dd7945f 3d7eec49 3db95715 3dd3266e 3b98c68a 3d9bb294 3adc0c98 3d1e48d3 3d2ada69 bc98ee90 3c92754c 3c11e035 3d2da142 3d3b17c8 3cc8b75c bba1ba32 3d5c4e80 bc2de289 3cb67eaf 3d3ff121 3d72ac65 3d84c2c0 bd442476 bd39d7fe bac2a3c2 3d8eacf7 bdb5823a bd0ecef4 39db76bc 3cc6932d bd752013 bc088835 bd95f8a2 bd021d87 3bdb9c71 bd6bcc30 3d7fd13a 3b8c8e7f bc3a7c06 3d23fa22 bd0b8f1e 3cef7156 3d3e027e 3d610165 bc437724 bd0a1d0c bc4cbf36 bd8fb91b 3c838141 bcccbfdc 3bc21335 bcfca086 bce58cca bc8baa47 3b2561f0 3cea3014 bd07718e bd7a53eb 3c0e50be 3c2f15c6 bca368ac 3d15ce04 3d00af90 3aa2d61a 3c599223 3afeb362 3c8d7644 bc8b26c0 3d9677e1 3d445015 bd8f4596 3c1378ea 3defc7fb 3d518418 bc47fa09 3cff8e6c 3cd7455a 3d5f771e 3d9c879c bd2122f4 3d859480 bda6bdd0 bd0f33a1 3d8fdb14 3cf99259 3d7df9eb bb04cea0 3d4fae32 3d26d0ad 3db78c6d 3c4fcae6 bbb5816f 3d5767ce 3dd312e8 3d7c53be bd787f7a bd11a82a bd661154 bce54046 bbc24b54 3cd61f74 bcab4175 bc89c896 bc5bb202 3d7377c7 3d7a3c47 bd5d2505 bd2c6223 3bfc70c9 3c3ce773 3cf6b7ae 3b8f4d5a 3bddb39b bca840ac bc4dbae7 3cbf2658 3dabcd22 3d249d04 3d14d86f bd1c72b8 bb806be6 3cd7739b 3d5ebeba bc6c67e3 3beee497 bd77c0ee 3b2741e1 3c91f4c9 bd0ac1e9 bdba77f8 3bcf0c6a bd08546a bbc4f4ea baadad85 bd2b0e82 3dbae031 3d2b87fb bba96dd7 bafa54fe bcb9c0b2 3d486333 bd5c5a56 bd55bddf 3c926370 bc02c75b bc2d004c 3c23a016 bd447c5f bb624248 3d51e33b 3de2ed37 bbaa5e51 3ca03d21 3ca1e055 3cb31c0d 3d09ca38 3d1f256f 3b2c9a56 3dad6e92 bb13a68a bd0dcd61 3d218139 bd60c3ba baea0db9 3d7f3a7c bcfe5f1d bd34556e bdda2482 bda66cda bdb796bf 3bac17da bdaff4e9 bd8429a5 3d88116f 3d476210 3d9ac87e 3c78a213 bce6bd3d 3c3e5303 3c9467cc 3da93c19 bcb4ace7 3cf87379 3d9d9c34 3dbb5fe7 3d61fdc2 3cc56ea8 bc1f42a2 3d81c021 bcba04ec ba758536 bbef70b9 bd277000 3dbdc0dd bb827fc6 3cd3a106 3d1f566a 3a184ade bd13d4d5 bd05c30d bde0fbf4 bc4c0052 3d8a90de bd99333a bd03aac0 bcc6d153 bd3c9e9e 3d186ee7 bc1e3bea 3c3acf75 bb93e973 3dee60cc 3d06f407 3d80a10f 3d7ddcd3 ba7d5905 3cc7bcfe bbc09a0f 3d97b075 3c8bec94 3c2cdf4e bca32062 3ca65258 bb0da319 3caac41f 3d8a3aff 3caf6003 3c91d035 3c80889b 3c6e1c04 bccf6dc3 3d2fd1f7 bd189d4f ba41eb45 3d3e4ede 3cb5b68b bcd34a37 bd726ae1 bcd96260 bd36e9f0 bbd0eae3 3ddf3e70 3d0d20b9 3c9b474a bd1be41f 3d0cc28a 3d4db6be bca6286d bbfadfc4 3cf1c803 bdd0f9e2 3c1f5839 3c9cee49 3ccc005e bb1d440f bbe00bac bd806896 bd3176c7 3d5b2659 3d695060 bd2e2837 bd3e6696 bc073cc3 3d6bdd81 bd135f0c bc94090c 3cb4ed27 bcfa22c8 3c35d44c 3d142b30 3c80873c bad97789 3dbe7a2c 3d2cb585 bb9619a9 bb80011a 3d66e213 3d93f87f bd2cd9ce bd2bfa91 bd29f2ab 3bc22565 bd483e37 bd63d7d4 bd89916c bd543a43 3da77225 3d2e7715 3cdb6c06 bd0eb301 bd3f5a82 3d724cfc bd37c8ed bc8cd8e2 bcfba267 3ccf436c 3ca6cb8a 3cdd819c 3d646de2 3ba98569 3da13fe2 3cfff9f8 bda27797 bc5f075e 3d277560 bd5e5b21 3d1d1fb8 bd2918da bd355d61 bd2d61c7 3c84f3a3 3c60f3d8 bce016e8 bc0acc9f bd3b528b bb9d1585 3c10dd54 bd67751b 3b9baa55 3bb38d83 3d59c38f 3c0113ea 3b99ec31 3d20f831 3cc89ca3 3d2fa940 3b991e50 3be1f74c bd009c0b bdaf920c bca20295 bb9f3ed9 3d9a5890 bd426ab8 bdaf08c9 3b913b72 3dd9016f 3e2180b6 3d9bd193 bd2cf67b 3c8e56b5 3dadf4b7 3dc5448c 3dae0b63 3c9a7ba3 3d7ee053 bd9abbeb bd3a789f 3c7edbf7 3dd02324 3bb9de72 bc1ab4c8 bd1f67d4 bc9eb528 3d4517e8 ba46d4af 3d5d82b9 bb887635 bd0c613a bd9613fa bd657445 3cf93d71 bd81362d bc7fe73f bc10613d 3a870b32 bca65438 3c6b9be5 3c5cc09a 3d3eb881 3d11bffe b884c823 3d0287bf bce7047e bcc5ce82 bda57905 3d27bbb8 3d57d3fb 3c5b3a0e 3d65381a 3cc9540a 3d650372 3d5b997b 3d4604b9 3c4bfd4e 3ca7daee 3d5aad58 3d3457a7 3c0e7472 3d17503b bca133a6 3c93456c 3d2edede 3d4a9a4e bc40147a 3ca0d850 3d8b50e8 bc9b5f2f 3d0ed9f3 bd5b8321 bd74a62c bbd5339c bc9e14f0 bd4d7b69 3cd3a32c 3da731ef 3d486833 3d020c2a bd9097a6 3d37809a 3b7e71e6 3c0d3a48 bd0ebdf1 3d6c1a59 3d4525eb bcf20815 3dc37362 3c807ee4 3c6f5e60 bceda7f3 3d2cc41d 3dc9132a bd035103 bcc58cbb bd30958e 3d3f60b2 3da3e641 bd3245c5 bcea68a8 3d0cbe31 3d6ce7aa 3d819a70 3c73318c bb8012be 3ccf5f05 bd05f3ad bb255c32 bbdb6632 bd461d08 3c7a1d7e 3cc4fbeb 3d1f85ae bc819591 bd87ee01 3d86ecb8 3d182aa0 3cfc269c bd5046cc bd8dd2e6 3ccbafc0 bca19699 bc339c7f bc009a10 bca55d68 bcfa0d1d 3d2bd04e 3d5aa11b bc1d8fa6 bcad150b bc1e3a33 3d963af5 3d18facf 3d3df4ff bc69700d bcd676a4 3b35d388 3ca778fd bd74c41c 3b4628c5 bc61596a bb965794 3d3cd67e 3da1d7cf bd797911 bc773e89 3c15de70 bd054c13 bd58ae0f 3ca4dcae 3d462724 3db033cf 3bf5151e ba363475 3c82b11e 3d82bfc2 3cfcbd4d bc599003 3cdab812 3d38e946 3d87ac04 bc2f1f7f bd13078c 3cf3dd0c bc68f5f4 3d7dfa3c 3d2950d4 3d26e810 3d55619d 3da08981 3c80dcc9 bb3174c1 bd4de67e 3d80894e bcaecf23 bd4de1b8 bc89bc79 bd42378b bc0407db bd93661a bcdfad88 bd6d7d7f bca1632b 3c6a215a bd09681f bd8fea69 bd4c6ba9 3def4da8 3d591ec2 3d1b4a5b bb492d7c bd88c1c7 bdde243c bcd54c5c bd067d02 3d9a7bc0 3dc025da bd300af4 3cd24d7d 3ceb66e5 3d32b8db 3d2d69a0 bd428419 bcfe843d bc554eae 3d887afe bc082bc1 3c844c42 3c756f92 bca9bba3 bc658c4d 3cb5b228 bcfac0e4 bce4d610 bd6848f9 399826d1 3d29defd bd742d16 bc0b10bf 3d721be4 bcbab1d0 3dce84d1 bc9e4d2e 3d44e8cd 3d490437 bcb23d3a 3c428b4f bcab9a29 3d586007 3c96d098 bd21d8c0 3d76c01a bca87cc0 3d67e09f 3d1ed5c6 bd4014a6 3d688abc bd321b0d bd5e9d73 3d0231c4 3daab25b 3de83280 bdbb383b bce82b7c bd9237c7 bca93679 bcf9ac51 bdec3904 3c864cf4 3caef78e 3d28199f 3c181b1d bac99d95 3cdc90db bc9dd3ca 3d124ba4 3cb8cd1e bd37665f bd3a72d6 bd891f34 3cea29d4 3ce03258 bd511c24 bb08d971 3b8c023b 3c88f66c 3cc3dbb4 3d5a1cef 3db8b228 3d361dfa 3cb9b08a bc855078 3d7f3ffa 3c7c673f 3b9990bd 3cade5f7 bd49f437 3d868f77 3d3c3808 3d6932ed bca634db 3d0be377 3d253069 3d4538e6 bceae5af bd03926f 3c79123b 3d715fe5 3cf8b08f 3c905ee4 bc808f6d 3cb33d2c bb1e9637 bc1d27da bd4b178c bc9b30a3 bb5be8fa bcbd488c bcbb8805 bcb18604 3cf8ecda 3d5923e9 3af43e85 bc4d4718 bd28e70a 3d1d2976 bb985e85 3b80664e 3c7d00e7 3cef9885 395b5346 3ca49859 bc674b6d 3dc034d0 3d86f648 3c762039 3da74fad 3d83491d 3cfc3a43 3d28a538 3c7e4021 bd8ef46c 3c88e0b8 3d208a8c bc761acf bc24bf5e bd87ef7c bc64e4fa 3d64bec4 3d5b6ffc 3d6ee354 3d26c9d4 bc5771c2 3c446ba0 3d419a63 3dbbe675 bcfa135a bd01d62d bda35a13 bca2a8ba 3d10c3d9 bd33f1d1 3d41ecbd 3d215854 bcc7f409 bba28d5d bc98cdd9 bd135127 bcd3f76e 3d884c63 bc6ef84c bd6634ec 3c1933fc 3d13b67b bc5ef87f bd9086a7 3c526bb7 3c0bd14f bd1e90d6 ba8e3d10 bbeef722 bd50423c 3d96cbf8 3d339fc9 bd470b65 bc42b7e2 3d832942 3c139371 bcc164a8 3cf9dbf6 3cedc005 3c04acfb 3ac53ae6 bdca3b03 bcaa5f86 3d3a57ea bd9dae06 bd19f1a1 bc1efabe bd6a2062 bc2d0c71 bd6ff6ed bd7d6f9e bd7fba06 bcfc12dd bd1af05f bc9565ef bca5aa8e 3cf5edb0 3d16adec 3d9e029d 3bffd7bb 3d7732bf 3c2b1447 bb95d40b 3d2f0091 3d12e6fa 3d917ec2 3ded7952 bb235ab7 3c8d378f 3c4b09ea 3c9af94d 3d9f0bdf bce37a0e bd0d1705 3cbbe9fa 3d96f6aa 3d4916f9 bb40014b bcf34841 3c8781e8 3d90682b bd02c83f bd937c86 bc8f1726 bb551d37 bd5f6d70 3d49568b bc086be6 3d617366 bc950eed bbc12804 bdb5e341 bc92d25e 3d0fccbd 3cbad7c0 bc53da17 bcbe6683 bb770862 3ab8597e 3bf2cbcd bd49e72f 3a87e7da bcb85ea7 bd9e42db 3ca75e66 3c85d839 3ceb3ae1 3bbd1998 3d6c7ecb 3d1698c1 3dc83830 3d71cb92 3d20389d bda60782 bdba8ef6 3d89f7c2 3d33f25b ba94dbc3 bd832f43 3cc7b054 3d9e3e60 3d376970 3c8b111e bb8b746e bd3ba44f 3d8c4a19 3df030f8 bae3cb3c bd18aa1a 3bd747eb 3cbd9f81 3c083d0f 3cd78f67 bc771496 bca661cb bce667f4 bc6496dd bd7627e0 bcb50de9 bd552e23 bc2c371e 3d20fc5e baec6f66 3cc25cf0 3dd68d5a 3d99a53c 3d198af6 bc3deaaa 3cec6244 3d9e0cc5 bc7a363d 3d04aefb bd5104fe bc286f6d bce7e928 3bc47170 3d32e945 3d4cf37f bb210b51 bbf93864 3d52c984 bc8217ee 3d39f0de 3b5754dd 3cf1ee44 3d96c687 3d34f540 3d1f242b 3dbf67d5 3c0eace2 bcaa3ace 3d88d454 3d8cc059 3de1aa96 3d1e28bc bcb9cb3d 3d1e8743 3cd1db9a 3d33e535 bb6fdcdd bbc20ed0 bd96efd9 bd558085 bc71e7c4 bcdcd38d 3dceb8c4 3dc5f003 3d483dbf bd468fc6 bd04d71a 3d6f21f3 bc0010f4 3d33630a bc3606bb bd1cf42a 3cdd6b22 3bfbf9f6 3d5f5511 3a7ef3a5 bcd75c4d 3da4f83e 3d429204 3d8c65df 3b90a627 bd2851c5 bcc9ac71 bd7293c7 3a9a05ba 3cc59bcf 3cd7267b 3cabcce5 bd9befcd bd1d236a 3c96db6e 3c6f104f 3cd4c1ae bc8f52cc 3ceb8293 3d7264dd 3d735ee7 3c88bfe8 bd5339d8 bd15de56 bd0d99fb 3ce9b206 3d0769a6 3cd45b4a 3b25ec8f bcf55938 3c8212c0 3d401bbf 3b356926 bcc64e31 3c36c62c 3d817d04 3d66bf55 3cb5519f 3d96f5d8 3c0bacf7 3d8216af bb225a5b 3d806567 3d46978d 3c60b050 3ce9d3e3 3d801691 bd8e4ece 3c8d8ca4 3d2523c3 bd0ba2e5 3bd59e91 3d51a193 bb8772f0 3cf84669 bcf4a6ab 3d2281fe 3b5be5ef 3d057407 3c7e5ab4 3a01b6be bd42fb92 bd1501e1 3c7e0020 3d5ee453 bbdd8f26 bd7200f8 3cbb6f4c 3d73037b 3b89ff97 bc35f23d bb990492 bda6a38c bbde9454 bcc75ea6 bd8f2239 bdc5e9bc bd5ac617 3d83b51a 3c078e56 bca9c3c8 3d29de04 bd0c6b8d bccd24fb 3cbf1e99 3ce41009 3aacf1fa bd8ed0f5 bd699ef7 bdc5db11 bd443a09 bd6c3dfc bd1b9571 3d226b86 bb53aed4 bd04cc74 bd8dd336 3b0611d1 3d49358a 3d137dd2 3bbacf2e bd120c7f bb85f75d 3d86dacb bd1f2717 3c5d7bdc bdc732b5 3c987b92 3c85fcee 3ddc8136 3dd0e366 b9594fae bd0bb30d bbc682df 3c6ae3f9 bc822f3e 3bd991de 3cb08139 3d4f2d09 bcbfb811 3d0fec07 3cd6b4c9 3df13243 bd18962d bca68204 bb7da373 3cb43227 3d1220ca bd922300 bc85a679 bca2c0bf 3d1041eb 3cd1d7e5 bc8fb5fb 3d052917 bd290ac0 3c6da4fe 3d605e2e 3b5bc9c8 3d8555cb 3c64c614 39b15e5c 3d1f6445 3b4dd058 3cde2ec4 bb96808c bcbd99a0 3d30577e 3d5a7872 3a9fb908 3c9b5797 bc977006 bd09d900 bd4e4acc bdaf822c bd3992fe 3c23f45a bc980357 bbb13e03 bc21c295 3dc4b9ee 3c2c9be1 bc06ad40 bca8ccdd bd31141a bca99c1d bd24a61a 3d841fd1 bc3a4089 bcb16d6d 3d59ac01 3b730e60 3d2488a4 bcd2bfac 3c9f032f bc18d500 3cfe7a12 bdaf04d1 bcffe275 3d98b812 bc0a4fe8 3d0ddaba 3d763729 3da04d46 3d71e65e 3b16c48b 3bcfcd08 bbdcd02e 3d57b6c7 3c1189b8 bd8eff8f b93838fc bce2bde8 bca06e1c bd787b0d bd5bc279 bdaefc35 bd131e29 3d4f634d 3db758e8 bc7ec2ab 3c7d1d7e 3d994b7a bcd1b680 bc2dfe06 3d07bf60 3d386bd2 bd240761 bd480ad7 bd5b9b9b bc9a4164 3caf89b3 bcf79d8a bcc55bef 3bc96379 bd186098 3ccbd31d 3ad90e50 b9c4cffb bc9a5d30 3c33226a bac1dded 3c7239e9 bbd5b6f8 bd1fb45c 3cc57e5a bc81a9c7 b9e6a2b1 bc591a85 bcd19ac1 bd935756 3c6bfa7c bc3d5951 bbc4cfed 3c621555 bd35d306 3bf71db7 3cd4e4c8 bc58c2f9 3d6f4e2d bb676f18 3cf00022 3c9a8d62 bd941a61 3c82ba32 3c7b3ea3 bc9ef364 bd059baf 3a969e6a 3c9d4c14 3d25e1f7 3c786c0f 3db0d4c0 bcd06f2e bdbcbf31 bdceafa7 bddc33ca bdc53a9e bd8ba969 bc9119d6 bd083b69 3ba75a8d 3d8d3bc2 3c48c4d0 3d8b62d9 3d561b07 3d911ff1 3e054d41 bc05c0ae bd0b9f17 bcb847b2 bc964130 3d8a99f0 3d9eb759 bd0cd5af bc70a213 bd1ac222 3da2ea99 3c209b5b bdca1538 bbc6cb0e 3d87c14f 3c9694d0 bdfb0a69 bd644a2b 3bd552df bca1fc6b 3d238474 3da69faa 3c888b0b 3d8003e0 bcb54169 bd82cce0 bc18e302 bd054344 3d8231f8 3cc1ac14 bc92ce6d bd3c4b8d bc814105 3c3873ec bd1c3bd3 bcaabf7f b9151653 bd480c22 bbabac85 bc0dc360 3cd514b8 bd21d859 3bf42866 bcc4ef6c 3cf36077 3c85a90d 3d8dcf65 3c19d48e bd6b1129 3bdbf4df 3d393e13 3d2e27f9 bc5c4c04 3c82ba24 3d356801 3d285e0c bd0dfd06 bd0d98c0 3cf64a2d 3db5bd43 3adcfb37 3cf7af06 3c916f9f 3c81b5b8 bcbb7dc6 bcbd7612 bd159880 bdb46a3e 3b7835aa 3d88092d bd12dce5 3c9d5e8d 3c55ee5a bc9e3d5f bb42414d 3cd0fa6d 3cc09f1c 3d8df390 3d7658df 3cc4894d 3dedde89 3d01ad7b bcb0e6ce bce1c7c1 3d176669 3d141899 bd056a86 bcbf3acd 3cb6cb6f 3bf7dcd8 bd083658 bcef642a 3b99f7d8 3dc55b08 3c10a4b0 3d49d1ca 3cef4bf5 3c8e812a 3d24d557 3d80f11c 3d010ec4 3d7f92ae 3dbe49ea 3c3868fd 3ce0a2c3 3cb4ba48 bd08df07 3da4ede9 3cbf9994 bc6909d6 3b809801 3dc268a1 3c6da50a 3cce4ba7 bd46acbc bd815788 bd9d9b33 bcb151f9 bdb1efb4 3d1a2b62 3cdbd1f3 3dc04585 3bdbe41b bd70cbb2 bd3f9a74 3c16cfdf 3d3cd387 bd636985 3d244b76 bd0f50be bc732c17 bcb55e82 3d8ed617 3ddef412 3dd45c59 3d5833fa 3c09705e 3d89e532 bc230fdc bd5e4ee6 bdc27736 3ceb13dd bd2ba440 3ccb4a6b 3d252d91 3bb3df5c 3d44e7e6 bce7ed78 bca9e096 3d6a4252 3c523d32 3cd7d0d4 bd75d1cc 3c00544a bbda7045 bcd268b3 3d9e6888 bcc4fc80 bce618ed 3d5cef81 bc5b8126 3cde94f3 3d85e85d 3d26ebd5 3ca1ed2b 3d91a64a 3da545c0 bca2aac3 bd76b302 3b2d68ef 3b09e611 3ca4b1b9 3bdd1595 bbe55977 3d6a42c8 bd0f33c8 3d780006 3d93b644 3d71548a 3d5bccb5 bdb3cd71 bcc091e1 bce7b601 3d844ee2 bd4dcb7d 3d7680f5 3d5cbb8e bd84e9d1 bdb81f5a bc13979c bc36249b 3c92f1fe bd913072 bd01e98c bda8c365 bce195fd bc9eb614 3d7c63e5 3ae2e7a0 3c89d98e 3d126d74 bce7d137 3baa3dc9 3bf0ec68 3db13f26 bd6bb12c bd0df3c3 3d5c2620 3d01dad3 3c6fb8ac bd797e0b 3daa441a 3d01fe13 3d7f4fc6 bd3035e4 3d4fd5e1 bc00a08d bd1997ce bd7f1796 3cf09442 bb6470d4 3ce598e0 bc817e9f bcc29c74 bc423531 bd86c3c6 3da6239b 3d14d0df bd0b6201 3d88b84f 3d09343b bd07be82 3d0e9a48 3d3ae4ee 3d48201a bc3f16bc bd25a0bd 3bc29556 3cb1ceeb bd55f18a bd0ea3f2 3dedf586 3dc9d6ec 3dae6863 3d67ec89 3daf8c3e 3d8e50b6 bcf1ec43 3d2cdbfd 3aa221d5 bc040931 3d816789 bcde209f bd61dd51 3ce41862 bc4db680 bcd510fd bc8668ba 3bb81164 3c80d916 3dc9669d 3d7b535e 3d770394 bd864b40 bab1458f 3df906aa 3d3b6917 bced3118 3d28c9dd bd261060 3d077fb1 bcc5b5f7 3d4c9e13 bbeb6b16 bd07ce19 3c35346e bcca4d07 bc1222a2 bd133b89 bda403bb bddc31d9 bc749102 bb41b50a 3ca0a12b bd2eb428 bd064bb3 3d3de10b ba27c60e bd4ddfe7 bdcb342d bdc44be3 bd8c00c0 3d8f3dd7 3cfc3831 bdab038b 3cbd0e25 3d3a75ae 3e01a033 3dfc96f6 bcb618ae 3d543d6a bc083d70 3d1d4315 3dde4cda 3d8d7e5a 3c091212 bd102928 3ce4f969 3d14a79c 3da5979b 3d0a8d0a 3d68e823 bc2f6491 3bb10956 3c426aed bcb10b9b 3d786dbc bd199ebb bd3f4b4a bce7aa26 bd2df76b 3b310b62 3d66606d 3d4c3205 bc83b664 3d7ded13 3d39763d 3d54714a 3dc2a812 3c972ee6 3d7e2cde bbe109d5 3aa2d13c 3c994cac 3c93c59e 3d418577 bd4b9571 3b3ba409 3dbd17be 3d310321 bc6d409b 3c70aa0e 3c5d34a7 3d21ce52 bdb93d17 bc69da5d bd0b1606 bc40b079 3d79f1eb 3d77d6de bb8e9dfa 3d3079e0 3bb1f65b 3d06a046 3d86b208 bc7e0ff0 bccaa73b 3d39b937 3d66735c 3d4ddec8 bd33db12 bdb92916 3d0dc4e3 3c8eab1f bd89a289 bd964688 3ce9960a bd0d0d41 3c8143a6 3ceb2b6a bd32b6a8 bbdd1226 bd767415 bd099b5d 3df27f65 3c8a03ca 3bbde8a4 bc964ab6 3cfa5cb5 3c05dac4 3d266047 3c9d5e78 3ba10fa7 ba237930 bccbc9c4 bce9f294 3c3e3884 bd2d9a7d bd48b36e bd00c748 bccf79e7 3ce1b684 bd5ae7be 3d0fa6bd 3d732ec8 3ce9d2a7 3d11f5d1 bced8645 3d123665 3c9e0e73 3c904119 3bfcff1c bdf383d1 3b5271da bcdcfa87 bdf2d9ab bce3ca48 3c4e4913 bc28cebf bd77be17 be02c364 bd05253f b9803e0d 3d88aa97 bcc3de7a 3c83abef 3d4c395a bc0e694e 3cf80f0b 3c654ad6 3d5e7418 3d5e0530 bcb92382 bd21208f bae6a203 3c3b29a9 3d7a67b9 3d3e8ef7 3c9cd589 bcec1a83 3cb675f7 bc814bbe 3d109cf7 3cc0d24f 3da81eb3 3c9b4141 3aff941f baabdbb7 3a93796b 3d80816c 3d1bd902 3c8cd0f6 bd47ac91 3cb188e8 bd93a076 bc26dfec bd16f186 3d88e5d4 3cffe634 bd2dd9f6 bc9536e4 bd678935 3b418207 3d58a764 bd2b0467 bcaacb31 3bb764cf 3dcddd1d b9a60d7f bd803f62 bd309df0 3cf36fc2 3c674bce 3d101630 bd6d139e 3b3ba7a0 ba6db042 bd161d99 3caf386a 3ccf04b6 3d5293f3 3c4c7ff7 3e118ea2 3d8b3137 3d57c993 3c9267e9 bd7b343b 3c1b49d2 bd091cc2 3c7e4482 bcf5fcd4 bd6b4cbc bd0b543e 3a637abc 3c658ab0 bcee1fc0 bd0bc457 3bd3c668 bd4dbed1 bd82df54 bdb9c5ea 3c2edfa2 bd844c14 39600bac bd925912 bd30ff93 bd621b36 3d5bfb60 3ded9318 bcbb7770 3d67e638 bce6562f 3917748a bb86b1d5 3d4044ca bc900801 3d12b52b 3d094262 3d0e7dd5 3c39d14e 3c8d5c76 3d5f4062 bab163f2 bd316f8f bcdbc925 bcde556d bd108731 bc7d129f bce0dce4 bd419e90 bc4feb07 3d782dd4 bc0538d7 bbeaaedf bd3b7d9b bcabfea7 bb464eaa bd4c662d 3d2443a2 3d07d79d bb90e78f bcee83ee 3d8f5089 3d897062 bd4dc9a5 3c1aa127 bd67bcab 3cd39981 3dec56a3 3d088801 bd2f2f0d 3d2548dc bd393c40 3d126615 3d6741d4 3d8df783 3de37822 bc9845bc 3cdb3b3b 3dbbbbab 3c431834 3d2e2db7 3cf410dd bd4be50a bc44dea9 3d2ccfc1 3cae229f 3a9efa67 3d1552f0 bc9ec1f0 b9a29b11 bc39ae8f bce68f96 3beeee44 bb435636 bd204f2e 3d69f6bc 3d3ff6e5 bb446bb0 bc11043a 3d21c5e0 3be0b9d5 bcabd75b 3c1304f8 3e050480 3cb83ec2 bd5df80b bd1e5059 bc8b7776 bbecfe55 3d9bc40b bd1a6e87 b9e358e7 bd2add94 bd38ea7d bbe464b1 bd6d8d65 bd5ecbdf bbd2b821 bc8d47c1 bd703be8 bd6fcad0 3c1f88cf bc0e4608 bc846bc2 3d83ebcf 3c4963b0 bcfa6b31 3a11b38b 3d3b376c 3d9a2a79 bc05f6e9 bd054755 3ca12a7d 3daf4d6e 3db83450 3bb23136 bcab81dd 3a4b9825 3dae6cc1 3c0db535 3d0eefe3 bcddc65b bbcfa2e5 3d9ecc5a 3d705e14 3a6aae5c 3d12241d bbfe6ffb 3b87957f 3dcb4ddc bc8258a0 3d8ec42e 3e02bf21 bd1f5fbb 3d07b69d 3d534c32 3d537e8c 3d130c1e 3d87bd60 3d4e3a90 bc976065 3d36774e 3d812bab 3da9727a 3c93268d 3d8f66b6 b99e0fa1 bd3c45b8 3e07649d 3cbeea88 3ddb0554 3d48cbe8 bd0f4744 3dc6c548 3dd15f84 3d51fe28 bc876334 3cc0e89b 3d0b4fa1 3dc52c6b 3d47b2c8 bd6b3119 bcdb8873 3d03412c 3d32c4f7 bc8e2538 3cbfdb29 3ccb8f1b 3d931948 3d422297 3d8fd3e4 3d05a9ad 3bf13b7d bb377276 3d395dde bcb301f6 3d303655 bd0748c5 bc41f82d bccaf8ca 3c9bd563 bd8d4e3d bc0e8167 bd9904d2 bd7f06c2 3c8c0322 3c32e77d 3d63eefe bd1435fb bd869868 bce91045 3d12aa1c 3d110844 bd8c97fb bda1a2e3 3d137d54 bb255a5c bd660e5c 3ac7b6e9 bcdbe555 bc93b0ac 3dcab55d 3d49f6fc b9995711 3c0309d6 3b334d47 3dbf42b1 3d953445 3d21f2f3 3d133281 bbcc1860 bc91395f 3d2d9173 3ca8f27e 3d755784 bd835c58 3c53994a 3d025693 3d83dd29 3c7c7f4e bd005b44 3d2b5e44 baf15ba9 3d0fd509 3c241151 3d4015bc bd372f51 bccd4565 bc12dd75 3c8a9a58 bcf80342 3d3c382f 3d44707c 3c9aa5ca bd170cb6 bae669ad 3b65b352 3d5d58b3 3ce7ed8f 3d1bb26d 3ca0c284 bcefc50e bd99e1c3 3c3175c7 3da64e6f bcd821e9 bd86af35 bb05f1b3 3bb66eeb 3c84392a 3d0f0a83 3d0583d5 3d712a64 bdef03d3 bd8d8a49 ba4b3a05 3c767a99 3d0e63cb 3cedf4da bd193dbd bd4f8f00 3d1d6f16 3d13587c bd3d8b2a bce96e54 3d6f4d0b 3d1a5af2 bccc9ce8 bcd3ddc4 bd06b095 3c008f82 3beecc03 bcf50488 bcf60e15 3c9fdd66 3c5952ef bc8f1298 bd8c79f1 bd307f74 bcd2e707 bcac31bd bd5b7cc3 3bc7c357 3d1162bc 3d4f71c6 bd15e0aa bd4568b5 3d09082c 3cf2e51e 3cf3b4e5 3cfe439e bb1c81bf bc11b32a 3d5e2537 3d5ce04f 3d23dc80 bc9ebbf6 3cc2de6d bd30cbd9 3c73d7a2 bd269052 bd590f9c 3c8a43d9 bc8abf9a 3d2544a4 3cf48df5 bcdd97b3 bd366a0c 3a8241ca bdcb0760 bd46fb00 bd92e24a 3d5b12f4 bd9044be bd2a1217 3bc4b81b 3cf1148c bd89de2d bd7553b9 bd7b8524 3d1d4865 bb8c63fb 3c3c5e9e 3cfe1c5e 3cca8110 3d975e70 ba9069ca 3d510ae4 3bc8c3ce bc81f806 3cab3488 3c731167 3b4f8f80 3c975f0a 3d06648c bc03cd0f 3b2eb1bb 3c78ed77 3b9bebd4 3d7dbf43 bba4f832 3c0f3bce 3d497140 3d77e580 3cdaa308 bcf8737f bb78dcf8 3ce27cc1 3c85b0c8 bcadbf07 3cfcb12b bc98d1c9 bb8d0b76 bc54f0f3 bd0ceb34 bd567512 3dd239de 3db2406a bd828a1e bd7b6c01 bd0c6c05 3c16216d 3d1b9c3a bd920d6b 3c93b047 bd137231 3ced78eb 3cd756af bccfd154 bd2fa589 3d494323 3a506967 bc1eac68 3b3e4be7 bcc07360 bc80b243 3ca601a7 bcb3b292 3d1108c0 3d90ff34 3d847c8a 3defb359 3d1b7554 bc107c0b 3ce9924a bcc365c2 bd441e4e bd54390c bbf80dbc bdc2e7be bc9d50b1 bd775375 3cec2b1a bd3cf253 3cab95a1 bd7570bf bca56df5 bd48d424 bd37dcde bbb76957 3ca032ef bcb9c90e bd485173 be17a0aa bd8fd6ea 3cc0db8c bb67d525 3d9fac9f bd5c3577 3d1e948d bc9c9b70 bd8cde62 3c4017d2 3dd437d1 3d898b9a 3d7c6383 bd6ecdde 3d052899 ba964e9f 3d2c42e1 3d853020 bb84ecf0 b9b45b65 3cb5b436 3d2e19c1 3d4ed4f1 3cf3ce5a bc52ff1b bd84d700 bd16de46 bce80841 3ccd1b97 3cf46293 bd0cb038 3d29136e 3c6f108c 3cf22a71 3d46d529 3d4da41c 3d7ea59e bd32a1d5 bd7e3fc8 3c350441 3cedf3b8 3c81ead0 bcaa927a 3c04825f 3d883bb0 3d1a6400 3d2c549e 3d498f2b 3c5a2506 bbeac7f4 bcddd3bb bc847133 3bcf75f4 3c033c4d bc7ddfc6 bcd379ca 3d9085c1 3d5f34e1 bd30dfdb bd6040a6 3d042193 3cc85c87 bd1c90a1 bc2c18cd 3b3be6cd 3c935f23 bd643bd1 bcb3db41 b8d450aa 3d7fde90 bd0203e0 3d5dd225 3c143af5 3c814ee2 3d124da8 bd1b198c bc3bf364 3cace334 bb9ea939 3c237205 bcf0f071 3cf5d750 bd10656f 3cc1252c 3c7f80a3 bb7d2d4f 3d481473 bd0ebc08 3c8ad536 bc974d63 3d628b3f 3c1728af bcaa3e37 3d1b0543 bc454060 bd4905fc bc1ac03a bd90c067 bd2f23a9 bd90609a 3d396117 bc4a4305 3c1c975a bdb6df8f bd89da89 3d9d5fc4 3d3cc27b 3cfbd328 bce503f1 3d06f4fa 3cd32110 3db0172d bc6b7e8c 3d4e6ccc 3d22fc86 3dc1320a 3d800977 bb8edc49 bc51ab00 bd3e8ba0 3d9a399e 3d88fdc1 3d8425ed bbb9f82d bc4a56a9 3c5a0673 3da2300b 3d68a5a5 3d98aa9f 3d7c2901 3b36e4c6 3a95747d bc26e12d 3ce563eb 3d2b220b bbc30db4 3ca9a35e 3bd03fff bbbbffaf 3be11339 3d1b4723 3ca8db74 bd3d4efb 3cd004cb 3b45180b 3d75a6ac 3ccaec31 bd023c3b bd7dd7fe bd98115b 3ccb8e51 3dc2d4fd 3cd92f09 bd1b8aa6 3dbeb482 3c7c054b 3d58d1d0 3cd85615 3bf04a0c bae69d0f 3d03d8a6 bd042877 3ba17659 bd004d42 3c4ae61a bd46721d 3c92ecce 3da52121 3da38224 3d950f09 bce2e5e5 bd06ae6d 3d3d7948 3d38b5e6 3d5c8a9f bd498e8e bc1844ed bbedd21a 3b81623c bd00cd01 3d1e45d0 3d253cc7 3d2b09cb 3d7eb3e7 bcfbdc4d 3c0070de bc5c094b bcce03ed 3a8b9da3 bcd72c16 3c3c3e5e 3c0dcfb9 3d6d69a5 3c9d212d bd59c697 3dd95380 3ddf1018 3dd66589 3d58aaef bce900fd 3cfcfad6 3c36574e 3d32f306 3d48522b 3d2602cd bcf1ce1c 3cea603c 3d2551e6 3c29f1bf bc2ed51c bcdcc438 3bffb4c3 3b48e0a4 3c00e75b bd6d21f4 bdb2d7d3 3d946681 bd3ebcca bd49592e 3d4ea74e 3d110cc9 3d583b54 3c531754 bdb493b3 3cf1daea 3cfda359 3b862d42 bd8fc006 bd9c1dd2 3dca3a6d bd1d2dc2 bd94c031 bc350543 bcb0dfd0 3c419862 bd23b686 3cc77578 3d0bdab5 3d542503 bd24f5fa bca2f7eb bd8b60af 3d39d0e7 3ab39516 bd0cf3c0 3d814947 3caf3583 baa7bd01 bd2e4cd4 bbe25f29 bcef74e9 3c9313f8 bd605a63 bcbc5fb1 3cbf4b43 3c001ada bcb06385 3d179d5b bd0c9fe2 bd5aa102 bd04c6d8 bc8b2350 bdcaa0c1 3b817ed6 3d0861b9 3bf5bc3d 3d9d0fc6 3d60b6e1 3cb502f6 bda40f61 3dbbd17a 3d2d6391 3c9d66bf 3d8155a2 bd01d6f2 bbdcf330 bc7bc05b 3db04aee bd10b7b5 3b37524c bd4ea673 3c905b44 3cb21e7b 3d097807 bdb111cc 3c43e356 bbcdeeac 3d83d8ba ba292759 3cd5bc9e 3d9c9236 bc09b398 3b9fe67f 3bc66be8 3d9ac0b7 bc373eba 3d4bca9e 3aee9ad2 bc7e3f2c 3c9dd431 bb4a512f bcdf4317 3c807339 3cd84608 3c7c9607 bb50065f bcbb2d42 b9b2534f 3d70a520 3ab00ff5 3db10279 3cc382c9 3c0764bf 3cceeaef 3d5740ed 3d282014 3da8a5e2 3dcb9088 3db44eb4 bca33878 3d57dc3b 3d140e74 3d9d2d97 3de8a019 bba1da0f be02e615 bcef7d37 bc4faf72 3c0fdbd7 bd94a972 bca598c4 3d63b70b 3d886706 3d39959e 3d613e02 3d42d663 3ccb83e2 3cba8e26 3a2349a6 3d161a58 3bbffe55 3cdb0830 bd7f2876 bca1096d bb9c296c bd759c8d bd02e2b9 bc60a276 bb2e28bf bd275c6a 3cf07b45 3c0d7a6e 3d25eef6 3d1d7260 3d32a657 bc8b1473 bd807969 3bc783bb bcfa87f3 bc9d4f5a 3d31e1d2 bbd67c0c 3d30e8e7 3a8cd39d bcc14a84 3d520e08 3b23f969 3b2996a5 bc005796 bbb3eac9 3d765833 3cef9f52 3dc6469f 3cd85103 bce390a3 bd221d09 3d828dad 3dd64276 3deb2d28 3c47d89e 3c579bff 3d9fb74a 3d9d1cd4 3c471a98 3b6b7dba bd1d783a bd73259d bb74b70a 3d4b0e4a 3cd80ddd bc7e9e10 3c4a24f8 bba336c0 3d99416b bce841b6 3dce5706 3ded4c92 3c788d05 3dda4fc3 bc4d3d74 bd5e70aa bd137e56 bd6ba109 398ae043 3cf5b9c8 bdb571ad bd22a810 ba1ad793 bc91e50b 3d122657 bd50b836 3d5dc9aa bc5f1ded bdb18047 bd780940 3d177ad2 bd3c0c81 3c3094a4 bcfbf519 391ebb66 3d5a3fbf 3d9e1ab1 bc319143 bba725a1 bcdc6a49 bd830ad4 bda27d35 bcfff055 bd102538 3d2d9552 bd65bc97 bd219ed0 bcd1ecbf 3d244921 bc24eab7 bd86b366 3d41649e 3bd4ee79 3a469f2f bd481b51 bcb61f87 3d8237eb 3d6f961a bd9802c8 bdb3075a ba889a0f bbac9b3e 3ce385c7 3d157143 3d03ccc5 bd27ae13 3db1239a 3daca09f 3d3edff3 bbdc7e02 bd45644e 3dbdd98d bb774189 3c8328db 3d0cb0f9 3d0671d4 bc09289f 3cb0b8bc 3c86f40b 3db93769 b9e10206 3d36fda5 3c48f30d 3d49144d 3d27d198 3b1fb0d9 3bbee91f bccc8fed bb8e1e0e 3cde2592 3b570c82 bd88716a bd01331f bd4d15d3 bc8afef2 bdf192ab bd1af3b8 3b2b7299 bc23b49e bd49c2fd bd5d8ded bd4716fb 3ccf98cb 3cbaae24 b9931728 bb86ce5f 3a4b347f bc08d9cb 3d011236 3c72f04a 3d575626 3c47b866 3d7a6e5f bc243079 3b54f470 bc76d703 bac909d4 3d6fc542 3d9dbd86 3d2d9db3 bd061054 3c545ca1 3cdfcba6 3c9aac26 bdb6c708 bd6974a9 3b67edf1 bc8ca8a4 bd14c294 bd5d16b8 bd527d9c 3ccd45bc bbd7999b bcc51750 bbb80024 3b91d760 bd9d3d98 3c6872de bd2cd543 3ba2308a 3cf814cc 3c0740bb 3d1096f0 3dabd682 3d39dd52 bc80ca95 bc397a50 3d222672 3c2cb173 3d7bd5e7 bd4e9fe8 3d645318 3d24b526 3c8370e9 bb72aee8 bd690e83 3ca63ca0 bd68605c bd8d2336 bc32baee bca89d32 bdadeafa bd7463e5 bd5ccbbc bd3fb8e4 3d1a8af4 bcda37e5 bda24ab2 bd80bec8 bd703ffb 3c2cce4f ba91f9b5 bc2087fa bd26a83d bd1b2a27 3b19b2ed 3b1cc477 3cc078c7 ba827372 3cd697ef 3d805db2 3d6a1559 3c228ef3 bd108582 bb4826b6 bccaf464 b93ef9ba 3b444be2 3ca42fe2 3d1a8fad 3d17c0ce 3d3aa2cf bbb1ecb7 3d6e8357 3d808910 bd9ab5ef bd51f352 3b25d24d 3c6eee12 3d9f5773 bd8b97ef bc3ef048 3db47e7d bcdec1ad bd0f152d bc0ad164 bc90bbc9 3c99a6f3 bcfddd1b 3c3b35bc bda675aa bcbe932d 3ce88773 bcdd40fe 3d1ff517 3d298cd2 3d506bb3 bd0e7c6f 3c9e2f3f bd20eb85 3dcbd648 3cdae906 3d91348f bd75342f bdc709ce 3d3ebb17 3d6816a6 bb094338 3d23b19c 3d1625c3 bd163f80 3d6d35f7 3d72aa73 3b3d4e02 3c89eaf3 bd573560 bca6afd0 bce58dc1 3cb00d0f 3d7cb926 3c994411 3dcb8d83 3d471631 bbc78485 bb8a938f bd4dac70 bc352cdd bcb91abb 3d3e8957 3d096a2e 3cfc5961 bc069ac7 3cfae865 bbac51fb 3d070281 bb821492 bcc7bd95 bafc6cbb 3c2fda94 3d34ab0c 3b6ede03 3d496f71 bcd76c26 bca9bf40 3c05c4f0 bbff602d 3d12339a bb04cbe7 3db3a860 3d6d6089 3d32c6f5 3b6b0935 3bbeca58 3b77d469 3dbe0be2 bd3040e2 bc477434 3c5aac7b 3d4057f9 bd030282 bdb80e1a bc02cb8a 3cc563aa 3d676ce9 bcd3b999 bc3a85cd 3b771a2b 3dd4fd94 baa512f3 bc0e2b18 3b8806e0 3d2a2730 3d1b0dc5 bca870a3 3d2a00c6 bab0bbad bba60a8e 3cd1e5f4 3cd781f3 3c5bf575 bc1fd57e 3da8b616 bd440444 3d04c619 3d31a4ee bce5b119 3d8fbdbb bd400d87 bcce26b0 bcd67017 3d25303e bcc661b4 bd9002df bcbcd837 bc268fef bd145acd 3d84bdb5 3d1c8d54 3ce495a4 3cfc96cf 3a17b27e bd954994 3b9372dc 3d932e21 3d27e495 bddad63a bd916e37 3dc3737b 3d68dd0a bc1162fc 3a9d4535 bd17a9de 3d6786c1 bcbc3b04 3d0d2166 3cf2a346 3cc5bc21 3d1c6f9c 3bf2c1b8 3cc51cd4 3dc0867e bc93aa6e bc522c37 bce7ac72 3c08a1a3 3d5172ec 3d98b0db 3bdb9fc5 bd47aca5 3d266620 3c454bcd 3dcd6ced bd615429 3c87ba5c bd2d10e1 3d2d7182 3d591dea 3d696c50 bd04de70 bd284b69 3d101c83 3c927767 3d9affc6 3d17596e 3baf7b7f bcb223c3 3d5dbe03 3bac8e4d 3c072eb8 bb1dc2cb bd6714be 3c2e7de7 3d84691b 3d811498 3c553e7d bb8c5570 3cbf7b66 bd83dfc9 3d7cabd6 3d2c2a56 3d0c6790 bb2ab054 3bea031c bbe3f242 bd420628 3a73463e bc3903b1 3baef290 bd864f4b bcb52a35 bcbf91bb 3d0d5263 bce78db6 3d309a32 bccdd782 bd90f1d2 3cbd811b bccd3090 bd319e31 bd29f3a6 bd5cae56 bb8ad0d8 3db23eba bd654f29 3c9589c8 bda27df5 3b7b84d6 3d39d888 bd3e0825 3cd8d485 bd24fe71 3c021ff1 ba1ecd29 3db13c21 3d64f6ae bbe5c68e 3d1cb709 3d601bbd 3c59790f bd4a5d25 bbb40898 3cf39d75 bca0422b bd1ba336 bcf9fee5 39158274 bc291f8c 3ccf9717 bcdf9d8d bddce0e1 bd32f3b1 3cae685b 3d2ed06a bcfa332b bd3cb6a3 bd69c479 3d22ce56 3d87fd3e 3d75a5cb bd216d6c 3d70edec 3d1b4345 bc88e92b 3cc7edba 3d801e59 3baf5efc bbbcac43 3d444b79 3d5cbe1d 3d255c94 bd1ee11b bc3fb50d 3bf5b9e7 bcae2f05 bd40feb1 3c668c88 3d517a91 3d45a95c bd0c4d73 bc246ad9 ba2dccd0 baa22394 3d93a41a bcaa5e2a bdd815c1 bcba9466 bc233ee5 be02e04b bd0fefa2 bd4d7920 bcf9c6f0 3cb11f43 bd0821ff bd6809d7 bd42d1cd bbbec18e 3c5d997e 3c82a0e4 3bbfb058 3c0cfbc9 bc92f5b6 3c9eb8e6 bba00c4a 3d609046 3cca28d2 3d8feb7f 3dca3edc bc6ef1aa 3d65e732 bcfec983 bdb8d82d 3ba14db6 bcb2efed bc88a07b 3a8dbb0c bd37ff58 bd6cbee3 3d3767df bc2c8a1a 3d9a1755 3d1bd554 bd8d0663 3c8712b5 3db54d80 3d35c438 3cf3a433 bd3ff8b6 3ca8ddc6 3d8538fb 3cb8315b bc27486d bd7b7537 bae51c34 3ccd5463 bdee81b1 3c540b28 bd5b5408 bd7e75c1 bc933240 bd73ac17 3c533920 bcbb991c 3d21f915 bb87f45d bd84379d 3da63b4b 3d8e4f1d bcee5073 3c146340 3cfd1f82 3da4308d bbc2331d 3d48fcef 3b776efa 3c265e86 3ca76d37 3d4ef234 3c795963 3d5c9f0e bc6f5137 3d28d5f7 bcbca3de bcd399d7 bcabb133 bb88122a 3dcf5c5e 3d94b030 3d729b06 bc1c4e2d bd801f36 3d7f70a1 3c194964 3d2438f2 bcba62f0 bcb62d0f 3b439ced 3c6544c8 3c58454d 3c8a7927 3c8539f5 3c68e16a 3d036e88 bdb5e8d0 bd398828 bda3c620 3dbb52ef 3d91e4f7 3d2510da 3cb7656f 3d39f70b 3d6a5b47 3dc97a8d 3ce4bde6 bc66035d bcba138d bc554d13 3d345764 ba8bb21e 3d663787 3c7f2d68 3ca4e6c0 3c97f869 3d58cd57 3d598f63 3ca565ca bce51f24 3cd3b5ff 3d01a695 bd2f7701 bd487063 bd19b756 baf63af1 3d1e04e5 bd156b4d 3c3aacf5 bca28f92 3d944166 bca49117 3ce616bb 3c35bc89 3bb9fe97 3d756d4f bd0a1501 3c5b0aed 3be3c739 3d491606 3c72e8d7 3c6ac429 3d0bfcf2 3d06cee6 3db64001 3d924563 3d1f63c3 3c427208 bcce0b26 3bc607e9 3c8b235c bb8ccb91 3ccc499a 3dde2f64 bca9eef2 3d713e1c 3cde5065 3c9d4b31 3daf6169 bd24ab96 3d37cf81 bd2b1f5e bd4559ea bd89c382 3cb89d49 bc7de8c4 3d1bd618 bd14de64 3d60c54b 3c5d52d8 3c44ed5b 3cb26da0 bd94c8ba 3ce9e814 bac8ccab bd70de7f bd542757 bd4c90b1 bd15693a bd24cfdd bd18035b bb8e21a2 bc084783 bd232766 3c43f6da 3d0d928b 3cc95c73 bc572c7a bd78e929 3cb33980 3cb4c790 bcab27cf 3c0d9453 3c164bd1 3d91fdec 3d2cb5db bd332c6d 3d7429fb 3d050ea3 bdbf58e5 3c597bef bd8e3277 bd91e5b5 bc002e80 3d68ae2b bc31f93d bdb70831 bda5f2b5 bc933508 bcfdec36 bca05ba2 3c654379 bd2074e2 bda2fc9b 3b9ad7cf 3bd41772 bce15d16 3c15945b bd81481b 3d03d1e5 bce39d7a ba77d361 bd2427ad 3d620a4b bcbc11a1 bd4aa00b bca6dcf7 3c38d65b bae9fe50 ba6fd3fc 3cfea593 bcebc5e1 b9d5c079 bca01c73 3b1bd1ca 3d120ccb 3d59a5fb 3c1643fb ba985410 3d508a06 3d0fbe3a bd190b1c 3cf13439 3ce2dc32 3b3db678 3ceedf8b bb840bc3 3c235ed7 3cdba4d2 3d738de0 bd12c7b8 bd5a334c 3bc3b1b2 bb37576d bc45c166 3d3c71b0 bb310b81 3c9b5286 3d7a7893 3d8dc1a8 3d388c09 3da6b796 bd22a0bf 3cd94832 3d87c778 3dfdc923 3dabb51c 3d3b11bf 3bf64300 3cf34f1b 3b139c9c b9f0d5ae 3d876569 3d21d5b8 bd1443e9 bbd61bf8 3a203583 3d650955 bd1430df bcec271e 3bd89312 3d94a674 3d7208f3 3d817579 bc4b8387 3ce816ab bad500bf 3cc2b122 3b5c13cf bd448c6d 3cf986bc bd7b884b 3b8f5804 3d59f822 3b9210ff 3d852f69 3d1a7d24 bd4f636b 3b3b4015 b8f475c3 bcf57243 bd0eaa9c 3d63953a 3c4fd32a bd88e8bc bd4dfeb4 bd4bcb68 bc9975ee 3cffab7a 3d26112e bcb2e05d 3d4955fa bb94dd24 bc122d3e 3cd02138 3d3d03bd 3c713ec5 3c41d4f8 3d28be2b 3b883ffd 3d732de3 3d30d060 3d005a6b 3da59079 3bfeb198 3cc98a86 3d88ddc7 3cb850c1 3d490636 bc5d8d3f 3d0983c2 3c848bc1 bc038f5b 3cef61da 3d9bf3a9 3c846228 bd08c384 bc5bfaf4 3d53b1c6 3d852e5d 3d1d1315 3da3f1a4 3d114275 3d2e6dd8 3d997761 bc8a9ea5 bc7d123d bb9492b9 bc690027 bdd073e3 bdfb00ca bd47b582 3c8dcebf 3d1ddac5 bd701117 bcdbbed8 3c9f692b 3ca553ea 3a72b000 3a1a4a2f 3d0fbab3 bc76e23e bd15f508 3d982d0b 3d818785 3b1204eb 3d140ac1 3d88c7c8 3a917811 3c0296c5 bcaf20b6 bd9faf5a 3d31f83d bcb9c662 bd7611b8 bca660f9 3d024520 bc89468f 3d881aed bd2509a1 bd5f8650 bd9bf003 bd5b4aa5 3cc958d6 3d32d47d bc1b140c bc11f25a 3ba83d60 3ce0dee5 3d4178cc 3c0d3c72 bcd0c6e6 bd01b5a7 3dce651c 3a948b43 bc0e96d7 3c9a4fc3 3ccb3e00 3db1286a 3d28a9e8 3d4bbb47 3dc29bdd bbabd360 3cc1eca8 3da1848a 3db19f22 3d775597 bc938863 3c1e6d5e 3be350e2 3b66d1a7 3d701624 3dbb40dc 3cb37aaf 3d314c82 bc963b6b bc40516c 3d8a043f bd00cd8d bd2881fd bd8bbd3b 3cdcf445 3ce7d18c 3d08b366 3abc4c4d bd621cc9 3c7737db bd988a70 bd8a1418 bd711193 3bb805f3 bd0c7ed5 3c0dc1bf bdb702b5 bc3cc5c7 bcbad786 3d6e6fee bd89280d bce4e04d bca3203e bd25025c 3d2589b0 3c305322 bb56ba4a 3d42451c 3da7d83e 3d0e52d2 bc0400e0 3bd1d078 3c934243 3d8bc9cb 3d7dd88d 3c9f7ea7 3d4c509d 3c19634f 3dae6b89 3cc4dd6c bca6de0e baaf80f8 3d55fd07 bc77f9ba 3d22434d 3d127bcb 3d2170ea bb99ee83 3d84a3bd 3d0fd80d 3c1e553c bd4cff8c bda71241 bc696faf 3c4cf0f3 bd5c4179 3cf1a879 3d2f8a2a 3d6caabb 3d951bfb 3db57b23 3d522409 bd38573e ba1c9aeb 3c1a88dd 3db339c5 3d4dcb13 bd3c25cc 3d12387f 3cc42ecf bbf60bcb 3d9074bf 3ceae06b bcf969dd bc053530 37608772 3b8f92a4 bd0eae1c 3cf2764e 3d46db2c 3d91e7c2 3d0783b9 bbc26180 3d7b03b4 3c88ec75 3d701f66 bd255ca0 3ca1431d bcbb1719 bd91206c 3d178b6d 3c37c38f bc801b20 bc1bf63c bd7bb0ff 3d5ca99a bd423256 bd31d990 3dac4a7d bd2a4e27 bd0bd8bc bd7f3b61 3d70c51b 3d20a0de bc9dcff7 bc663f73 3c4be020 3d61f6e6 3cb7ec59 3c624aca 3c88b14d 3c8309a8 3dbb2a19 3ca6cb0d 3d263e03 bc8b0836 bd1c8458 bc5bb721 3c6f516f bcad6fcf 3cf2ef41 bca4164b bd165865 3c80efa8 3ca0dd11 bcca364c 3ca98d73 bbbeefbb bd07f5ec 3c581725 3d81bac8 3cdc5e4f 3bd26f97 3d0de188 3d26015e bd01d794 3d58f519 bd381dc5 bcb41c40 3ca996f6 bcb35c88 3cc5c5eb 3d20e8e5 bc5ac178 bb77e0f1 3b51e7a3 3d60692a 3df4e871 ba06edd5 3d664cb5 3d48737e 3d293d01 3cd2b0dd bd07878d 3cbbc23a bc189f18 bcd3a9cd bd074fae bcfe7318 3d2856ed 3d19e906 bcea0865 bc19062c bbb57893 3d05da90 3d063cc3 bd0b2709 bc48d0c8 3d39a375 3bf5c41a 3caf3839 3cfb0405 bc222365 3d0cd1c9 bc012752 3cd2e137 3d3252ed ba355398 3ce409fb bd1434f1 bcdbe239 bd355e33 3ce7b5bf bd3c1282 bd0281f1 3c585297 3b9035c4 3c71fd31 bc8fc747 3d122dc8 bd860cf9 bbb384c4 3deca87a 3a199fae 3d0b0dcd 3cd0f00f 3d938288 bcc0c2ec bc2a54f0 bd704e23 3d46d60d 3de7824c bc95cf91 3d8e4ff3 3d4c6e24 3b95f11d 3d99ec38 bcd4b0a2 3d8412f9 bd406a9f 3cbc19aa bc922d26 3d942ea0 3d2ebbe1 bcb7c0d3 bc92d375 3cf9d47c bd0307a4 bb2f412b ba9a0f22 bd0f59e8 bbbc8014 bbac5321 bd6137cd 3d8901bf 3d224928 3cc2e846 bd24bbbc bc8375c6 3d50b491 3d82b1b3 bcf4b227 bcb5843e 3c86cdd3 3d56ee27 bbef369d bd56c002 3c12cbd1 3d9c32ec 3e05815a bd37addb 3ce334aa 3c34787c 3b0ad92b 3d3c98da 3d2163ce bd2f8ab9 bdb798b9 bdcc36c8 bdb4aee8 3cf063c4 3d0c3ee5 bda2bf14 bd9884bd bd4ded2b bd23a699 3d543c0e 3da630a1 3cb856d7 bbcc9d37 3bf743a6 bbbed04b 3ca822fd bceed24f bd4bd71c bb302b2b 3d605211 bd801fba bd227bfb 3d5d570f 3d8867a5 3d51653b 3d902e88 3bb80bc9 3d877db7 3d9f55b3 bc9fb0e2 3d99e880 3d10164c 3d3150d3 3d742cf3 bc9806b9 b87985bd bc38382e 3d1a4b93 bcb97437 3be40473 3b32d123 3d6aabd4 bcf9188f 3d4110ef bcfe8984 bd403a8d bd2ba9fa bd4a1b36 3d899d5d 3cf47581 bdd8f3d6 bd925e8b 3bb52ee0 3d6971d9 3d5b545d bcb3c1b1 bd31b40e bc0f0f7c 3d342821 3a2652c4 bd20bbec bd4ceb1e bcd6f7b8 3ca7c00f bbfa4554 3d0f8e0b 3c906519 3ba83e20 3c3dee9e bc230bfe 3c95bad5 3d5f4d72 3d93a1db bd612d9c 3c742fca bbc85359 3da547c5 bd28a603 bd03735e bd967779 bd476803 bd491438 bc3266d3 bdada863 bc8222d1 3c998502 3d0f8270 3d3e217b bcb3663b 3d47c9cf 3d96d535 bbab0299 bcfb4602 bcb77f91 bd3869a8 3b40036d 3d132c5c 3b257029 3a0f29e7 3d6cc655 bd12d5cb bd6dc0bf 39958f1c 3c2d5c42 3b954c89 bcda973f bc6ed648 3d7b1afd bd4e628f 3d01594f 3d4cce9e bc486e12 3d7305ee 3c8c8aae bd209d6f 3d5462aa bc794858 bd1d566c bc6b84b0 3d065482 bd25dfcc bd5366f8 bb497c59 3d88c468 3de5c21e 3cc3562a bdb7df81 bd013ece 3c08885e 3e0983a4 bd1a2843 bc0206d2 3d0ae140 3ca6ae86 3b71e79c 3943186e bcd0d76a 3d92db71 3d1a8ca9 3c8d391f 3dc6e7cd 3cd41044 3cc899fa bd041dd6 3d3f0419 3c818abe bcc964be 3d6f8d17 3d2f6a4e 3c5128da bd5be92e bd9a93f0 bcfb7215 bce7b578 3d0af6f4 3c6bb554 bd277a40 3d30812b bc6611bc bc4bc599 3d353687 ba75e785 bba98f80 bc062d48 bd29393e 3e08c08e 3d00dfaf bd32b5d4 bd6e428f 3d3e0312 3d8b5914 bc6eebdf bccd27ba bd5c3d9b 3d0278b7 3c8e6ecf 3d06a092 3d32253c 3cb7850d 3cb52b21 bdf93f20 bd751dab bd23a511 3ce412f0 3d559d29 bcc7e938 bc3c5f33 bcb5facc bd73b3bc 3c036c83 3cccac36 bc900b45 bb98f653 3d38dd22 3bba4dca bd3f9649 bd05878d 3dcad853 bcecf746 3ce80b94 3db2dc17 3c3c0586 3c932bbd 3d37e7ab bd775c5b 3c0e4482 3d8abf7c 3d3938ce 3c0a09ce bbbf6201 3d0f1b9e 3d599cf5 bbc25361 3ccd968b bd9b0e40 3a90d42d 3c6ef1c9 3c8eb464 3a836a6d 3d55dfb2 bcb7779f bca8d74b bd458e5a 3ca46262 bcd4bfd3 3d865b6a bb72a070 3d229a93 3d9acadd 3d234179 3db063d6 3d9eac8f 3d6946fd 3cfb2676 3b1476b8 ba6de554 3dfa4e57 bcd22ccc 3c60ca0b 3aae8a9d 3d70f3fb 3d87fe61 3d162aef 3b391cd7 bd8f8c11 3d2008a3 bb167826 bd8b6be5 bcfe2424 3c6a2051 3d61a501 bd8ffe62 3d9773c7 3d2f2b3b bc3f1baf bcd06ec2 bc37c988 3d606890 bc3c1bdf 3d1be006 bd967de3 3a8c9994 bca29318 3d269d8e 3d5765a9 bd89d47c bc5a2dfc 3d1d605d 3d6b8e96 3d273df6 bbe871a7 bd2dc8be bc09b7b8 bb58fc61 bbdf3d6e bc7e32ae bc19e46a bbc7bf12 3c8f377c 3d7bea11 3c626780 3cbb5e11 bcf197ba 3d14ddef 3d5975c3 3cbe564a 3d8108a0 3d80505c 3da8dcd9 3cea7d30 bc002b11 bb90cf37 3c9d7cf5 3dfb22be bb650b76 bd1a752e 3d1594d8 3cbb46ba 3cd8bf6d bd8cd142 3ca88303 3d4fb1e7 3d38f002 bd4a9afe bcc85096 3d72f04f 3d80eede 3d2bea28 bc9fd846 bd05b756 bd8a195c bbfd7cd5 3d0daeb4 bb632b68 3c2014e1 3d91110f 3dc47023 3cd62576 3d73c5b1 3d8e5886 3ce61d3c 3d882ce7 3d5af3fe bab17a4a bd48de83 3c23ff3a 3d06f66b 3d17d634 bb4833c8 bc3d7bc1 bb415350 bcbe811a 3d0ca9ce 3d4745c5 3cf2d867 3cbdfa56 bc30c1c4 3d397633 bbc00ab4 3c4cf316 bcd69e8d bc61f569 3c7e0e28 3c4bb816 bc9d0277 bd18c32c 3c66ccff bbb0171f bcdc62be bd0c0e73 bca2ff02 bc4640ee 3cd6e068 3c87a63f bd6b11f1 3c80595c bd8563fc bd0b02db bd77f372 bcc69efa bb2d36bc 3c25953d bd00f3ea bc2bb280 bb9e8364 3d92e26c bcad267d 3d88eb4d bc9d6dfb 3b804d7e bcaeaa6b bd3f5084 bd0faa73 bb5a1307 b8eaf77c 3d2d458b bc96b9c6 bd0c49ea bcfd39bf 3d245e56 bdd3852f bd972277 bc5078f1 bd39c959 3d568e2d bd33375e bd44e68e 3c05eed7 3d014f17 bca94d09 3c81104c bd930cf5 bd300539 bc315b25 3cfa1438 3c9fd09d bc91e091 bc9432fd 3be03645 3c1d0c24 3c071d86 3d1066c2 bc9deb86 bce33a0c 3cbdfc28 3d4ee69c 3d80a5e3 3d23118f bc530d88 bce15005 3d6bd2ad 3cf7208e 3d9e6d21 bd29ab73 bd39a112 3ce14a79 bd030b5b ba81da67 3d1644ee 3b5bc718 bcf20473 bc2b51fa 3cff8c77 bca7b2d2 bcca957d 3b2820fe baf291e2 bd9c4841 bd85ad9f bc75e23c bceb9570 bd1b281a bcefec04 3ba0ea61 3d9d4017 bd7a3360 bd00ad79 3c8ea0d5 3dd4a21e 3e0f0580 3bd8c194 3b46dd12 3d25188c 3ccc8eb4 bd0d7d99 3d7fb564 3d8e5b46 3c399699 3b194ec3 bce69e4a 3dc5fbb8 3a0206bc bd0b872b bd08e0d9 bd4d6d29 bbf60df6 bd9953af 3c478f31 bd63049a 3cff3ac5 bccc055d 3cd7f9d2 3d9ed812 3d276315 3d2b30bd bc08d253 3b97001a 3c794d40 3da592a9 3c6c19e1 3cde3ed0 bd95a46e bd7afc3c 3d1d04e5 3d516e5d 3c3d4fdb 3d01ae88 3c8825e3 3cb62159 3ac51103 3d1bd66e bc9c38d0 3bad3c2b 3a9afafc bcb301c6 bdb92f0e 3c08bab6 3c11d2f0 3cd0aed8 bc51d6db 3cdac81c 3bc1d7fe 3d4a6596 3c44ed1d 3c922d8a 3c8e1fbf 3c30ecdf 3d970a73 3ca04825 bd5299aa 3c362a34 3dafcb57 3bf97ce1 bd28474a 3d0e0f38 3d5d4196 3cccdc61 bce47a4b bc5c64af 3d25d9be 3c190aea 3d2fdca3 bc96c0cb 3c93f5af 3dfb9e93 bd68f396 bb68f198 3d90090e bc915b24 3ba7fc7f 3d2bd3fb 3d916d6d 3c504dc1 bc912a1e 3c0c1276 3d56fceb 3dbc6853 bccfcb63 bbc505dc bb52207d bc11cf6b 3c1406b1 bcef5611 3c9ddf24 3dc8f4a4 3cc53742 3cf7b855 bc113570 bd501971 3d1882fc bc4ed388 3da7c033 3d7ae55d bc138d32 bc9a7b78 3dd5947e 3cae8012 bdfd3a78 bc9a258f bd1ab0b7 3c442988 bb870a59 bd34d600 bc87794f 3ca9cd5b 3cf277b9 bc22fa2d bcee6ed9 3c8a2a22 3c9cefba bca4397a bd1b29c0 bc847e35 bc938d6b bc2a1262 bd473d87 3c8e7192 3ccb2c5a 3d07a910 bc67a73a bcdfa883 3c17ee80 bc9dd4c7 bc9edb06 3c731183 bd025779 3d5a7c1d bd2347e9 3b9c43cf bbe2f136 bd0864e7 bb058949 bbf7615c bc3592e2 3d48440c 3cb39f1f bc868364 3d206d73 bcc7bf8b bd78a04b 3d15cbc4 3d708358 bd659f1e bcf9941e bd4efe87 3da48a4c bbd9a571 3d7a32f5 3ca4bf55 3b7f6c6f bb9c7ead 3bf7b415 3d768bb7 bd7339c3 bd308276 ba823405 bc7794c3 3cc49aa0 bd83d2b8 bcc3e3a4 3d422b02 3dc4cd94 bae1b59d 3ca2e3d6 3be8fe27 3d491a79 3d5821b2 3cb302cf 3d15ae00 3d65df1a bd2a9e62 b905d412 3cb03ee9 3cdcfd42 bbf92935 3d8cb82b 3da88dd4 3d6bfc4e 3d8c3685 3c83e432 bb1eda86 3b863168 3dd054bb 3d889a5a 3d307a79 3d355e2e 3e05c6b2 3daf5208 3daac7ed bbce7796 bd8d8782 3c75fb33 3d69771a bc26ad53 bd679b6a 3c9dec99 3c96ad3d bc989cbc 3b3f1140 bcecae47 bc0cc6c6 3d3202f9 bcbe328e 3d6f4876 bc460a34 bbb976ac 3d667e28 3c389606 bb86fcce bd4fe754 3ccd7c49 3c5a5ee2 3d64dea0 396b667d 3a9f7125 3dbbaa69 3da98fae 3d12f7dd 3d13081b bcad9282 3d7823dc 3d8c6a51 3d5f517c 3b5c51a9 3bfe7ed2 bd167e73 baf9ae72 bd88b8c5 bd5eb9c8 3d6fe580 3c9a1b12 bd44674b bd0fa4d7 3cb8b286 3d711763 bc7ba514 bcd86e00 3bbf4221 3bb02222 3d91b573 bd4565e2 bc71d4ec bbd8d615 3d40a64d 3d598b18 3ce977b5 3d17ee5d bd9ebe95 bc4e4c0a 3ce4ccb6 bab0d9b8 3c260005 3c8e2a28 3d692ea9 b918f14d bc2a3002 3d4a9d91 3c326b34 bc1ae0f3 bcc4a51f bceed748 bd390693 3c783f84 bd4adcd0 bda30de5 bda8f107 bd11df45 3ca62b7d 3c1dfade bdc252a8 bd809514 3b25164e bbaa108d bd1c1dac 3cc1f71f bd637782 3cf98d43 bd610d0b 3c3bfe51 3d32ac52 bbc76322 bdbc3e1a bd1f4544 3d48db84 3babc26a ba776f79 3cc3b450 bcbc785f bd660530 3b80ad50 3a9347b9 bd9f5ccb bd872274 bdcac877 bd16c379 3d4793ef 3cca08f4 bcddb43b bd66fe5f bca8fa3c 3c07bf2f 3c998fbd bcee6e28 bda3c6eb bb0d9021 bd5c99b1 bc327e7b bc94339b bd57e6b5 bc41cefb 3b8efb31 3c6d6b85 3c35264e 3a15240a baf040d3 3d8071fe bcc6bb13 bd76706b 3cca33f7 bb96aa31 3d01783d 3c89386b 3b5b5c0f bcd51e4d 3d20bcbf bd0756a2 bbd2d677 3c2475a6 3c4cfa20 bd321fd5 bd971e92 bd9c7746 bd21dac8 3b36a6cd baab658e 3c43fb76 3d378f14 3ccca204 bca85315 3a8c0c3e 3d277b51 3e27a402 3db78937 3d58d69e 3d771ff4 3d5c3f7a 3d65e31b 3ddaba1e 3c387a48 3cb22842 bd2854b2 bd8f6a19 bd9e08ba bd87fd4e bd3efb58 bd4755e9 3c972354 bdcc0691 3c02ba76 3c845449 bcfde9e8 3d4d2b12 3d5aecf6 3ce7a826 3d607e6a bdb0a38d 3c8b9387 bc8c0210 bca16246 3d98f0b9 bd27b1c3 bd1d7bbc 3d26d83c 3ce6ae27 3d1fd6c1 3d33460b bd2786c0 3c20c81a 3d3cf139 ba8309db 3cedd792 3ce12dff bcd49780 bc96e618 3d9859f6 3caaac02 bce797e2 bd975535 bd242483 bd956d01 3b29caa5 3d91e3f3 bd47e2f1 bd990f8b baa9d643 3d551c5e bbb4c0e1 3ca92f4b bd6fd569 3d157d4f bd4bcad9 bd20f5bf 3d252e2e 3c57d63f 3dd5060b bcbfb0bf 3c7aeb20 bcbaa2ba 3cba1e16 3cabfc6d bc9d2a29 3d0a1037 3d376e26 3d550667 3d65e9f2 3cfc775e 3d69f217 3d2d9ca1 3cf54fda 3c62e50a 3c23bbd4 3d82d241 3c92cbe2 bd485abc bcd9238c 3d0e9613 3d32c796 3c7c9314 bcc59a6e bc04415e bcca3e27 bd4c7020 3d5b75c2 bd28e732 3cd42d5f bcee4632 bd7384f2 bd98b01c bd893f89 bd36f2d1 3d5cac9c 3c564e2a bcbccb5b 3d47dbba 3c9a7fb4 3cdacbc8 3cae37c1 3d139b1b 3d9876f7 3e16dae9 bd890982 bce5a928 3c7c5c01 3cb7a524 3d2fb113 bd656688 bda4d4b9 bcc2ac56 3c442972 3c09d68f 3cd7f637 3d7f7a69 bd1d54f3 3cd406fa be04e4de 3cf6cb46 bd0e0f36 bda3309e bd431a2f bd59f254 3c20ecd9 3b9c2676 bb08fc04 3d219891 3df8c0c8 bd0eefc4 bbb5b6c8 bcc94721 3d9757af 3e0efd7a bd320098 bc792810 bccc043c bcf19d43 3d753147 3daba5eb 3d884eac 3da06677 3d6c3b0a 3c1ebb37 3d457a1a 3dd9a9fc 3e0f1071 3d4ce62e 3bcadaf5 bd96cb18 bd9fc85d 3d88b7fc 3bfeaf6a 3d6052aa bd85a052 bd4eacfe 3cb89b3d 3d0cfbe3 bbf47524 bc620c97 bd217421 bc2ade8f bc40c7cf bd834e2e 3d76b881 3cad536c 3c972ac4 3ac4233d be0792b1 3dad8380 3d08055d ba8921ab bc693d5b bcae6317 bc4b623f bcb71887 3cc33a02 bcaafbb2 bdad6ace bc86d24c 3c489a74 bba149e4 bcbe657c bdac0d3e bdd26377 bd51c76b 3c144933 3d102835 3d3d5f6e bcc9877d bc6b65a0 bc4b12e7 3d3a5410 3bb13e84 bcc8b751 3b9b47e6 3bc7f643 3d18175d 3c7d89f8 3b8d5580 3c1a534f 3d61f2ea 3d261732 3d2b7636 bc0c44e9 bb8c2fde bc77aaa0 3bcd328b bc881870 3a813595 bcba562e bd4ff864 3c76bca4 bdb81137 3a0a1c12 3a859cbb 3d5fa735 3d115d46 bd4bc5ef 3aa6a35e bcf546ea 3d69b96a bb884ca2 3d25fa22 bd23f3bd bd0806e9 bc3770cf 3daad42d 3d72fc17 3db48869 3cdfc2ec bbbfcdea 3d8091f8 3d09a8c4 3d250f21 3c613d83 3d801fdf 3cac71b8 bc1c60bd bd52159b 3cb5ab69 3c68c99f 3dd6292f bd0d1551 bda7a116 bd4111a8 3c4c7ef8 3da1468d bade8c17 bd87ca1f bd5e9781 bd06a0ba 3ab8122c bd0f2d92 ba9da910 3d4c458e bd4589b6 3d5a899b bd7f569e 3ce0f6b7 3db1ebb4 bd1634bb 3d121d10 bcc07f0d bc8c84c2 3dc20f53 bcf03b5f bd2b4434 3c7dab3f bc0fc18f bab2fc50 bb3fd438 3bacfa39 bd956a3f 3d81ebe0 3da701c6 bcc995c7 3d9b2f56 3c37936b bd461d81 3da4e676 bcd3d8fa 3cee365e 3cd9f924 bd8371ea bd1683ec 3d08718b bb7ed90f 3cc543c7 3cc9f32e bc79961c 3d0b198b bde73696 3b26da42 3b8d7946 3d599fa6 bd6b964e bd6980bb 3cd930eb 3cc2c64f 3bfe3e31 bd467959 3be4ba9d 3d35154d 3c226085 3d066855 3da3aff2 3da1cf9a 3c9cd162 bd31544b bd69b3ba 3d8b293c 3d0f784c 3c1c48a2 3c603b1e bce0a9c0 bcb119d2 bd3ce45f bda4968d bcc31106 bce09b50 3bda7748 3b9ec51e bd99707d bcbacbd7 bbda9372 3ca58b41 bcfebadc bc65db10 bd933d14 bd0feed8 bc1b462e bc2dc73e 3ca0c285 bbf195f2 bd5325af bd0da05a 3d93234d 3bc723eb 3d0edfcd 3d3c6336 3d0c5509 3ce1a3f2 bcf4022a 3c685a1d bd34d3ea bd3736cf bd1f9359 3ca9f7e1 bb1473da 3d05179b 3cc8efb1 bc921cd4 3da19aa0 3cb4b8dd bc877a46 3cfdd9fd 3c9a8f4b 3da65d3f bd21ac93 b9cc87a8 3cd1e1b0 3c1ea6a0 3d060d4e bd496e5b 3c9872a0 3bce3f9a bc2c8519 bd60737c bb1e637e bd11d164 bd4e50b8 3d110007 3cb47055 3cccbe2e 3d4913c1 3c43d588 bd09f319 bb356eaf bd0ad8ab bc84019b 3db4ee2b 3d1ceff3 bd44ba68 bb334dd7 3d9018bb 3d75d810 3c667136 3d2ec06f 3b9bc4f4 3cc37f1c bb9761f0 3d1e5da3 bc5bca19 bd1cb4bc 3ca7d621 3d65feb4 3cccd13c 3d040a7d bc73080c 3d2b0cd3 3cfc641d 3d8b238b 3d7048ab bd602fcf bd36ddc3 bd691b50 3d96bcbb bc88a98d bcadd974 bde47898 bc8503c3 3d35d948 bc6eee97 bc9a5fb6 3d23be29 bd180b12 3d5c9b4b 3acabedb bcb6f2b8 3cf574db bd8a7678 bd80bf28 3d75edc5 3b5a7b1b 3ad00b97 3d929bf6 3d1ff346 3aa5edb9 3c93335a 3d9bbc1d 3ccbb494 3daf55aa 3d62da4d 3d93de20 3d22327a 3c3f901d 3d3c2c0a 3d12a20d 3c0554e9 bc52df13 3cc4d948 bd9e699c bdd40ab1 bc8f6f56 3d97c621 bca2d537 3cbd01ca 3d0138fe 3c9b3456 bdceee23 bd45a993 bbafeeeb bcebf760 bdba0adb bd3876de 3c4b5f5b 3d71bddd 3de15346 bd361dfa 3d07181c bc6dc5e8 3d1fa80f bbef4ef8 bc96e9d0 bc5315af bba1dc24 3b71985e 3a93fcc9 3beacc33 bd1c0d0e 3cd75cb8 bc20d1a5 bd059ecc 3ce6007b 3d688f42 3dacf776 bdc36c6f bc1be278 3d1dbbfb 3d8803d8 3d70da0a 3ceeedb8 bcadffdc 3d15ee74 3ce0c42e 3dbc4f54 bb5166e0 bd12e5a7 3b931ba1 babe30cb bc8ec7e6 bcb47026 bbd9a167 3cb83dd5 bc9ead60 3c3c4419 3d34bff2 bd579be2 bcb0afee bcd12b7f bc28d0b7 3c14acae 3d802e23 bdd015e0 bd828816 bc71bfc2 bd2d32d8 3c1ab51f bdd4422f 3d4bb910 3cfb1967 3cf6a420 bd26f5c8 bb95983b 3aef94ca bd4165d8 bc7e824d bdf2e847 3ca16643 ba5d7fc1 bd3bc2da 3d111640 bd91c812 3d634ce9 bd22ac79 3c977e97 3c4511e7 3d334c23 bb52493b bdec5a34 bd7ede70 bc3c46ae 3cbb43f2 bd084552 bc300172 bd1aad06 bcfde3b5 3c104818 3d629248 3c74ec25 3de970f8 bb0431aa 3d2846a0 bcb616a5 bbb779ac 3daa94a9 bd2bc885 bc1318d8 bd71a8d7 bd07f155 3dc3712c bcc77d5e 3cbfc62f bc290d25 3d0a72d4 bccc4490 bd036aff bb0e05b6 bd8946ac bc7233a5 bd60a146 bd0e99e2 bce2b52d 3ca78d3f 3d11af0d 3da7ddc2 bd2c51e8 bd7b5295 3d40154a bd628db9 bd00d7ef 3cf7d652 3d145a53 3c6a2161 bc8f31dd 3d175454 3cc6b5c1 bd6b68bd bd425ea2 3c813dbc 3d57457f bcba9c38 bc7766e3 be018d51 be0c1846 bd43ae01 3da6dc67 b9fcf59c bc2489ed bcd406bf 3cc3a855 3d3b746c bd261743 bc9e126f bc3e39ae bc827948 3d232d8e 3c98ea31 bda3ee67 3d339559 3d9571cc bc929709 bbb66aac bc91f857 3d811b55 bd0ffcf8 bc8a856b 3bb3ce6d 3d40c93e 3c107a46 3d97eb77 3d2f2960 bd8d471f bbec59bd 3cc0bff1 bb9d41e0 bd29e492 bd1c91f7 3cff5a11 bd4901a2 bd41665b bc211c4d bd0ddfe3 bb864f4b 3d519581 bb81134e 3d1884cb 3d3f5dc1 3d58f562 3cd0b040 3d20bff6 3d832182 3c89cf36 3db4329f 3d294103 3d32ecd4 bc9c645d bcce22f8 bd070843 bdbc86aa bd761480 3da8d712 bc87b638 bdd1cb29 bc9e0159 bca03158 3c984d73 3d7edd2b bd577ae4 3c56597c bb3bbe5b 3d78dfe3 3cc90f6e bd136a5a bcd2c834 bc2bb1b4 3cbbdfc7 3d0b06fd 3d0bb0d3 bc53b956 bbf66c52 bc9ca720 ba0a9186 3d80e038 bc54a3e5 3bdec0d6 bd522b10 bd3c6139 3c40be0b 3d804be0 bb8c6c54 bc0cad39 3ce64805 3da06022 3d90a46d bcb35261 3b5a6417 3d18e0ae 3da50391 3b17cdf7 bcccc490 3c54a947 3bc60297 3a864940 3c410681 3c2f625b bceeef0b 3d05f06b bd17a204 3d90275c bc97ba92 bdaa8fc8 bd1abebc 3c762d24 bcc558d1 bd8bff04 bd83e205 3c8a6c0c 3c05d662 3d4025b5 3c850ba4 3b3a447b 3c9be30b bc3bdd03 3d3994a2 3d8236ea 3d041521 3d0c8a1f bd545e43 3a16fbef 3d889bb6 bd0fe4c4 3c403ff7 bc99868b bccbe235 3d292e3c 3d7b01df 3c0cbbf1 3c35d785 3ba8386e bca16bf2 bac33778 bdaf9a1c bcbecb37 3d8451c2 bc43a3ec bacadfbc bb3d7b4b bd268484 bd3994eb 3cd9fb03 bc6af0d2 bba2773e bbc62fb8 3bf579f7 bc9c6d03 3bbe14ab 3c3ed8ef bc1386e0 3d254273 3d0d1c02 3cfaa9c4 bc15b180 3cad05a5 3d575bb0 bb8395a6 bd84b8af bd72304e 3ba87efc 3d6f5540 3d6400ec 3c1ae2e8 3cc5864e bcfc97ed 3ce027d8 3d48d7a4 bccd0c94 bd22b74f 3caf2d70 3d97ea50 bc13e0ee 3c104a1a 3e102108 bcf39194 3c4a6d9d 3cb12680 3d3eaebc 3d0b518e bd57e659 3c5f0869 bd206de1 3d71c184 bb82af61 3cd13c96 3d668755 bbb9e0b3 bd6b4aae 3c6a1c25 3d9c8193 bb82fc64 3ceb5323 3d0026bb 3c749f5d 3c3bcae0 3bdedde9 3c79761d 3d601313 3d868030 bce94ad8 bc03a50d bc493979 3c929215 bcb79e14 3d06b409 3d74bb10 3d1a3653 bc7588ea bd9148f2 3d8036d6 3daf4e66 3d3da7ac bcd1c7f5 3b6e357b 3d85ba9f 3debb6bd bb7d5263 ba7f45bf bd7684a0 bcc91f91 bccf9686 3c03d82c bd204d30 3c0bfcc2 bd7b6b6d bcd91f73 bc798f25 bb05eaf4 3ba8cee8 bd8ddf01 bd7b778f 3b331bc1 3d6f6440 3ae652f6 bc72af3e bd381cb2 bd28ea66 bb12dee8 3d5f8872 bd58f4d3 3bb255df 3d794e04 3cf83f95 3d2b0e67 3bb10cb5 3ca9ec18 bc9c5893 3daed7cf 3d971546 bcd387f2 3ba8a6b8 3d18fa52 bd8bcc0d bde2a995 3d08e21d 3d61bf29 3c8eb550 bd9e880c bcee5bba 3dad2d2a 3dd75d52 3d6b8b41 3ce27f54 3c23f5d7 3aa12846 3d0b3600 3bd51e7c 3d430456 3d0a8e39 3db6406d bbf9927b 3d4ad0fd 3d909fea 3da7544c 3d109f91 bd00abd2 bcb29ecd be02769a bd86b89f 3cd7e78d 3d745cb9 bbcfe268 bd39fc00 bcc22d5f 3cd52c96 3cdf2305 3be29710 bd0a6ab7 3d498e53 3cd7f958 3909d120 3d3fa8ef 3b9080a7 bcde68ca 3d9df924 3d00b635 3ceeb25b b969eb12 3c3eb19d 3d9bdfe5 3d1b73f4 3b9f4da3 bd8dde50 bd8c7953 bac2efaa bc8a02d9 bc22a53d 3d91d729 bba64dca 3c8d18df 3d8e0c07 bc6ffcf5 3c7ddef5 3da7d7d0 bd04b9f6 3bea50a8 3d4e0a59 bd8992ea 3d8d717d 3d4cbee7 3c939351 3c80249b bccf339c 3ccbdcd3 bce521e9 38cd2eef 3d338db6 bb8b9a9d bcbe47be 3d27c9ac 3cdfc540 3cef9f46 bce4e7a2 bd690f3e 3cfa7b90 3d57d257 3dafef51 bcc75b65 3d844e6e 3d075977 3c919b69 3d7b41b4 bd4dd35c bca4f5bd 3d447a2c bd124ee6 3c6e1bee 3ca7e389 3da4c844 3beb1e3b bd362a3e 3ce1f98d bcbe9d80 bca2a8dd 3c5321ef bd97c099 3d6134cc 3ca208d0 3ce7d5cf bd3bc37b 3c73036f 3d579904 3d91252a 3d252828 bc45cdd3 3d998160 bd57aadf 3819d082 bca67161 3d47a889 bd701c8a bd17ba51 bd926312 bd6ab4a7 3d382448 3cd37848 3c5fe5a7 3d8c29b6 bd12d12c 3ab0bd94 3cc6cb9b bb975e1a bd209527 bd9e8fbc 3cfb8d61 bd218abb 3d656e76 3d55d5f5 bd4db61d 3c814b43 bd523c1a 3d37413b 3cde4d3f bb5caac7 3c7e8c99 3c21c1a6 bc456a01 3d810319 3d5cccbb bc43b300 bdb03556 bc82bf02 3c87646e 3d84dba1 bd73a550 bb218641 3d7c139e 3da1c700 3dbc965a bce8629c 3be58621 bd1353b1 3d190d1e bcc55099 bd28c20b 3a42b35c 3d148c6f bc0d9de2 3a71242b bd449ff5 bd5d99fb bc9eabef bcebafa2 bd0fa353 bd670f16 bd306192 bcd837db bdb63bc7 bd57f510 bd04ee29 3ca5c90d 3acb12b2 bce8c236 3da7465a bd9e7b1b bc3d530c bb9b68b2 3cb55cfc 3cb3445e 3c3dfaa2 bbd9544b bd60cd2f 3d37fb3c 3d455ad0 bb9dee91 bda3ab2c bd15c295 3dbc78a9 3d94563a 3cad1342 3d1bde0f 3c70e858 bd40da8a 3c6af941 3d5072c7 bd6e9c86 bdad7076 3d560283 bcc48d78 bd6767ca bdd6f22e bcfa60fc 3b8f76b1 bd12b9c8 3c7624b9 bbd72fe8 3cda04ee bca3df40 bd40ecb0 bc7126d6 bc3ce49b bd6279cc 3d88d0f9 3d39aa23 bd2513cb 3d34f791 3c83669a 3a266ba7 bb37615d bd1dbeaf bd3194a4 3bedb059 3d96145e 3b56c5f8 3c5b159d bca1f831 3c197b50 3d1d604f 3d8fbfa7 bc44856e bd1c662b bcf165ba bd58459f 3c517510 bcc59ca2 bc3a552c bc645075 3d2e4a71 bd17a5e9 3d8a1f35 3d47af2d 3bb3a1c0 3c17aa1e bc8b0c29 bc9cb58c bb151791 3c458c02 3d0be370 3b43f958 bc87432e 3c775b19 3d42ccf0 3c40c1e4 ba1fc5eb bd7cec8d 3d184c61 bd0bd392 3cfc8c17 bc09d738 3c926743 bd6e9ecc bcb5b5c6 bd17b204 bc0c0e5f 3cbb3c64 bb9f399b bbcc25b0 3cdb6394 3d9bcc6c 3d10906c 3db2bcab 3cbbfb07 3ced7d61 bcce5b0e 3dae1f05 3daad4d6 3ca8db11 bc8d954f 3c92e5a9 bd12c6e3 bd4a150b 3d71925a 3d783561 3d3599a7 3cb582eb 3c9f7aeb 3d626be9 3d077e52 bcb03736 3ab9e307 bd24244f 3d38bba2 39a81605 3d6b7b0a bc0aeb56 3d527869 3dd20758 3cf974ef 3cd3149d 3d313b03 3caa1bd9 3d859404 3d888dcc 3d4bb0d0 3d0ad492 3baba466 3cf5a1e4 3d1c1a3a 3c7f37c6 3c17e38b 3da485b4 3c448d4f 3d97e972 3c89a4aa 3c2d9a4f 3d2b8632 bc923f8e 3d02a16a 3a04140b bd06b65b 3c8871a1 bb12ba01 3d37ffb8 bccf3932 3d32ee00 3d7916e5 3d95a73c 3d1b12a1 3c752a5e bd8c4a99 bcba3b44 3d198011 3dbf44bf 3d89de5d 3c537124 3a9bfe2e bd1576e5 bcdf9a47 3d93d283 b98c95c6 bd904d05 bd874af9 3cc98dc3 3c805b46 bd8f1b47 bddb7e81 bd0ea983 3b0bae55 3c8d4ead bc9a37c2 bd8a0d00 bdcc4e6e bc3eb9b6 b9c02eab 3ce475e3 bdba6f2a bd505932 bca33d90 3d313425 3cb75c08 bd3d55b6 bc942ea1 bce7b3f8 3d4a0d79 bc3d5f0d bc8119da bcd2c442 bd616820 bccd4b38 3a422959 3b488306 3cffb83a 3d5bc966 bd2f2e3c 3b9fbd84 3cb5b9a7 3c00dcbc 3dc6cf89 3da5859f 3c82eb5e bbe71577 3cdd7637 3d8a3df9 3d41c0db bd05ea39 bc9fd42f bd10665a 3cfe0fb9 3c2eace8 bd1ae1dd bc82a4cf bd2b40e3 3bd51b6c bbe5cecb bc932178 3ab1a4ac bcec79b2 3c9b7046 3d3197a6 bd9b2a10 bcbe72e4 3cad622f 3ce56b10 3d0a8585 bca16766 bd081a16 3c374ba9 3b1352ee 3b1c8c4b bcb257b8 3d03cd4e bc901efb bd1e7e42 3d3b3f50 3b05707b bd5fb20f 3ca4dba1 bd0ba1d8 3d5ae0da 3a9d83d8 bc935cdd 3c6e9295 bca36b7c bc7ae071 bd79dea6 bcccecf2 bd893e35 bc0217be bd8be14f bd6ca044 bb16a0f0 bcf83da9 bdb98eee ba243a79 bb5e3309 bc8ae9d8 bc510e79 bd48f404 bd6d502c bd0407a1 3cd558a8 3c3d9807 bd397da0 3c8b6a05 bcad9b11 bd3f478b 3d0ab4ce bcd0d97a 3d91e977 3bee629b 3d6f8cb5 bba03132 3c33a482 bcce8874 bb43b815 3cc1e4fc bd75ff99 bd892a0d bdcebec6 3cb72b3d 3d76a9a8 3d94b1f5 3ce5688d bbdd1ffb bcd8eaa6 bc878b91 bd440bb8 bd124042 3d0be585 ba42f940 3d8c594c 3cfa8826 3cd4b664 bbfe4ae8 ba81d986 3d10fb7b bb986f93 3bd9cff7 bd979f6c bd0d7c12 bcecaeda 3d5853bb bd86b799 bd45a72b 3d1aac95 3db4f740 3cc72f55 bc8521b9 bd88724e 3bf0c72c bcc46068 3c622890 3c6fdfcf 3b4dd81e 3aaf7ec0 bd17ffd9 bd165b57 ba9e8668 3bc8c342 3d704f19 3d1757ab bdd07425 bd54d2fe bae33a05 bd21f671 bc3d52a1 3c4ed828 3afab46c 3d71917f 3d33abe2 3c69912c bd6848b5 3cdd78b5 3b9d3927 3c8f8c1f 3d2750b7 3cea54bf 3d2d6919 3bef3cc8 bc6e18fb bbda4ea3 bc54e242 3d2e51af bca767cb 3c84052a 3d1cf501 3d57a953 baa33366 3d6f8b30 3d7fe643 bb165836 3cecd127 3db12b1f 3db86864 bd0c763f bd791b6a bd36f800 3c928aef 3ca8ce0b 3da72de3 3d5c494e 3d2fc065 3b22ab15 bb5d8948 bc6ad93f 3ce98629 3d5553b4 bb80e505 3cbfdc0f 3caf15d5 3d36e8b6 3d7e174d 3d0d012a 3c9815ff 3c351462 3d0cc1f5 3c30aee3 bc7b5b2e 3b3a057c bae09b08 3d7669d7 3dba01c1 3dc2582a 3dcb1995 3cc6a622 bcd26512 bd1d5a68 bcd985c7 3d412307 bd23339f 3d3d99c7 3c12b42c baec6bca bd39f2bf 3cabae18 bd01c31c bd515724 bd975965 bccac1c2 bc873db7 3c65e797 3d8e8d10 bc482af0 3c078c7c 3c47715d 3d6dc75a 3b2b5455 bdc917e6 bd992d31 bb50dbbf 3d34a46c 3c966b11 bd94c755 bc802d64 3d695d4f 3d99984f bb6d8b2e 3cdc8324 bd3f48ce 